#version: 0.2
č Ċ
Ġ Ġ
Ġ t
i n
Ġ a
e r
ĠĠ ĠĠ
Ġt h
Ġ s
o n
r e
Ġth e
o r
e s
a t
Ġ c
o u
i s
Ġ w
i t
Ġ f
e n
e d
in g
Ġ d
Ġ b
a n
Ġt o
Ġ p
l e
Ġ m
s t
e t
i on
l l
o m
Ġ in
Ġa n
Ġ o
Ġ čĊ
a r
Ġ n
Ġ -
Ġ I
ĠĠĠĠ ĠĠĠĠ
i c
u s
o t
Ġ l
e c
Ġ h
Ġ is
a c
Ġ re
a s
r o
a l
0 0
Ġan d
u t
Ġ 1
v er
v e
Ġo f
Ġ y
Ġ e
en t
ĠĠ Ġ
u n
o w
â Ķ
Ġy ou
Ġ on
a m
Ġ (
d e
Ġ us
i l
Ġ it
âĶ Ģ
p t
âĶĢ âĶĢ
Ġ g
i f
Ġf or
Ġth at
e m
Ġb e
T h
- -
a b
r i
it h
a d
c t
Ġw h
Ġ 0
ĠĠĠĠ ĠĠ
es t
l y
i m
Ġ "
t er
Ġ r
a ll
Ġc on
i le
Ġs t
Ġ S
Ġ 2
l d
k e
Ġw ith
o c
s s
i g
u p
Ġ /
c h
a y
ou t
at ion
es s
i d
Ġe x
Ġth is
at e
an d
a g
Ġc om
Ġn ot
Ġ A
u l
Ġh a
t h
Ġp ro
Ġc an
ec t
er e
c e
s e
Ġ v
. .
u m
s w
Ġd e
am e
Ġd o
i r
u r
or k
er ver
Ġa s
or t
ou ld
ac k
Ġha ve
Ġ or
n t
o l
i re
o st
Ġ Th
r om
Ġs h
y st
Ġf ile
yst em
o p
âĶĢâĶĢ âĶĢâĶĢ
ĠĠĠĠĠĠĠĠ ĠĠĠĠĠĠĠĠ
o g
i ll
Ġa re
q u
ar t
a in
e l
Ġn e
Ġc h
s h
Ġ C
A n
Ġb y
in e
Ġ D
ĠĠĠĠ Ġ
sw er
ac h
p p
d d
ĉ ĠĠ
o re
om e
Ġf rom
l i
is t
Ġ if
Ġ- -
ab le
Ġ P
Ġs u
c ess
Ġb ut
' t
ĠĠĠĠ ĠĠĠ
Ġcom m
f f
Ġa ll
v ic
ion s
ul t
Ġs e
An swer
a il
' s
Ġs erver
Ġm y
i p
Ġ L
o d
Ġ M
en d
Ġyou r
b le
Ġ R
-- --
Ġus e
Ġr un
Ġt r
h t
Ġ [
Ġ k
est ion
all y
Ġ N
c om
er s
Ġ $
Ġw ill
= =
Ġa dd
in d
a p
e x
an t
Ġl i
Ġ un
Ġs et
ire ct
Ġf il
Ġ '
1 6
Ġ 3
Ġa t
Ġa l
1 0
a re
et h
Ġan y
oc k
c ri
ag e
Ġ F
Ġcomm and
ic h
p le
or y
Ġ U
Ġ =
vic e
Ġs ystem
p ut
Ġ out
1 2
c on
ro ot
Ġ O
ou r
in t
u st
u re
f ig
s o
Ġs p
Q u
Ġw ork
Ġin st
cri pt
ĉ ĉ
ar d
et w
u g
o de
ou nt
r ou
Ġ W
u e
p ort
i ve
Qu estion
ab l
Ġ up
n ect
Ġfil es
p l
im e
u x
) .
Ġs o
an g
re ss
Ġ |
i z
e ll
ac e
as h
ĠTh e
o o
Ġwh ich
Ġ T
2 5
Ġli ke
Ġus ing
2 0
Ġ E
Ġ 4
Ġ en
Ġ j
on e
in ux
Ġa c
n d
er n
as e
ke y
et c
Ġcon t
Ġ B
er r
Ġd irect
Ġne ed
t p
y p
u b
at ed
Ġ 5
Ġg et
f or
de v
Ġ i
Ġ *
er m
Ġs ome
Ġthe n
etw ork
t o
00 00
Ġo pt
n ing
in k
Ġw ould
l o
f a
Ġm a
âĶĢâĶĢâĶĢâĶĢ âĶĢâĶĢâĶĢâĶĢ
Ġth ere
Ġd is
ec h
f er
Ġus er
th er
Ġwh en
9 2
Ġon e
at a
Th e
ss h
6 4
Ġcon nect
Ġ G
# #
Ġon ly
b in
Ġ1 0
oc al
) ,
Ġw ant
Ġin ter
Ġ H
u d
E R
it y
Ġf o
Ġdo es
or d
: /
c p
fa ult
Ġre s
Ġn o
Ġa pp
y s
it e
err or
1 1
a st
Ġs cript
I N
.. .
b ug
ech o
Ġa r
m ent
b o
Ġp o
Ġl og
Ġ V
t u
Ġo ther
Ġ ver
l og
Ġcon fig
S T
s ion
ot h
Ġh as
at h
Ġp r
0 1
l ic
i v
Ġ 8
abl es
Ġ <
p ro
A T
Ġm e
Ġ qu
Ġw as
Y ou
Ġsh ould
ĠI P
Ġp re
f s
er vice
Ġwh at
f ile
yp e
i x
e b
U T
oo k
ow n
ll ow
Ġ error
2 4
iz e
Ġ root
Ġc re
Ġt ime
p er
c l
Ġpro cess
Ġb ack
e ad
g r
Ġh ost
Ġn etwork
Ġm an
i es
I D
n et
Ġ .
Ġ" $
ac t
Ġ :
Ġre m
ig n
ec k
Ġp ack
â Ģ
e p
ar g
Ġ le
Ġw r
Ġp ort
ern el
Ġsp ec
p en
Ġal so
Ġdirect ory
n ame
Ġre ad
ĠTh is
ot e
Ġst art
Ġinst all
Ġ 6
m p
rou p
Ġj ust
Ġ #
de bug
Ġs ame
am ple
' m
Ġa m
Ġg o
16 8
o s
Ġw ay
g h
t ing
t r
x x
a us
for m
h ost
i de
ĉ ĠĠĠĠĠ
on d
Ġp art
Ġus ed
w h
Ġne w
Ġ key
Ġ im
Ġch ang
ow s
S H
Ġfo llow
f ter
Ġtr y
P T
Ġde fault
li ent
Ġrun ning
Ġv al
00 0
w w
y n
C E
ut h
Ġl ine
Ġadd ress
b er
Ġh ow
ble m
== ==
---- ----
ĠI f
Ġm ore
ou nd
on g
Ġ {
us r
* *
Ġac cess
it ion
a v
as s
li b
re ad
at ch
Ġ2 0
= "
8 0
Ġl o
Ġse e
l ock
Ġpro blem
ar i
Ġspec if
:/ /
1 3
d er
u ll
Ġ 7
us er
Ġst r
Ġopt ion
Ġa b
Ġout put
p r
1 5
r y
Ġs sh
Ġm ay
ĠĠĠĠĠĠĠĠĠĠĠĠĠĠĠĠ ĠĠĠĠĠĠĠĠĠĠĠĠĠĠĠĠ
i a
Ġd ata
Ġd if
1 7
Ġk ernel
ir st
1 4
an s
ĠL inux
R O
Ġc ould
" ,
ct ion
ar y
2 2
i al
Ġs ec
ĠI n
Ġl ist
I f
Ġre qu
Ġm ach
v ar
W h
aus e
Ġd on
t e
Ġk n
ur n
Ġl ook
f t
i ble
1 9
Ġs up
I n
Ġp er
Ġin to
ht tp
R E
as sw
5 5
our ce
3 2
x t
Ġn ame
O N
ver y
t es
pt ables
ig ht
Ġ echo
Ġf ail
k s
Ġo ver
r w
Ġdif fer
n o
ĠĠĠĠĠĠĠĠ ĠĠĠ
um ent
i e
Ġfollow ing
Ġthe m
Ġc all
w ay
b ash
w are
Ġ >
s ystem
Ġsh ell
Ġs im
i ed
( )
Ġw e
A R
1 8
s et
Ġd ri
s d
re p
Ġm ount
Ġcom p
] :
en er
M E
0 4
25 5
Ġn um
ag es
Ġthe y
Ġe v
Ġb o
Ġv ari
2 3
h ome
Ġcont ain
Ġex ec
Ġ1 92
Ġst at
ĠĠĠĠĠĠĠĠ Ġ
re e
ach e
8 6
Ġch eck
Ġa ct
ur re
ex t
Ġl ocal
Ġex p
Ġb ec
Ġf irst
un tu
Ġab out
Th is
Ġs om
) ;
ĠI t
Ġsu b
Ġt w
Ġma ke
s p
Ġth an
f o
is s
s erver
yn c
assw ord
r on
eth ing
Ġf un
Ġ âĶ
Ġkn ow
an ce
Ġ x
Ġre t
Ġo pen
u ct
f ore
ou s
Ġ \
er t
Ġex ample
A N
' ve
Ġmach ine
u ally
Ġt ri
e ver
Ġa fter
urre nt
ut ion
Ġt est
ĠA C
/ .
ter n
Ġ ent
Ġl ink
con fig
Ġt ype
Ġ1 2
Ġc lient
Ġm od
c re
Ġby tes
oth er
Ġpack et
Ġ 9
Ġp l
gr am
om ain
ur ation
Ġf ind
o se
O S
j ect
Ġ eth
l ocal
ĉ ĠĠĠĠĠĠ
m in
st r
Ġtw o
u le
ock er
Ġp erm
Ġinter f
0 9
Ġe ach
con f
n ot
Ġr out
Ġsom ething
âĶĢâĶĢâĶĢâĶĢâĶĢâĶĢâĶĢâĶĢ âĶĢâĶĢâĶĢâĶĢâĶĢâĶĢâĶĢâĶĢ
Ġc ase
in es
Ġd es
o v
Ġ +
Ġt cp
Ġdiffer ent
CE PT
at ing
ind ows
ic al
L E
Ġver sion
3 0
) :
I T
Ġis s
ic ation
a k
Ġe very
ic ally
ud o
or re
Ġbec ause
d ir
Ġde vice
## ##
Ġthe se
im it
arg et
A C
u il
Ġf e
Ġwh ere
Ġg roup
O R
Ġc ode
Ġ ]
Ġa v
l ow
lo ad
d o
Ġpr int
m l
Ġs ol
in al
F S
Ġsu ch
d ate
a pp
Ġ &
Ġa d
Ġa ss
ad d
Ġit s
en c
am es
Ġret urn
el p
vic es
ve l
w n
ĠW h
Ġre c
Ġa g
th ing
Ġ 00
Ġexec ut
in ce
Ġnum ber
Ġconfig uration
Ġs ervice
i an
ar ch
Ġch ar
s udo
Ġs w
C P
Ġdis k
_ _
en ce
Ġpo ss
m y
Ġdoes n
4 4
Ġwith out
Ġpro gram
Ġ ip
a ke
o b
Ġ }
0 2
m d
S S
Ġun der
Ġh ere
Ġsup port
3 3
r c
s ys
Ġar g
t y
Ġval ue
l ine
Ġv ia
v ir
ĠĠ čĊ
Ġsystem d
Ġ id
ce pt
p ar
w ard
s ervice
9 9
t mp
Ġcre ate
ou gh
Ġback up
E D
Ġ1 6
X X
ĠAC CEPT
Ġa ble
: :
ff ic
ation s
Ġ1 7
p h
5 6
= $
ld er
Ġse em
Ġ You
Ġf ound
Ġp ri
s er
Ġat t
P UT
g e
t xt
n e
ul es
Ġchang e
abl ed
ĠI N
Ġt erm
Ġs ize
Ġc urrent
Ġpr ot
Ġwork s
s a
g ht
s ync
Ġc orre
Ġm em
Ġb ash
ĠS SH
rou gh
com m
Ġtry ing
op en
Ġth ing
E N
at es
5 0
Ġsec ond
st art
b e
ĠâĶ Ĥ
as k
3 6
Ġp ar
Ġtri ed
Ġconnect ion
t est
3 4
p re
Ġall ow
Ġbe en
Ġh elp
it ch
ub lic
Ġ end
Ġg ener
r un
m od
Ġm ess
ĠĠĠĠĠĠĠĠ ĠĠĠĠ
a x
Ġre g
Ġst ill
r ay
Ġs c
g et
Ġ X
if y
o ve
bo ot
op y
f il
tu al
it s
A D
u de
Ġs ource
b ack
u al
Ġd et
d is
Ġbe fore
t en
Ġinterf ace
Ġev en
Ġm ode
Ġc l
Ġp assword
Ġo wn
Ġ K
H ow
Ġ1 5
Ġrem ote
or g
Ġth rough
Ġres ult
Ġb oth
Ġb lock
Ġpro v
ent s
Ġfun ction
Ġe m
A L
Ġsu re
Ġset ting
ĠĠĠĠĠĠĠĠ ĠĠ
Ġp ath
ol um
Ġposs ible
Ġ J
a pt
Ġm ight
c c
Ġm atch
Ġbo ot
i ptables
Ġopt ions
' re
Ġpo int
Ġrequ ire
Ġd one
l ag
ĠR A
q l
wh ere
Ġan other
ct l
b r
1 92
form ation
cl ude
4 8
Ġs end
Ġ ~
v al
Ġn ow
==== ====
b ut
p ath
T P
Ġd id
2 7
x y
Ġa ut
p end
is h
3 8
u es
Ġus ers
pr int
E T
t op
e e
o pt
rw x
3 5
.. ..
f in
2 8
Ġqu estion
ww w
g in
t ed
3 7
Ġm ult
l s
2 1
d irect
Ġinst ead
Ġw eb
Ġiss ue
I t
ic e
ter s
IN G
S o
Ġfor m
Ġlo ad
ail able
Ġh ard
Ġ1 4
Ġh t
Ġd own
uth ent
a w
Ġ z
Ġcont ro
Ġconfig ure
Ġin formation
p o
Ġ %
ĠF or
th e
or s
Ġof f
Ġan swer
Ġarg ument
ang e
Ġwr ite
ĉĉ ĉĉ
= /
ir tual
se l
vir on
Ġcommand s
Ġtr a
ĠĠĠĠĠĠĠĠ ĠĠĠĠĠĠĠ
0 8
b untu
Ġbe ing
m an
Ġstr ing
um p
as ed
e en
is e
F I
st at
Ġg iv
Ġex ist
2 9
Ġapp lic
Ġ ke
2 6
Ġth ink
viron ment
n s
etw een
ac es
I P
t ime
Ġwork ing
d ata
l ess
N S
F or
in ation
Ġpacket s
U S
a ve
u c
s ec
Ġvari able
D E
ĠW indows
ess ion
Ġb etween
0 7
le ase
iss ions
Ġac c
Ġcorre ct
Ġo b
Ġchar ac
s ide
Ġrequ est
Ġwh ile
0 3
Ġl ong
ith er
ab ly
a id
Ġht tp
e ar
Ġthe ir
Ġh and
ic k
Ġst ate
Ġfiles ystem
Ġl oc
0 6
ĠC on
Ġp h
ĠĠĠĠĠĠĠĠ ĠĠĠĠĠĠ
L O
Ġg u
il ity
0 5
est ination
Ġg rep
g roup
u ff
Ġinstall ed
Ġ ...
w r
in ter
Ġmem ory
ing le
Ġtr ans
Ġsh are
Ġs y
m ount
uil d
Ġver y
Ġsw itch
Ġo per
ri ght
ĠS t
f ix
bo ve
Ġserver s
Ġtra ffic
A P
Ġe l
u ch
7 7
pro c
rou nd
S t
Ġb r
** **
w all
http s
g g
Ġa bove
Â ł
Ġs er
Ġth ose
Ġperm issions
in it
Ġwr it
Ġcom ple
f ul
or ies
Ġha pp
Ġav ailable
Ġsol ution
i b
Ġm ost
system d
ol ic
Ġdri ve
at ive
9 6
read y
Ġin t
Ġw ell
m b
ĠH ow
Ġ ?
Ġs ay
Ġex it
Ġag ain
L I
Ġt im
Ġs ince
Ġh ad
-------- --------
s ed
5 4
Ġpart ition
1 00
Ġp ass
C h
way s
Ġsu do
re s
c at
ul ar
ri d
i o
le ct
ĠV M
' d
sel f
Ġar ray
m s
Wh at
8 8
A ME
Ġset up
ire wall
E C
} "
Ġ u
Ġen vironment
Ġal ready
Ġn ames
Ġs ingle
S I
Ġc opy
Ġseem s
Ġ âĢ
3 1
d b
ĠS o
t s
a uth
" :
ry pt
n el
Ġcon s
Ġsh ow
Ġper form
Ġi ptables
A B
Ġde v
ĠU buntu
Ġ1 00
M P
t ype
v ing
Ġs ect
ur ity
Ġ2 2
Ġ1 9
Ġ2 01
i ous
Ġin it
ĠRA ID
and ard
Ġcre ated
Ġmult ip
Ġhapp en
3 9
Ġl imit
7 6
E L
Ġcan not
as on
Ġn on
n al
Ġin put
uthent ication
Ġm in
U L
am et
or m
Ġsp ace
ĠS erver
iz ed
at ure
ow er
M y
4 0
$ {
ff ect
st all
op e
Ġp ut
A S
Ġ1 1
lo b
v es
oc ument
I s
Ġterm inal
c cess
eth er
S O
p s
Ġm ain
Ġ& &
I C
E x
Ġdo ing
C on
ft ware
ou ter
Ġstat us
Ġ ;
5 9
Ġ1 8
ol s
Ġt arget
b l
âĢ Ĳ
Ġcom put
o ver
U P
ub untu
Ġm uch
25 6
Ġwh y
Ġre ally
d omain
N O
Ġfail ed
Ġe as
Ġp ublic
id er
ĉ Ġ
cl ud
ĠB ut
Ġre pl
ro w
Ġre p
P U
Ġ etc
Ġd ec
re d
o id
U N
b ably
l ist
Ġfo lder
Ġt able
ex ec
Ġto o
4 6
Ġe ither
Ġspecif ied
Ġs ign
ĠD e
Ġpre v
ock et
= '
Ġen c
Ġre ce
Ġ right
Ġi de
Ġre ason
Ġm ust
Ġde pend
l inux
" .
v m
en g
Ġl ast
pl ay
Ġspecif ic
5 8
f e
ĠU n
Ġbe h
Ġlo op
T o
sd a
ic t
Wh en
' ll
Ġde le
Ġr ules
Ġor der
Ġex t
Ġf lag
Ġlog in
b a
Ġd ist
Ġrout e
Ġc ron
Ġel se
Ġex pl
sh a
Ġl ines
eb ian
eth od
Ġexp ect
ri but
ht ml
m ap
c i
c d
Ġl inux
Ġpri v
Ġman y
em on
Ġd omain
P N
k top
+ +
gin x
Ġc ert
E X
Ġf ix
Ġmess age
Ġapplic ation
Ġf ine
Ġerror s
em pt
s cript
I ON
ĠIN PUT
c es
Ġwh o
Ġp ost
ed it
4 5
p ri
Ġpack age
Ġid ent
Ġb it
v ed
Ġgo od
ĠO pen
ĠO S
N AME
Ġf ull
Ġs m
Ġres p
ig h
Ġaut om
Ġform at
ff ff
il ar
a it
Ġmultip le
Ġv irtual
ag er
at or
s c
4 7
Ġthing s
is sion
Ġpar amet
ar k
Ġany thing
as es
E S
Ġpro bably
Ġen abled
Ġbe low
tern al
4 3
Ġ )
Ġd ocker
m ed
Ġre start
5 3
ĠWh en
at ab
Ġke ep
ĠD NS
Ġst op
com p
b it
ie ld
l an
Ġn et
a emon
t cp
Ġal ways
Ġre l
ign ed
t arget
Ġy es
#### ####
u id
B ut
5 7
f d
if ic
# !
Ġany where
0000 0000
Ġstr uct
th on
w ith
ore d
Ġl at
r or
sh are
Ġb et
b y
Ġw ere
in fo
st and
( "
y thon
s ize
ph p
ĠN o
C O
2 00
m nt
en ame
Ġr outer
olic y
Ġ1 3
f oo
l so
U R
Ġfor ward
Ġj ob
g ed
Ġp age
Ġme ans
Ġf irewall
Ġdirect ories
Ġde fin
ĠC PU
O n
12 8
de fault
ĠU S
4 9
fil es
A s
il y
n etwork
ate way
Ġact ually
Ġgo ing
Ġm s
" )
Ġd estination
Ġc le
f ind
Ġcontain er
Ġm on
Ġr ule
Ġd ro
s bin
Ġse par
Ġma k
eng th
Ġus es
Ġ$ {
Ġg ot
Ġ !
Ġ 64
m ail
ĠR e
H O
ple ment
Ġacc ount
D I
m ys
r u
p ache
m ac
Ġt un
cre en
R I
Ġso ftware
p n
con t
. )
re m
Ġh ead
c lient
em ent
g ing
R e
s ing
de x
ern et
Ġsim ilar
Ġsu gg
Ġsystem s
ex ample
ct ions
Ġg r
Ġ2 00
Ġst andard
Ġbet ter
ĠD ebian
#! /
ĠĠĠĠĠĠĠĠĠĠĠĠĠĠĠĠĠĠĠĠĠĠĠĠĠĠĠĠĠĠĠĠ ĠĠĠĠĠĠĠĠĠĠĠĠĠĠĠĠĠĠĠĠĠĠĠĠĠĠĠĠĠĠĠĠ
I X
olum e
ur ing
f tp
ĠP ro
ern ame
Ġs ession
ĠO n
oc ol
Ġo ld
Ġin v
Ġt ake
N U
ail s
ĠI D
Ġin et
ar ning
i er
or age
Ġunder stand
=$ (
Ġrem ove
Ġ8 0
Ġli b
Ġfe w
Ġsu ccess
Ġgiv en
- >
open ssh
Ġt yp
k n
er o
e ed
Ġt ext
Th ere
Ġconfigure d
Ġinst ance
Ġt ell
ĠĠĠĠĠĠĠĠ ĠĠĠĠĠ
Ġha ving
Ġin d
AT H
âĶĢâĶĢâĶĢâĶĢâĶĢâĶĢâĶĢâĶĢâĶĢâĶĢâĶĢâĶĢâĶĢâĶĢâĶĢâĶĢ âĶĢâĶĢâĶĢâĶĢâĶĢâĶĢâĶĢâĶĢâĶĢâĶĢâĶĢâĶĢâĶĢâĶĢâĶĢâĶĢ
H ere
Ġ"$ {
i B
Ġde bug
6 6
d port
Ġ our
Ġsim ple
Ġprocess es
Ġn orm
Ġevery thing
f ull
Ġwr ong
Ġapp ro
g rep
ate ly
Ġc lo
atab ase
Ġadd ed
4 2
5 2
Ġprov id
âĢ Ļ
Ġim plement
Ġp ing
Ġg ive
Ġim age
Ġl ot
xx x
Ġcall ed
U n
Ġm ethod
d ocker
Ġle vel
are nt
P ro
An d
S D
Ġin clud
Ġre fer
t ab
con nect
a ut
pp ed
Ġ" /
Ġm iss
p c
Ġpro per
Ġ2 55
Ġh ome
ĠE x
ĠC h
Ġse arch
I L
ud p
ch ed
ne w
t ty
an ks
g n
ition al
c ed
Ġ. /
rid ge
Ġre boot
wh ich
" ;
Ġd ay
p ly
Ġcon f
A M
6 0
d one
s ent
Ġ edit
Ġ- >
on ly
Ġconnect ed
Ġdri ver
wr ite
Ġconnect ions
AR D
Ġs ys
Ġb ased
em p
ĉ ĉĠĠ
Ġchang es
v en
* .
Ġres ol
Ġl s
Ġde vices
Ġrem ov
Ġup date
n ap
h ead
Ġ `
Ġis n
Ġlook ing
ĠHow ever
am ba
g o
Ġf ree
end ed
qu e
l ink
Ġt ak
Ġsugg est
Ġass um
ur l
S C
Ġ @
O UT
p id
Ġin side
Ġth ough
Ġport s
Ġc at
d u
7 8
re am
de b
ĠA n
h ing
Ġ5 12
ent ion
ys ical
Ġpro xy
Ġr sync
Ġb uild
] ,
Ġa w
Ġaddress es
act ive
Ġval ues
L inux
09 6
A ST
) )
s ions
: ~
Ġit self
Ġbeh av
ath er
a a
if ied
( ),
ĠM y
Ġsec urity
O T
Ġautom at
uil t
Ġcomput er
p m
ĠT CP
dis k
Ġor ig
e f
Ġval id
am ed
Ġh igh
Ġatt empt
Ġre al
S SH
Ġexecut e
n ull
S A
ust om
Ġ2 1
back up
Ġma x
Ġcharac ter
at tern
ent ly
Ġd ocument
-- -
ĠE n
Ġcontro l
d own
i k
th is
A G
Ġd en
ll er
Ġwith in
it or
Ġex act
Ġcomple te
ch eck
Ġdis play
Ġchang ed
Ġbo x
add r
Ġne xt
r sync
Ġneed s
ĠTh ere
Ġli br
og le
Ġlook s
kn own
Ġp ip
Ġssh d
Ġget ting
Ġle ast
Ġf ield
l imit
Ġl ength
Ġdirect ly
Ġa round
ou ble
Ġas k
Ġar ch
Ġl arg
H ost
Ġre st
Q L
ĠI s
ut il
c ron
w ise
Ġ ==
Ġapp ear
in stall
ĠP C
Ġe ffect
o f
st ate
p ace
it es
bo x
Ġw on
V M
Ġfe ature
il d
s ource
ut e
s l
ĠC ent
r uct
ĠIP v
Ġob ject
Ġstart ed
Ġide a
Ġprint f
Ġrece iv
it ions
av a
Ġspecif y
Ġme an
Ġfun ctions
ri es
Ġent ry
Ġnot hing
T TP
o ld
Ġle t
Ġvari ables
======== ========
le ep
ĠA dd
l ay
comm and
6 8
s ub
is k
Ġmiss ing
Ġbehav i
Ġs ocket
a le
Ġa uthentication
Ġlog s
es ktop
t il
m ax
ic s
Ġhard ware
Ġmach ines
Ġb as
us e
ss l
N ow
Ġrun s
S E
Ġb est
5 1
Ġsh ows
9 7
Ġcharac ters
Ġd atabase
T R
9 8
RO P
Ġ ic
Ġreturn s
Ġdes cript
FI LE
Ġsetting s
c f
pt y
Ġtim es
@ @
Ġc ol
ast er
i ally
Ġstat ic
Ġs ort
rom pt
d r
N ote
n um
Ġ$ (
so le
qu est
in clude
Ġw or
Ġcontain s
Ġm ail
Ġsm all
Ġs ent
ment s
Ġdri ves
A fter
d f
E ST
ĠUS B
Ġact ive
Ġ3 0
enc y
re at
an y
T ER
Ġw ord
ach ed
s ql
Ġneed ed
P S
full y
G B
r sa
Ġqu ot
Ġpre fer
a de
Ġad min
Ġs l
Ġup d
im um
ĠN FS
Ġpriv ate
Ġ2 3
om m
D e
M A
H CP
M B
po int
us h
Ġcons ider
p art
Ġ es
4 1
Ġg it
D P
m em
Ġ12 7
U ID
o ot
Ġ Y
r ror
Ġse ver
Ġmount ed
Ġlocal host
W ARD
Ġc aus
F ile
Ġaw k
enc es
Ġprot ocol
P C
Ġser vices
OR WARD
s ite
Ġ _
ĠV PN
AT E
Ġon ce
Ġscript s
Ġf ar
c ert
' ,
Ġkey s
g it
ver sion
Ġinter net
Ġman ag
Ġmod ule
How ever
Ġac cept
a ir
Ġo cc
al i
Ġex cept
in s
V ER
Ġsim ply
N ame
Ġent er
Ġd ir
Ġto ol
b lock
Ġg lob
Ġl it
An y
Ġ17 2
our nal
Ġautomat ically
S P
p os
Ġcomp il
sh ot
ie w
it ies
Ġen able
Ġ udp
b c
Ġst ep
Ġfil ter
ail ed
Ġe qu
St art
. /
Ġne ver
A A
p ect
print f
st d
ĠO UT
Ġc ount
Ġp e
host s
Ġargument s
Ġre port
Ġf i
p ec
Ġf r
P ATH
Ġ4 096
Ġd aemon
ĠTh at
S Y
Ġa uth
Ġre direct
Ġex ternal
f re
Ġsc ope
Ġcurrent ly
/ /
Ġma de
Ġc ache
Ġin fo
Ġdis ks
C K
ress ion
9 0
Ġv olume
Ġrequire d
b ers
ĠA nd
lib c
A dd
Ġr ather
uff er
} '
iz ation
es e
Ġproblem s
Ġwh ether
key s
F O
xx xx
Ġ3 2
Ġc r
c s
Ġsever al
Ġrec ord
Ġpart ic
C C
Ġh e
m ask
p g
t ain
sd b
Ġex tr
Ġsecond s
Ġdid n
ur s
m ode
e g
OS IX
Ġse lect
ĠT o
Ġun til
Ġre comm
us ed
ec ess
Ġpl ace
Ġm et
er y
Ġtr ue
r ot
Ġs creen
\ \
Ġb in
Th anks
Ġg ateway
ip v
ĠIn ter
Ġa li
M S
bo ard
Ġs d
ĠG NU
Ġk ill
ĠA L
Ġuse ful
re g
Ġlist en
Ġt urn
$ (
Ġem pty
ou n
S erver
UL T
Ġshare d
ĠWh at
Ġen ough
Ġinterf aces
Ġb uilt
Ġsub net
Ġpartic ular
/ *
D B
od es
Ġperform ance
Th en
c ode
E W
Ġc ap
Ġf ore
ap h
Ġ2 5
Ġ1 000
ssh d
u f
c ap
ir m
6 7
w ork
f un
Ġ2 4
an nel
8 7
aw k
E n
ĠS ee
Ġhow ever
a z
Ġparamet er
t ar
M M
Ġresult s
ent ial
Ġinst ruct
en se
h ow
C H
Ġl ess
Ġ| |
K E
Ġic mp
Ġget s
t le
ist ory
g z
Ġ' /
Ġ ign
Ġdet ails
ind ow
i ent
is ter
Ġ* /
e y
Ġav oid
Ġs ide
Ġto t
Ġw ait
Ġph ysical
U s
ĠD HCP
f i
Ġmak es
Ġloc ation
Ġto p
Ġprov ide
Ġp rompt
SS L
Ġp attern
Ġpack ages
if ication
Ġb ridge
1 000
Ġown er
__ __
Ġsect ion
âĶĢ âĶ
b ar
t l
Ġall ows
**** ****
Ġad v
ust er
r m
b ed
sp ec
Ġ2 7
Ġmess ages
Ġrout ing
Ġdele te
Ġf oo
Ġman ually
Ġim port
Ġstruct ure
Ġin clude
Ġsepar ate
and om
Ġst d
ad min
ĠĠĠĠĠĠĠĠĠĠĠĠĠĠĠĠ ĠĠĠ
our ces
12 7
F A
ic it
ĉ ĠĠĠ
Ġcert ain
d ump
O ST
W e
c ache
Ġc p
Ġ q
Ġn at
f ace
ar n
Ġent ries
Ġperm ission
ĠCent OS
Ġany one
Ġst orage
ĠH TTP
rwx rwx
Ġnorm al
ic ated
Ġ] ]
Ġhost s
Ġin cre
Ġprev ious
p assword
Ġinit ial
p ass
p ublic
ad m
D o
C T
r ic
s m
ru pt
al se
local host
Ġiss ues
Ġsupport ed
p y
c ast
Ġ2 6
Ġresp on
? ?
. *
Ġk ind
Ġdes cri
Ġex per
Ġcont in
h ell
in put
Ġ 0000
Ġun it
Ġc ause
b ind
ĠF ORWARD
Ġw arning
ĠD ROP
Ġre f
Ġdis c
str ict
nap shot
ĠN etwork
k ernel
ire d
p ack
Ġexecut ed
Ġorig inal
L AN
Ġsign al
P E
s um
o y
w eb
Ġs ed
Ġinter nal
mys ql
Ġ[ [
Ġus ually
Ġwrit ten
h cp
ap s
en v
Ġf l
cre ate
Ġc ustom
T O
Ġclient s
Ġsome one
a f
ce ed
f rom
Ġm ention
Ġcomm ent
s ome
Ġspec ial
Ġflag s
Ġ ro
ĠU se
nt ax
ac cess
8 9
Ġn ode
Q U
Ġb ad
Ġadd ing
un ch
Ġdis able
arg s
d m
Ġhand l
Ġd uring
p k
Ġ0 9
t ro
li ke
< /
Ġdown load
ĠD o
Ġcorrect ly
ish ed
g round
8 4
out e
val id
en s
uc k
] #
C ON
app er
I ST
Ġhand le
7 0
Ġsh ort
Ġcont ents
add ress
aut o
Ġlike ly
Ġn one
ex port
Ġmon itor
Ġth read
ic ate
ĠM AC
Ġdefin ed
p ost
D R
od y
Ġsp eed
Ġp ers
Ġn ecess
ĠL AN
S QL
ĠS T
S L
I G
Ġd ate
US ER
Ġinstruct ions
m ary
th ernet
Ġen s
ĠS et
m k
Ġfail ure
sh ell
n ginx
ĉĉ ĠĠĠĠ
h mac
Ġw indows
ex it
vel op
Ġto ols
Ġn amed
re c
ou d
Ġr aid
Ġg reat
pro cess
ic ro
Ġden ied
ch ange
Ġlibr ary
re t
Ġex ten
ot al
ist r
os it
Ġreceiv ed
Ġstart ing
n ode
Ġread ing
Âł Âł
Ġm ac
7 2
Ġdro pped
Ġfail s
M D
ĠCon nect
im es
A lso
Ġl ock
Ġcontro ller
h er
D O
Ġlarg e
pro file
our se
ate ver
Ġ] ;
.. /
Ġ~ /.
Ġs ite
Ġexpect ed
B y
Ġus age
Ġwho le
n er
Ġe le
Ġb ro
im al
Ġexact ly
Ġ> >
/ $
is ion
s up
T L
.... ....
ĠOUT PUT
ab ility
ĠA s
apt op
an ager
Ġpre sent
v ent
str ing
Ġtot al
o k
Ġc ard
Ġa pt
Ġz ero
Ġf ig
W ith
Ġup gr
Ġf in
) "
ĠAn y
lag s
ĠSt art
Ġexist ing
Ġb ind
c md
ro ss
F rom
Ġb re
y es
Ġreg ular
Ġp ur
Ġc ourse
Ġsw ap
out put
Ġ/ *
x r
Ġtun nel
oc ation
DI R
yn am
Ġp ower
o ff
Ġdis abled
Ġc op
N o
5 12
f r
Ġb l
Ġbehavi or
Ġhappen s
Th at
o ad
â ķ
se e
d sa
c all
Ġcle ar
wh ile
c ore
Ġf act
Ġr ange
Ġp am
ĠG B
Ġcall s
pl oy
N AT
assw d
Ġsy ntax
Ġ ,
ĠS ystem
id th
Ġadd itional
Ġfil ename
Ġatt ribut
Ġs it
Ġk B
Ġst ore
Ġh our
Ġent ire
Ġrequest s
fil ter
Ġsay s
omm and
Ġcont ent
Ġblock s
med i
p ose
Ġa pache
Ġc ore
Ġlit tle
p ing
p ress
Ġpl ug
Ġdet ect
9 4
g er
T I
V I
deb ian
ĠP OSIX
r t
or ity
Ġsy mb
ou ght
a es
direct ory
ive ly
ord ing
bash rc
c ount
Ġver sions
or a
Ġhost name
l at
PT ION
or ized
UL L
Ġgiv es
f c
Ġmod ify
Ġfig ure
Ġ2 8
7 5
s ession
pri v
Ġph p
Ġgu ess
S ER
ĠO r
Ġadd r
d it
H P
k B
Ġw ww
ir d
ĠR E
v pn
an k
Ġcl ass
LI SH
Ġin dex
= (
h ere
if f
HO ME
ĠF ile
AB LISH
Ġprogram s
Ġrepl ac
ĠN ote
Ġbackup s
Ġact ual
Ġun less
d oc
ABLISH ED
ab el
Ġin s
Ġdet erm
c o
Ex ec
Ġ0 8
Ġch ain
Ġparamet ers
e ve
Ġb us
Ġt emp
v ious
ĠM B
Ġs low
Ġm ove
Ġqu ite
p olicy
le vel
Ġ' {
b ase
R C
Ġmy sql
Ġn ginx
Ġeas y
str uct
d uc
AC K
g ener
Ġlat er
0000 00
Ġfore ver
O r
ĉ ĠĠĠĠ
Ġst ack
Ġus ername
AN D
EC T
Ġprev ent
st er
are d
ver t
Ch ain
Ġ[ -
Ġexist s
et s
Ġwork ed
6 5
Ġtak es
Ġin te
for ward
l ft
Ġinstall ation
s igned
j s
Ġcre ating
f l
Ġbe gin
Ġd ouble
ĠA ll
Ġenc rypt
ĠH ost
ond ing
12 3
Ġremov ed
Ġm at
Ġallow ed
ach ine
Ġtrans fer
Ġother wise
ar ies
Ġ0 1
Ġappro ach
z ip
st ab
L og
Ġdiffer ence
Ġoper ation
m e
ĠTh en
Ġrepl ace
irect ory
Ġman ual
b uild
Ġth ree
Ġrequire s
MS G
op le
Ġs leep
Ġle ft
b ody
m ain
Ġev ent
ĠD ocker
Ġwrit ing
C an
r d
l ong
Ġrel ated
pp ing
a h
so ft
Ġs rc
o ol
T Y
Ġ Z
ou ch
9 5
( $
Ġs ched
Ġp arent
med ia
k en
ed ora
pr ot
end ing
Ġdocument ation
Ġhttp s
rwx r
Ġprovid ed
Ġpre tty
Ġm d
c ent
ap ache
Ġexp and
ĠP ID
ĠA r
Ġload ed
Ġpo s
XX XX
25 4
ur ther
Ġd ue
f ine
Ġex port
Ġcomm on
T S
O F
9 3
Ġpip e
Ġ ut
Ġwh atever
rem ote
Ġs ync
d c
Ġw indow
ĠN AT
Ġsp l
######## ########
ut es
r am
Ġf re
de vice
it ted
ri b
Ġse qu
Ġsect ors
Ġb ug
ld ers
Ġcon sole
lo op
KE Y
m ost
c ol
Ġb ig
th ough
O pen
system ctl
Ġday s
if i
tern ative
Ġst ream
Ġp id
Ġrep osit
d ay
c le
es cript
U ser
Ġtime out
Ġ= >
Ġre le
Ġm ark
Ġb uffer
ific ate
~ /.
l en
ĠRA M
Ġproper ly
ĠA t
H E
17 2
a fe
---------------- ----------------
m et
se arch
us b
Ġnum bers
Ġb row
ED IT
âķ Ĳ
U p
Ġp olicy
O P
oc i
R ER
Ġl aptop
" $
un ix
ĠI nt
b ased
Ġnecess ary
Ġrecomm end
U B
D D
7 4
ib ility
Ġde velop
Ġcon st
Ġc olum
Ġc ases
Ġaut o
as p
OUT ING
cp u
ĠA pache
s rc
ol og
act ion
pro xy
Ġs ave
RER OUTING
P RO
Ġstart s
Ġcorre sp
Ġp lease
Ġc d
Ġf ast
ĠR X
fo lder
u ation
Ġch annel
Ġforward ing
Ġl ay
Ġpe ople
d en
m on
f w
th ers
n ames
r v
ver se
U se
Ġout side
d ri
Ġgu est
s end
us ername
Ġcle an
AT A
7 9
p ython
Ġpre fix
w ord
an c
ver s
ĠTh ese
an ch
AL L
Ġsuccess fully
ĠC om
ĠT X
an sion
UR CE
Ġapplic ations
ed ia
et imes
Us ers
E dit
Ġreturn ed
> &
[ @
ĠS ize
iv al
. ,
Ġexecut able
RO UT
ĠA lso
an ces
ĠL O
Ġ ubuntu
Ġgo es
P I
Ġch ild
Ġkn own
v ant
Ġpart itions
Ġa ch
ĠW e
ĠC an
Ġre ach
Ġdif f
ml ink
Ġst uff
g i
Ġy et
iv es
d a
er ing
Ġst ored
Ġexpl ain
ali as
ĠN IC
Ġcom es
all ow
âķĲ âķĲ
6 9
7 3
S ec
Ġmay be
un d
Ġbin ary
Ġ est
Ġy ear
il es
m v
Ġglob al
Ġp ython
] }"
val ue
Ġclo se
Ġrespon se
p i
Ġh istory
Ġass ign
A Y
Ġexpl icit
m c
Ġo thers
Ġmin utes
Ġsh ut
ist ent
e w
ĠO K
Ġqu e
dis c
Ġali as
Ġth ought
ct r
Ġbre ak
Ġach ie
in dex
ĠA l
M ay
Ġm ov
Ġappear s
Ġlong er
Ġsup er
am p
ud it
Ġcron tab
Ġg libc
ĠâĶ ľ
Ġse en
Ġvari ous
E rror
Ġa ffect
Ġ2 9
Ġcomm un
Ġinclud ing
' )
T ype
li ed
Ġimport ant
t ext
oun ter
Ġd ump
B U
Ġprot o
l ed
6 3
ĠW ith
Ġ0 7
Ġem ail
pk g
j ava
ĠM T
Ġn fs
Ġcom e
Ġma ster
st it
run s
re ci
SO URCE
end or
Ġcomp at
Ġs aid
up lic
Ġpass ed
Ġgener al
ĠA d
00 1
Ġnot e
ĠĠĠĠĠĠĠĠĠĠĠĠĠĠĠĠ ĠĠ
host name
all oc
Ġchang ing
Ġreg ister
Ġrem ain
i ag
Ġc are
ĠM ay
' :
m no
N ING
Ġ5 0
n fs
al k
k ill
g u
Ġmatch es
Ġdes ktop
âĢ Ŀ
A l
Ġp ages
Ġfr ame
Ġb its
Ġspl it
o x
Ġcontin ue
Ġgener ate
L IN
ĠA pp
Ġt ask
Ġf lo
Ġgener ated
Ġlog ging
M anager
Ġmak ing
8 5
ĠĠĠĠĠĠĠĠĠĠĠĠĠĠĠĠ Ġ
t ion
pt h
i os
Ġquot es
Ġcon d
ĠCon tro
Ġw ire
p ed
S et
Ġapp reci
Ġrest ore
ĠN EW
ĠT r
Ġprefer red
Ġke x
us ing
de le
Ġm k
LO W
erm ission
ynam ic
Ġs us
R un
V PN
Ġident ity
Ġam ount
Ġr andom
am d
Ġass oci
g lob
b b
stat us
Ġof ten
Y our
H EL
Ġen v
ival ent
Ġf f
a unch
ĠU DP
du ce
\ "
g or
sys log
ers ion
E M
il ities
ĠA fter
li es
c an
Ġassum e
ĠH ere
Ġr an
Ġover runs
Ġrece ive
ke x
8 3
âĶĢâĶĢ âĶĢâĶ
V E
f ort
Ġexper i
ĠM an
p a
Ġc o
ch ar
ĠDe vice
I S
B SD
d uct
ĠG ener
Ġ6 0
> ]
Ġf urther
Ġexp ansion
Ġag o
y ou
Ġall oc
an e
Ġfollow s
Ġgroup s
Ġpriv ile
Ġmatch ing
Ġens ure
st ack
Ġmention ed
~ ~
Ġs napshot
Ġde b
AR T
ct ive
8 1
th en
Ġback ground
S h
Ġsupport s
] }
Ġset s
res ol
D isk
F F
s ol
Ġcont ext
ik i
] [
Ġlink s
ĠĠĠĠ čĊ
Ġextr a
Ġcom bin
gor ith
Ġr m
Ġapp ly
b an
Ġtest ing
Ġus b
IC AST
Ġcomplete ly
Ġd pt
Ġappro pri
Ġfo lders
olum es
y z
av ing
ROUT ING
m ult
re ate
ULT ICAST
qu ire
Ġqu ick
Ġinter est
C AST
ect or
n one
Ġac ross
R es
ed esktop
K ey
ch mod
irm ware
ag ent
f low
Ġbe li
Ġhead er
Wh y
ĠU ser
U sing
ĠP OST
Ġf d
EN T
ack up
cl ass
s v
Ġsystem ctl
ĠL og
Ġtemp or
y m
ĠĠĠĠĠĠĠĠĠĠĠĠĠĠĠĠ ĠĠĠĠĠĠĠ
8 2
L Y
se q
Ġreg ard
up date
Ġ< <
RO AD
Ġsy mlink
Ch eck
M I
6 2
n c
ROAD CAST
c bc
ap i
R T
Ġ ^
âĶĢâĶĢâĶĢâĶĢâĶĢâĶĢâĶĢâĶĢ âĶĢâĶĢâĶĢâĶĢ
Ġlog ged
am pl
Ġon es
ect ion
ĠConnect ion
ith ub
Ġc ent
if ier
Ġs k
Ġagain st
Ġcheck ed
fun ction
Ġsub stit
N T
ĠM ac
Ġway s
ĠInt el
Ġc ar
fre edesktop
F irst
Ġinter pre
ĠN ot
Ġterm in
w idth
Ġh ash
ech n
en u
ĠP RO
ĠInter net
ĠB ash
Ġb ase
Ġm tu
ang u
Ġt ree
Ġim medi
ĠU N
is ed
Ġact iv
rib ution
M ar
abl ing
p asswd
In stall
ĠS h
Ġ- --
ĠD E
Ġconnect ing
ĠP REROUTING
r oute
AC CEPT
L S
d iff
J an
p e
. "
Ġcontain ing
j ournal
Ġfollow ed
W D
A IL
Ġequ ivalent
=" $
r ack
at t
Ġsol ve
RO R
t un
b us
g en
M O
Ġsit uation
in ed
Ġopt im
ing s
Ġre d
Ġsec ure
ĠP HP
escript ion
Ġdist ro
Ġt ag
Ġ; ;
ad cast
Ġman ager
Ġtyp es
] ]
Con nect
ir ror
Ġp ast
ec dsa
Ġw ond
A t
10 1
Ġl ow
log in
g id
Ġlist ed
m aster
Ġor g
ĠN ame
ĠD is
Ġsc an
Ġbeli eve
ĠThe y
Ġmod ules
th read
ĠâĢ ľ
Ġv iew
@@ @@
Ġun signed
sp ace
j ust
Ġmax imum
ĠU UID
", "
Ġest abl
Ġdepend s
Ġfix ed
Ġ0 6
ĠP er
ĠA R
g es
c k
ĠS IG
id ent
Ġdefault s
Ġpro ject
ĉĉ Ġ
if t
est ions
g res
' .
Ġeas ily
L AT
Ġsend ing
Ġt mp
:~ $
Ġt ty
Ġc or
T B
N ot
Ġof fs
ĠV LAN
ĠO pt
Ġcheck ing
ĠN ULL
Ġclo sed
[ [
Ġo k
at tr
A ll
h aps
=$ {
ĠR ead
Ġen p
N ET
Ġ0 2
Ġv oid
en able
Ġrout ine
it ect
ec ause
A SS
em ber
VI CE
m ake
st ore
Ġun i
ar m
Ġv m
apt er
Ġc ut
; ;
p ub
re quest
ĠR em
ĠE C
Ġreposit ory
== "
Ġfor ce
n op
s ftp
tr ans
Ġes cap
Ġpo inter
Ġp k
ĠF ailed
form at
de fin
Ġ3 1
ĠJ an
sec urity
m apper
Ġd ig
Ġexten sion
ib ly
Ġt ar
F eb
Ġupd ated
ut ions
B A
un k
ampl es
d aemon
st ream
ud io
ide o
ffic ient
icro soft
XX X
Ġbas ic
Ġappropri ate
p em
OR T
port s
Ġnorm ally
Ġsim pl
â ĸ
mod ule
O L
p age
T ry
al le
Ġ" %
c r
as ks
c a
Ġmat ter
b ound
Ġdescri bed
d ec
N D
z sh
z ero
ĠS ince
Ġwant ed
t im
: \
ex pect
Ġv is
ĠU R
asp b
s i
f stab
ut put
Ġmanag ement
w d
Ġachie ve
m ore
ential s
al ity
sh ip
itect ure
p am
ar ily
Ġnetwork s
Ġ/ /
ĠA D
Ġdro p
Ġle ad
m it
v g
ĠG o
7 1
) ?
Ġatt ack
Ġide as
oo se
m ark
Ġpri mary
d estination
com ing
Ġu fw
pl ug
ĠL VM
tr l
Ġque ue
A uthentication
iv id
> /
In ter
um ber
Ġcl uster
Ġdec l
Ġstep s
ms g
Ġcorresp onding
P ID
44 3
Ġm ask
ĠI C
FI G
um ing
fort un
ĠS up
lic k
Ġcall ing
Ġmod ified
par se
ĠU P
Ġb ar
Ġd hcp
Ġa ction
ĠMy SQL
O ne
Ġweb site
b d
A ug
ad ata
m atch
Ġp ress
/ \
Ġadmin istr
Ġoper ating
com ple
Ġ{ }
Ġupgr ade
ar is
ĠV irtual
sd c
Ġstart up
Ġeas ier
Ġresol ve
Ġdescript or
IN T
f ree
Ġhour s
Ġc apt
Ġob vious
ĠâĶ Ķ
Ġ0 4
Ġass igned
Ġ~ /
ĠĠĠĠĠĠĠĠ ĠčĊ
ĠS pec
Ġwe e
ar ray
Ġ0 3
s mb
ac l
ĠB y
Ġpl ay
Ġdist ribution
Ġrefer ence
em pl
Ġs afe
Ġmon th
ĠS SL
ĠD O
Ġcontain ers
s k
Ġ15 00
Ġprovid es
AB LE
x ml
du ction
r aid
ĠUn ix
or ing
Ġinter active
Ġind ic
ĠE rror
Ġev al
9 1
w ait
S ince
LO G
ĠN et
wr it
d rwxr
util s
g ress
S ervice
ĠâĢ ¢
] $
HO ST
Ġadd ition
Ġpoint s
Ġrele vant
0000 0
n ist
ĠR un
Ġde lay
ĠR ed
R A
---- --
sm tp
J ul
ĠĠ ĠčĊ
Ġcolum n
Ġ" -
R UN
im g
Ġ" \
Ġbr d
U buntu
Ġ10 24
c rypt
" );
Ġdist ribut
Ġpr act
Ġf alse
Ġnames pace
ĠIP s
O K
ĠU T
SC RI
Ġsh own
ĠS Y
Ġ' %
Ġacc ording
og n
Ġ( /
C ommand
I I
http d
cont ain
f ail
s u
11 1
ĠJ ul
nist p
Ġ 00000000
Ġj ournal
Ġde ploy
Ġc ou
Ġman age
Ġq disc
Ġsched ul
Ġqu ery
script s
Ġre pre
Ġun able
Ġal gorith
=" /
Ġ[ <
Y PE
orre ct
Ġcop ied
a fter
s ocket
ĠPOST ROUTING
dele te
Ġl angu
S ee
Ġw in
on s
Ġopen ssl
} /
ĠL ink
Ġs v
om ething
ĠA T
ĠS amba
Ġcre ates
Ġcert ificate
st ead
S ome
255 19
38 4
Ġtr ack
Ġs ense
I OS
---- -
ĠF lags
Ġcon c
Ġres et
id es
H z
q ld
I LE
ant ed
Ġd ns
Ġimmedi ately
wh at
y le
Ġre strict
Ġt ap
ĠCh eck
fortun ately
ĠS M
W N
Ġp atch
al yz
et m
6 1
W S
Ġch mod
con st
el f
Ġlook up
que ue
I FS
Ġn ice
ri er
nt rack
Ġlog ical
Ġsom etimes
i od
A pp
U I
Ġlisten ing
auth orized
x c
v is
Ġword s
Ġdeterm ine
h elp
w in
Ġ __
Ġexp ression
Ġdepend ing
set up
c gi
N etwork
th at
ĠS SD
Ġ util
Ġoper ations
pos ed
r a
5 00
Ġinstall ing
Ġfeature s
ab ilities
M L
Ġha ven
pre c
Ġit em
re l
Ġpath s
Ġdele ted
ĠC O
go ogle
cont ro
j ob
Ġt ab
O ct
a ult
Ġu id
Ġjob s
Ġqu estions
J un
E thernet
t emp
ffff ffff
ĠG CC
par am
ri de
de vices
S ep
tr ue
c ase
y our
ĠIC MP
P M
P lease
Ġ( (
ex p
if ace
Ġup load
Ġnetwork ing
Ġappreci ated
ĠL IST
and width
D ec
m a
' \
c opy
Ġexplicit ly
ĠOpen SSH
opt ion
ip s
cf g
Ġby te
ĠN OT
Ġexec ution
EST ABLISHED
Ġn ull
Ġassoci ated
Ġread s
Ġimplement ation
ĠR PC
le t
ron t
Ġsp aces
f ect
Ġresp ect
Ġcom pl
Ġin valid
ch em
gn u
ĠLO G
Ġupd ates
D AP
AR G
Ġanswer s
ul ate
ĠM ar
Ġf ut
A pr
ĠN ow
ĠI O
o very
Ġign ore
Ġut ility
Ġ1 23
ĠF ree
Ġb ound
Ġ12 8
le x
Ġto g
Ġ5 00
Ġdeb ian
per l
Ġtog ether
Ġd est
C om
l es
ent ially
ĠA ug
Ġd iag
Ġsu c
Ġattribut es
âĶĢâĶĢâĶĢâĶĢâĶĢâĶĢâĶĢâĶĢâĶĢâĶĢâĶĢâĶĢ âĶĢâĶĢâĶĢâĶ
Ġcou ple
tmp fs
fil ename
ĠU p
en ari
im age
Ġ~ ]#
D irectory
BU G
Ġ4 0
Ġtri gg
enc ies
Ġprocess ing
us ers
li ve
Ġw lan
Ġe ar
config ure
d ns
Ġswitch es
ĠS ome
Ġt tl
ĠR HEL
Ġ ec
for ce
================ ================
Ġpri ority
Ġnot ic
ch ron
ĠS ep
Ġcp u
s creen
t ic
Ġli ve
v iew
ar ing
Ġcre d
ĠJ un
Ġv ar
Ġgr aph
Ġwor ld
Ġgo ogle
ĠT ry
Ġrefer ences
Ġdescript ion
ĠĠĠĠĠĠĠĠĠĠĠĠĠĠĠĠ ĠĠĠĠ
Ġim p
gr ub
v v
y y
ail y
Ġoffs et
opt ions
time out
R em
Ġth us
m achine
Ġal most
Do es
Ġt x
Ġun ix
SI G
Ġres ources
= `
ĠT ime
T ime
ĠE X
s rv
Z E
ĠO ct
el se
l ing
Ġcaus es
m ess
Ġo lder
ĠS e
Ġrec ently
Ġt ail
g ithub
Ġshell s
T H
w e
Ġyear s
Ġcapt ure
mod ules
ond s
Ġp i
et ch
ĠĠĠĠĠĠĠĠĠĠĠĠĠĠĠĠ ĠĠĠĠĠĠ
Ġwrit es
Ġ err
Ġx dr
Ġmanag ed
t otal
Ġper l
bl k
Ġm ap
Ġj o
ĠE thernet
Ġpers on
Ġarch ive
W OR
Ġm is
de pend
inter face
n f
S ystem
F TP
c orrect
Ġrep ly
Ġsuc ceed
Ġ ../
Ġs av
Ġc y
Ġinv ol
at ors
Ġflo ating
Up date
Ġch o
Ġver ify
es h
16 0
fa st
Exec Start
Ġlimit ed
Ġde al
Ġrel ative
Ġinv ok
u ri
at form
Ġs amba
ell o
aspb err
Ġfield s
Ġd uplic
Ġal ternative
AG E
cs v
J ECT
Ġsys log
ĠG iB
u dev
sol ute
Ġh old
Ġstring s
---- ---
N ov
:~ #
= <
Ġs ound
Ġrec ent
Ġreason s
j pg
at us
ĠD ec
MM AND
ĠAdd ress
Ġbrow ser
ĠM et
Ġse q
Un it
r b
T CP
bo se
Ġcheck s
Ġ]] ;
re v
Ġun known
po ol
ant s
pre fix
De vice
m ux
ach able
Ġs yn
Ġsome where
al c
comm on
Ġnet mask
Ġd ynamic
an ced
Ġim ages
Ġr w
P ort
QU ER
ld ap
h and
Ġt alk
T r
Ġ4 43
head er
ĠO ne
m t
Ġloc ale
U E
Ġany way
alle l
Ġsequ ence
Ġcompil er
ĉĉ ĠĠĠĠĠĠ
ĠA ctive
md adm
D ATE
[ ^
Ġkey board
Ġbr anch
G roup
am ily
IN IT
Ġexecut ing
s ock
re lease
Ġp air
ro p
Ġ um
r aw
ĠF edora
Ġ! =
1 10
i um
st op
Ġarch itecture
r int
t able
A d
Ġins ert
mk dir
om es
Ġmain tain
od ing
defin ed
Ġlay er
Ġt ouch
Ġhappen ing
Ġre verse
E E
c url
Ġ20 23
Ġpublic key
Ġh it
az on
Ġpur pose
Ġ"$ (
Ġfilesystem s
est amp
Ġbegin ning
Ġl ost
10 24
Ġextr act
Ġeth ernet
A r
Ġsol utions
ter m
f b
or p
Ġin coming
ly ing
ex clude
l ook
s leep
Ġbro adcast
Ġsc enari
re achable
ĠA llow
Ġ5 3
Ġinclud ed
Ġco ll
Ġt echn
LO CK
i ke
Ġcomput ers
ĠI SO
iz es
pl ace
Ġign ored
DE SCRI
it le
Ġre ject
n amed
Ġl aunch
Ġmean ing
g ot
z one
ut or
Ġexperi ence
Ġfut ure
Ġinclud es
******** ********
C l
Ġgener ally
Ġinst ances
ĠP ermission
ĠN ov
ĠF TP
[@ ]}"
DESCRI PTION
D NS
r ary
end s
Ġcomm ents
Ġare n
in ally
qu ot
ĠUR L
Ġs um
] *
ĠDe fault
ĠF eb
l v
an ation
Ġind ivid
" '
## #
ang ed
SI S
M ULTICAST
Ġl ower
Ġloc ally
ac le
ip e
Ġadv ance
Ġb andwidth
doc s
Ġrec ogn
Y Y
c ard
l ast
ug e
NO T
Ġnotic ed
Ġcomp ress
t om
Ġf aster
Ġser ial
NO P
Ġm er
Ġd ed
Ġcomm it
V AL
B ROADCAST
Ġms g
s amba
W indows
ĠP ack
ĠP ort
Ġopen ed
Ġ Q
p erm
22 2
Ġv olumes
ĠD NAT
Ġa uthent
Ġbas ically
sw ap
Ġre lease
olog y
Ġp op
Ġ* .
[ $
Ġ0 5
TI ME
Ġc lock
Ġ ..
Ġb en
Ġp s
Ġlibr aries
ĠO ther
âĶĢâĶĢâĶĢâĶĢâĶĢâĶĢâĶĢâĶĢâĶĢâĶĢâĶĢâĶĢâĶĢâĶĢâĶĢâĶĢâĶĢâĶĢâĶĢâĶĢâĶĢâĶĢâĶĢâĶĢâĶĢâĶĢâĶĢâĶĢâĶĢâĶĢâĶĢâĶĢ âĶĢâĶĢâĶĢâĶĢâĶĢâĶĢâĶĢâĶĢâĶĢâĶĢâĶĢâĶĢâĶĢâĶĢâĶĢâĶĢâĶĢâĶĢâĶĢâĶĢâĶĢâĶĢâĶĢâĶĢâĶĢâĶĢâĶĢâĶĢâĶĢâĶĢâĶĢâĶĢ
B O
Ġin ode
Ġr ate
an is
d hcp
ĠPro cess
ĠV ersion
lic ation
Ġp ull
Ġrecord s
ĠG UI
" /
Ġprov ider
ĠV PS
Ġpost fix
d h
LI B
it ive
Add ress
Ġ2 56
Ġele ment
Ġ201 9
RE AD
F iles
Ġdis connect
ĠVM s
ab c
Ġl d
... ]
ĠR ec
t w
d ig
Ġper iod
al f
Ġal ong
ad ow
____ ____
ĠU sing
Ġse g
re al
Ġlo ss
t ree
Ġtr ust
: *
Ġcomple x
UT H
ĠT ype
Ġhigh er
Ġmac ro
ites pace
Ġres ource
ĠĠĠĠĠĠĠĠĠĠĠĠĠĠĠĠ ĠĠĠĠĠĠĠĠ
Ġsubstit ution
ĠS H
Ġn odes
n on
l er
] )
Ġa way
Ġ' \
f p
ĠA pr
ĠOpen VPN
urrent ly
B e
w itch
g t
ĉĉ ĠĠĠĠĠ
f irst
is ions
12 2
f aces
r ase
tr y
Ġdriver s
ced ure
> >
Ġc able
ĠP AM
Ġcontro ll
D F
Ġmem ber
ĠAC L
r ite
B ox
I m
Ġab solute
Ġm ech
p df
Ġbehavi our
s n
Ġtempor ary
uc cess
Ġbeh ind
Ġv endor
ig r
E G
rwxrwx rwx
Ġpo ol
Ġcr ash
empl ate
priv ate
Ġwire less
Ġe ver
d est
ĠI SP
vir tual
âĶ Ĥ
go ing
ou se
M od
Ġ3 6
(" /
S V
R ead
Ġshut down
id den
Ġmount ing
cron tab
Ġs n
Ġt ables
Ġv ir
EN D
Ġmk dir
M ax
ĠC l
Ġde fine
y um
ER ROR
Ġc url
20 17
Ġcaus ing
w iki
on t
N C
Ġaccess ible
Ġinte ger
- %
sa ve
ĠC ON
el net
Ġtest ed
Ġcomp ression
Ġcor rupt
Ġle ave
* /
Ġstd out
Ġper fect
V irtual
s y
Ġ} ;
U RE
ĠE ST
I F
n g
Ġstop ped
Ġwould n
ĠMT U
ist ics
D escription
Ġch oose
Ġlat est
Ġh ope
it ed
se qu
Ġf irmware
ĠL oad
Ġrepre sent
Ġh op
en ames
if s
in et
Ġs ur
AIL Q
Ġm ind
if config
p atch
N EW
ter min
ac ing
r pm
ĠH DD
ĠS ub
12 34
fo x
ff f
a im
I O
ĠI d
An other
Ġx args
ru ction
ĠâĢ ĺ
ward s
Ġz one
m er
p ages
r ules
p ci
utor ial
er ber
Ġask ing
Ġma pping
ob ject
ĠLIST EN
n ost
Ġa ware
r r
ag ed
Ġconsider ed
pro ject
by tes
P ath
Ġrep e
ĠT YPE
Con fig
yp er
ess ions
\ .
n os
Ġs mb
ĠF rom
p et
, $
ar ound
ign al
Ex ample
d ed
s im
Ġp ush
I d
SE E
ĠM iB
js on
Ġth ird
Ġstat ement
em ory
A MP
gener ic
Ġm irror
ON E
l p
D C
S ET
to ols
cl oud
Ġres er
Ġ201 8
Ġattribut e
ĠAL SO
Ġ201 7
Ġc md
ĠĠĠĠĠĠĠĠĠĠĠĠĠĠĠĠ ĠĠĠĠĠ
RE P
Ġterm s
O utput
c lo
AD E
Ġs ig
Ġpro duction
f alse
Ġ: :
Ġmode l
Ġon line
ĠP ATH
Ġprivile ges
Ġreplac ed
com ment
12 0
Ġm v
Ġin her
iv ed
pn g
Ġsu ff
Ġpro cedure
Ġcred entials
} ;
Ġ4 8
Ġwh itespace
Ġpl an
pr ise
Ġev ents
share d
R D
ĠAL L
IN PUT
? )
a wn
Ġsome how
Ġtell s
C lient
For ward
t ables
ĠP ower
iz ing
Ġn or
v ol
ub e
NOP SIS
Ġd m
tr a
Ġwond ering
Ġwee k
d es
Ġmech anis
T est
Y es
ĠU s
Ġlink ed
num ber
AT ED
D is
, "
ss ible
IT H
Ġl abel
ĠR es
ire fox
F C
l t
Ġd b
log s
ĠAr ch
Ġmet ric
Ġ6 55
stat ic
erber os
M Y
Ġfull y
Ġch root
Ġposs ibly
ĠPC I
o od
Ġprint s
ri ve
CON FIG
b ps
u el
c group
Ġpk ts
Ġim pro
Ġestabl ished
ĠS O
Ġshow ing
v id
er ies
@ "
Ġwh ose
er ed
b ook
Ġattempt s
Ġcom ing
Ġrem ember
ĠâĢ Ķ
25 0
Ġtri es
Ġtyp ically
ac ed
! !
b ing
ĠT LS
Ġupgr ad
arent ly
Ġprot ect
Ġmet adata
( '
post fix
SY NOPSIS
col or
pt s
Ġatt ached
ĠNetwork Manager
ver age
Ġassum ing
s ort
es g
l oc
Ġnew line
Ġ20 12
AS QUER
Ġb al
sec ure
L C
ist s
UR N
Ġobject s
l ab
SER VER
ĠĠĠĠĠĠĠĠĠĠĠĠĠĠĠĠĠĠĠĠĠĠĠĠĠĠĠĠĠĠĠĠĠĠĠĠĠĠĠĠĠĠĠĠĠĠĠĠĠĠĠĠĠĠĠĠĠĠĠĠĠĠĠĠ ĠĠĠĠĠĠĠĠĠĠĠĠĠĠĠĠĠĠĠĠĠĠĠĠĠĠĠĠĠĠĠĠĠĠĠĠĠĠĠĠĠĠĠĠĠĠĠĠĠĠĠĠĠĠĠĠĠĠĠĠĠĠĠĠ
Ġloc ated
ĠEx ec
Ġdes ired
S U
h at
Ġinst ruction
d at
ASQUER ADE
Ġre li
Ġar tic
Ġhttp d
Ġun its
Ġoutput s
spec ific
Ġtrans l
M on
Ġf tp
Ġy um
ĠR SA
Ġsup posed
Ġcar rier
Ġlarg er
20 15
Ġcould n
Ġm enu
iv ity
AR Y
kex init
Ġw ish
' ;
Ġsymb olic
Ġb ot
Ġ20 16
ĠCon fig
s ince
Ġlist s
pec ially
N R
Ġcopy ing
ĠN T
ĠH P
âĶĢâĶĢ âĶ
j o
ĠB IOS
Ġpro file
r f
Ġcomp on
Ġrecomm ended
Ġmult i
b ridge
de pth
C reate
ĠF ILE
Ġ< /
Ġrout es
s es
Ġinter rupt
b ject
inter active
l ines
ĠP lease
al t
Ġmonitor ing
Ġspecif ies
ri v
Ġowner ship
Ġext ended
16 9
CE SS
Ġalgorith m
Ġst ri
W R
s ites
Ġw atch
sh ow
Ġask ed
M AP
cent os
Ġcon ver
Ġ< (
Ġag ent
re lat
3 86
j or
ac y
Ġ( "
ĠS ec
r ant
Ġex amples
ser ve
inter faces
Ġsee ing
relat ime
Ġmethod s
c ut
le ction
Ġtak en
C ent
en abled
am ing
ip her
P O
Ġtr ick
LI ST
Ġsuggest ions
Ġ5 6
Ġcompil ed
re strict
Ġc ame
Ġfunction ality
ĠA m
Ġexpl anation
r ing
com pl
Ġad apter
j ar
IT E
h el
ĠE R
arch ive
Ġremov ing
/ "
S e
in c
Ġsend s
L ist
Ġcaus ed
t on
Ġfil enames
Ġbec ome
ĠB e
tr fs
Ġc group
um e
g l
Ġtest s
CP U
' '
Ġencrypt ed
SI ON
Ġc ost
ĠI gn
ĠS C
ĠMet ric
contain er
Ġsuccess ful
Ġconc ern
Ġpro duc
Ġs em
Ġcomp any
vir t
Ġown ed
de f
alyz er
/ ^
Ġup on
ang le
Ġscenari o
Ġf inal
v oid
Ġshould n
G R
/ '
Ġs elf
Ġcl nt
Ġrec over
Ġpre c
RO N
direct ories
FA ULT
Ġdebug ging
c m
r pc
ag ic
Ġhelp s
Ġsav ed
sc an
Ġp ot
Ġt e
ĠL ET
ĠA PI
Ġthink ing
t yp
ill a
Ġ3 4
Ġconf irm
lic e
is co
st orage
ĠL DAP
Ġc lick
Ġoption al
ph rase
Ġal though
Ġcho ice
ign ore
Ġindivid ual
m m
wh en
P re
est art
dri ve
Ġspecif ically
ĠD I
ĠGo ogle
ou bl
Ġa udit
Ġ9 9
Ġequ al
Ġwait ing
Ġob tain
Ġrequest ed
ĠU ID
ĠS QL
Ġthread s
Ġh ang
ĠContro l
in ters
Ġprint ed
EL inux
Ġyour self
20 16
Ġ201 4
ĠLET TER
L ink
t ls
ĠEST ABLISHED
Ġle arn
ĠL V
ĠAt t
ĠS ATA
Ġint ended
Ġgr ub
c urrent
Ġincre ase
O f
Ġt asks
Ġ201 5
Ġper haps
Ġwor th
ĠI FS
SH A
ight ly
g ine
EX T
8 00
Ġloop back
3 00
Ġd d
st ation
ĠF ound
Ġcoll isions
: "
Ġr aw
0 33
M AC
Ġip v
if ies
Ġmy self
ĠĠĠĠĠĠĠĠĠĠĠĠĠĠĠĠ ĠĠĠĠĠĠĠĠĠĠĠĠĠĠĠ
AS E
z z
Ġescap e
ĠS ervice
e ak
Ġpassword s
C L
V P
Ġc alc
pro gram
ĠD ata
] +
Ġturn ed
ĠL C
Ġgiv ing
Ġdepend encies
ĠDe vices
Ġimplement ed
Ġpart s
f lags
Ġs ites
ĠN AS
10 4
e q
Ġm edia
ĠR UN
E OF
ĠD ep
Ġapp lied
pro be
er al
K EX
Ġ" "
B ACK
D S
h istory
" >
l abel
hell o
ribut e
Ġlat ency
Ġs sl
aa aa
ĠEn able
A cc
Ġf our
ch root
Ġsus pect
Ġthere fore
=" ${
D ata
Ġpro c
et y
Ġs ftp
g ent
20 19
h e
Ġw ent
be fore
Ġnew er
P er
Ġarray s
t ies
Ġf ront
mult i
2 11
t ag
Ġ3 9
resol v
up pet
ĠUT C
ĠA uthentication
if o
Ġlook ed
fer ence
o op
Ġd at
] .
Ġr ou
m at
open vpn
G ET
ic ast
ĠM on
res ult
Ġuni que
Ġj ava
uff ers
ĠIN FO
ĠE ach
20 20
24 0
Ġaccount s
o ke
Th ank
20 18
b as
Ġz sh
> .
G NU
uel en
li er
que uelen
enc rypt
Ġf s
Ġ 000
HE AD
hell man
de fine
as ure
Ġre name
Ġnot ice
Ġ( $
fs ck
J ust
pt ion
Ġso on
Ġ ed
e val
ĠAdd ed
Ġtx queuelen
ĠOpen SSL
} )
in st
MA IN
D ebian
Ġ3 3
Ġded icated
m as
ĠU sed
vm e
Ġsuggest ed
Ġincre ment
an el
R ec
Ġbec omes
ĠSt ate
l are
ĠA WS
ĠG it
Ġre v
g cc
ĠC D
A llow
n at
Ġ ir
Ġ201 3
Ġgu ide
s cp
P ORT
Ġfe el
ĠC ould
L AY
ic ult
A ss
Ġ Qu
Ġunderstand ing
W no
ĠMan ual
Ġbro ken
e vent
ex e
Ġv pn
od ed
En ter
Ġh is
Ġbe long
Open SSH
sw itch
Ġcomp ile
( ).
LOW ER
80 80
ĠK ey
sys ctl
Ġident ical
ate g
ĠA P
I ME
ĠO ff
Ġocc urre
Ġne ar
ĠOpt ions
ĠL ocal
ĠM ASQUERADE
ĠD B
OUT PUT
pl icit
30 6
[ \
and s
in ess
my domain
B ackup
ach ing
1 12
Ġf air
ent ry
Ġ ql
Ġstr ange
l ight
up d
âķĲâķĲ âķĲâķĲ
Ġ+ %
Ġl uck
Ġident ify
Ġst ick
Ġcol or
Ġsv c
........ ........
Ġdefin ition
Ġlink er
Ġcon vert
Ġ20 20
Connect ion
Ġac compl
| |
Ġv i
S ub
im port
LO C
contro l
comp at
Ġon to
Ġ3 00
ĠV al
n l
Ġsuff ix
n ow
Ġ' $
ĠR et
Ġdiff icult
a udit
10 2
app ing
P assword
ĠN O
U UID
a e
CK ER
it able
t c
Ġocc ur
clud ing
LIN E
il i
Ġtak ing
Ġind icate
Ġ200 8
is c
enc ed
sup port
Ġexten sions
Ġinte gr
Ġf ault
Ġp ick
in ternal
orp or
qu ery
p ers
4 00
Ġ: )
Ġocc urs
Ġrou ters
qu id
Ġj ump
Ġm igr
ĠEn ter
e v
Ġpract ice
d k
Ġad vice
Ġele ments
expect ed
Ġ8 8
Ġcompat ibility
is o
ĠC lient
ĠS ol
Ġun mount
AR NING
om ent
o le
Ġv lan
ĠTh anks
run ning
PTION S
Ġf ill
S top
Ġem bed
Ġqu ote
ĠW in
Ġindic ates
l in
load s
ram fs
S M
Ġsign ific
Ġconf lic
Ġcond ition
ĠE nd
Ġselect ed
e ep
) (
Ġ20 21
Ġblock ed
Ġhost ing
r aph
pl it
RO M
at ic
L D
y ing
Ġcomp are
Ġu dev
ĠA B
Ġpl atform
Ġes pecially
Ġql en
h d
Ġg n
se lect
re boot
v im
Ġtr ouble
Ġ( )
D ocument
ĠY our
Ġpos ition
ĠS I
re f
Ġus ual
Ġhappen ed
ĠAR P
m ing
ĉĉĉĉ ĠĠĠĠĠ
id d
ĠC ommand
10 7
Ġend s
Ġsepar ated
Ġc rypt
Ġgo al
M ake
Ġany more
Ġ* *
US E
ang es
Ġtim er
s napshot
Ġcap abilities
Ġcl one
mem ory
Ġad just
Ġlangu age
Ġd oc
ĠR EL
ite ly
ag ing
Wh ich
o oth
un c
ĠInter face
Ġwork around
] \
Ġmin ute
G E
h ard
Ġsol ved
Ġre build
AT ION
ĠWh y
Ġcl oud
L ocal
u ed
IN FO
^ @
Ġlimit s
ĠK ernel
Ġ> &
OR Y
Ġdisplay ed
M T
re n
rot ate
ur ning
str ic
20 14
p ower
Ġo p
Ġrec overy
Ġallow ing
b uffer
man ager
Ġident ifier
Ġsd a
6 55
us ion
oc ols
Ġread y
Ġmd adm
W ork
Ġpro duct
UT F
s nap
} ,
le an
ĠT TL
H IST
ĠD irectory
Ġmechanis m
p attern
Ġpost gres
Ġweb server
by te
Ġt re
Ġdetect ed
sys config
Ġedit ing
Ġv ideo
mys qld
Ġdistribut ions
Ġr ot
20 23
Ġplug in
C trl
UP DATE
ĠDo es
prec ated
Ġwas n
Ġsect or
G P
u ous
Ġdirect ive
h ash
o int
Ġs ock
ac er
d et
Ġwhen ever
f irewall
Ġs chem
ting s
Con tro
A V
ĠS MB
Ġfre qu
Ġpar se
Ġar bit
Ġt utorial
14 4
R oot
Ġcop ies
ĠP ython
ĠP RE
Ġreser ved
) );
Ġout going
xxxx xxxx
Ġsymb ol
Ġof fer
Ġ\ ;
Ġwr ote
20 21
Ġtcp dump
er ic
12 5
Ġexcept ion
on es
... )
h ib
Ġd ot
Ġ$ ?
Ġpar allel
diff ie
6 00
M IN
Ġh ook
} =="
Ġexpect ing
Ġsmall er
k it
Ġw ifi
ar ant
T T
ast e
Ġprevious ly
Ġaccess ing
Ġmount s
20 1
Th ese
ĠR aid
ĠSY N
ĠREL ATED
ĠJ ust
L oad
âĶ ľ
G et
o lder
c ome
ĠGener ate
g re
dis able
Ġartic le
Ġc ounter
Ġ\ "
ĠĠĠĠĠĠĠĠĠĠ ĠčĊ
Ġ â
ig ab
Ġover ride
Ġperform ed
ul ation
H TTP
w atch
Ġs ources
ĠW AN
Ġcr it
Ġh ack
gr ade
19 4
Ġoper ator
Ġm oment
Ġr ound
ĠM ode
Ġencrypt ion
i et
25 2
t ail
Ġ3 5
12 9
F L
Ġtr oubl
f lo
el ine
x v
Ġmost ly
Ġsub shell
Ġint ro
A re
c b
Ġre load
d esktop
ar r
per ty
A UTH
im ent
SY ST
tr ace
b uf
O ther
p arent
Ġst uck
limit ed
Ġdes ign
ag ios
Ġconst ant
Ġperfect ly
Ġst ay
z e
lock ed
De fault
Ġp ts
M atch
Ġinter val
Ġw c
ĠP ost
Ġfin ished
Ġfin ally
Ġ6 5
Ġrec urs
Ġbuilt in
: $
um ac
Ġexp ress
Ġde f
âĶĢâĶĢâĶĢâĶĢâĶĢâĶĢâĶĢâĶĢ âĶĢâĶ
Ġcon struct
as ically
2 20
l c
ĠY es
Ġmov ed
s dd
very thing
D H
ĠO N
Ġen ables
Ġass em
st yle
Ġun set
Ġsignific ant
Ġre po
Ġden y
~~ ~~
ĠH W
Ġret ri
G G
Ġinterest ed
esh oot
pos es
ret urn
ĠW ITH
Ġfor k
Ġalloc ated
Ġreport s
Ġfl ush
Ġ3 7
Ġhelp ful
aspberr y
s ible
Ġ6 00
Ġfail ing
Ġbuild ing
Ġs essions
anted By
ĉĉ ĉĠĠ
Ġme asure
Ġback end
quest ions
F W
} .
rep o
e vel
g ateway
re q
ĠN AME
orm al
Ġcombin ation
ke ep
Ġ er
AD DR
ĠPer l
av ailable
Ġ} '
ĠM icrosoft
: %
ĠS p
ĠG ateway
: ]]
A ccess
Ġmod ification
et ime
/ *.
ch own
pre auth
Ġobvious ly
6 86
Ġpath name
ĠOn ly
ro ll
ex cept
sa fe
Ġattempt ing
U X
f pm
Ġit er
Ġtim ed
ĠUN IX
ĠStart ing
P RE
Ġcon ntrack
ĠS ELinux
ch ain
^@ ^@
sl ash
Run ning
Ġ5 9
re sp
connect ion
l m
Ġr isk
Ġadv ant
comp ose
Ġlot s
Ġb unch
an alyzer
Ġstd in
Ġinvok ed
ro id
Ġal tern
L ook
ĠUS ER
Ġdisc over
RE CT
ĠC AP
ĠB oot
ĠV G
RA ID
Wh ere
g s
Ġresult ing
with out
node v
cle an
P art
Ġ om
Ġshare s
Âł čĊ
^ ^
ail ing
aw s
Ġdevelop ment
ĠG roup
=" $(
Ġ9 0
ph ysical
Ġh ot
Ġde li
Ġo s
empt y
Ġapp end
Ġif config
ĠAr ray
2 24
ĠK iB
v ari
Ġenc ounter
Ġ" __
Ġred und
Ġl vm
Ġenc ap
em u
to s
ĠH at
) /
de ed
rem ove
~ /
Pro cess
com put
Ġ"$ @"
Ġhandl ing
Ġpoint ed
Ġpe er
atab ases
Ġ20 48
cont ent
Ġben ef
ĠT est
Ġdepend ency
ĠW eb
US B
Ġi o
Ġear lier
Ġgu arant
) '
ĠS er
v olume
Ġ: ::
gu ard
ag ement
Ġright s
Ġf low
Ġcommun ication
AT US
99 9
d ocument
Ġ3 8
Ġremain ing
Ġtmp fs
pl ic
ĠA V
Ġcompat ible
clo se
b ot
Ġf all
5 09
M ode
m ethod
Ġreport ed
Ġ> /
quire s
d pkg
Ġembed ded
b t
Ġwe ird
VER SION
Ġbus y
Ġs af
10 3
g p
?? ??
a ff
ĠĠĠĠĠĠĠĠĠĠĠĠ čĊ
Ġcomple tion
N umber
w ap
i br
l a
Ġ6 7
13 0
c li
r al
on se
Ġprocess or
AA AA
Ġpass phrase
ĠRE JECT
b f
anc y
ĠI m
Ġ1 20
Ġaccess ed
ĠZ FS
Ġreg ex
Ġrequire ments
e ap
ĠM ake
Ġstat istics
h n
ĠA ccess
W antedBy
ĠSt andard
rot ocol
Ġaccompl ish
R ARY
dd en
ic ense
ic es
ĠM ount
nos uid
Ġh alf
Ġsk ip
@@@@ @@@@
Ġeffect ive
FA IL
ĠContro ller
= -
Ġb lan
Ġexpand ed
Wh ile
Ġtim estamp
over flow
f ork
EG IN
14 0
l n
b uilt
s ig
ĠB ackup
Ġdes igned
Ġ( -
Ġ-- >
Ġali ases
K B
on ym
en k
Ġin correct
Ġsocket s
F i
ĠB lock
Ġ) )
TER M
Ġne g
Ġfair ly
ent er
P ASS
t ouch
ĠĠĠĠĠĠĠĠĠĠĠĠĠĠĠĠĠĠĠĠĠĠĠĠĠĠĠĠĠĠĠĠ ĠĠĠĠĠĠĠĠĠĠĠĠĠĠĠĠ
Ġsearch ing
ĠA v
ĠE N
20 13
c cept
10 5
On ce
Ġcre ation
Ġtr ace
ĠW ire
Ġstd err
Ġc over
Ġref used
LIB RARY
F ree
Ġ Ã
ĠP rint
N et
N F
R ed
Ġl ight
R SA
ĠS un
Ġn ative
Ġboot ing
Ġoff ice
Ġfin ish
15 0
V AR
Ġspecify ing
S tr
s ive
Ġl if
ĠTr ans
Ġm angle
Ġre install
Ġquick ly
Ġex its
Ġexit ed
################ ################
Ġeval u
Ġsound s
P OSIX
id ed
ĉĉ ĉ
Ġ ess
ĠâĢ ĵ
Ġentire ly
Ġarbit rary
ac count
Ġadministr ator
sh ark
10 6
SI ZE
Ġmov ing
pack ages
ac ity
âĢ ¦
ĠO per
Ġpur poses
Ġregard less
os ed
c ue
s ched
Ġp pp
Ġr c
ĠM ask
Ġ4 4
Ġedit or
is ters
Ġh uge
e a
Ġ4 5
RE T
Ġw ild
an o
Ġsyn chron
Ġa verage
termin al
Ġto day
ĠE VP
ÂłÂł ÂłÂł
p d
tr ack
z illa
Ġd r
Ġ5 4
Ġs ample
Ġconfiguration s
ternative ly
Ġaccept ed
Ġorig in
20 22
Ġauth or
R estart
Ġ row
Ġkn ows
LAT IN
Ġab ility
Ġs cp
Ġ6 3
f acl
Ġresol ution
std out
L et
s omething
Ġ~ ]$
Ġs db
Ġmin imum
ĠS AS
Ġseg ment
l u
um my
P AR
D ir
Cent OS
tcp dump
ĠAT TR
orpor ation
00 2
ĠM in
Ġh ex
n ed
Ġne ither
C ould
Ġblock ing
P RI
Ġg id
Ġgener ic
ĠâĶĶ âĶĢ
Ġo pp
ĠRem ote
W A
Ġconnect s
Ġme ant
Ġmod ern
ĠSup port
em s
Ġp c
Ġhead ers
10 9
exit ed
Ġsu itable
Ġrestart ed
Ġcent os
200 8
Ġ" .
ific ates
= [
Ġc ached
or ld
64 4
smtp d
Ġm ist
> ,
it al
rom e
ĠE S
comple te
Ġ20 11
A F
10 8
ĠC reate
Ġ20 22
Ġkeep s
ĠRe g
urs or
Ġt ee
ri ed
f no
ser vices
DE V
Ġt emplate
ord er
ibr ary
, ,
Ġw ide
CO MMAND
c y
f ifo
Ġl en
RE SS
Ġload ing
" ]
Ġapp lies
or ig
ĠC orporation
to ol
Ġpass ing
Ġdisc us
0000 000
Ġenter ed
( [
ĠG R
ĠE ven
Ġimpro ve
log ical
r ange
app ed
DB us
Ġpri or
Ġis ol
up s
* )
< <
Ġ- --------
glob al
p aces
Ġpre ced
Ġsl ightly
EX EC
den y
T otal
ĠP i
ON LY
enk ins
uf w
Ġtarget s
ĠK B
Ġa es
Ġn s
dec lare
ĠM emory
con sole
Ġ5 2
Ġ> =
ĠA ss
Ġdiffer ences
r ub
Ġspecif ication
Ġr pc
g pg
ir c
po ssible
Ġb uffers
ĠN ew
Ġput ting
S cript
12 4
Ġbr ing
B us
ĠP re
lat est
Ġst able
Ġperm an
k rb
200 1
ist ry
d ist
led ge
ĠF iles
Ġan al
un it
Ġun expected
mas q
ro y
O PT
ĠS ER
Ġrespect ively
ĠM O
K ernel
Ġ7 8
Ġbl ack
ec ot
writ ten
Ġsl ot
Ġ 92
O O
ĠS c
L ast
s uccess
Ġare a
Ġperm itted
Ġsay ing
Ġenter ing
x d
Ġremote ly
: -
n vme
ĠSH A
I RC
ĠOn ce
TY PE
Ġch own
ĠIn stall
âĶĢâĶĢâĶĢâĶĢâĶĢâĶĢâĶĢâĶĢâĶĢâĶĢâĶĢâĶĢâĶĢâĶĢâĶĢâĶĢâĶĢâĶĢâĶĢâĶĢâĶĢâĶĢâĶĢâĶĢâĶĢâĶĢâĶĢâĶĢâĶĢâĶĢâĶĢâĶĢâĶĢâĶĢâĶĢâĶĢâĶĢâĶĢâĶĢâĶĢâĶĢâĶĢâĶĢâĶĢâĶĢâĶĢâĶĢâĶĢâĶĢâĶĢâĶĢâĶĢâĶĢâĶĢâĶĢâĶĢâĶĢâĶĢâĶĢâĶĢâĶĢâĶĢâĶĢâĶĢ âĶĢâĶĢâĶĢâĶĢâĶĢâĶĢâĶĢâĶĢâĶĢâĶĢâĶĢâĶĢâĶĢâĶĢâĶĢâĶĢ
N ew
B B
Ġma jor
iv en
server s
WOR D
as ing
Ġpl ain
b es
": "
arg v
Ġtrans port
Ġgreat er
x m
L imit
ĠN ext
ĠM od
Ġdirect ion
ĠL TS
idd le
1 80
d rop
Ġd st
ag rant
Ġexecut es
p ad
at al
n ess
ĠM anager
Ġn c
en p
Ġb ond
ĠM ax
prot o
Ġinterest ing
acer oute
ĠF S
Ġsu fficient
ip h
* "
Ġr am
20 2
Ġlat ter
/ %
ĠS SE
Ġ4 9
Ġtw ice
Ġ80 80
ĠH D
Ġ6 6
T ML
AR K
do es
Ġforward ed
12 6
upd ates
ĠĠĠĠĠĠĠĠĠĠĠĠĠĠĠĠ ĠĠĠĠĠĠĠĠĠĠĠ
sh m
ĠF un
nd er
Ġwr apper
Mod ule
ĠIgn ored
t d
Ġp asswd
ĠN umber
Ġat a
ĉĉĉĉ ĉĉĉĉ
Ġcol lect
ĠĠĠĠ ĠčĊ
5 76
Ġb rid
sup er
Ġduplic ate
Ġqu eries
ĠB SD
17 7
Ġmark ed
BA SH
Ġsign ature
Ġpattern s
depend ent
stric ted
ĠRUN NING
Ġg row
eg a
Ġmer ge
sec ond
S ector
ak es
Ġt elnet
mess age
ĠC H
Ġcheck sum
" ).
A ES
ri ver
Ġatt ach
ot ify
LE S
Ġpro duce
Ġsh ift
std err
s ider
w lan
Ġver s
Ġ7 4
AD D
Ġtap e
Ġv s
Ġredirect ion
Ġturn s
Ġhandl ed
ĠOther wise
Ġre search
IT Y
ĠPro xy
Ġcompl icated
Ġbal anc
Ġconnect ivity
mp eg
SER VICE
Ġpl aced
EN V
ĠRe quest
D own
Ġread able
MA X
/ >
Ġevery one
ĠA re
Ġs izes
Ġ xxx
ĠSt atus
ĠC all
15 2
Ġsm tp
ef i
S B
w get
C A
P A
l rwxrwxrwx
Ġv g
29 4
ĠFree BSD
w ill
st able
Ġ4 6
C G
ul ated
Ġblan k
Ġadd s
Ġregister ed
Ġf etch
Ġo dd
ition ally
00 01
Ġ4 2
Ġtroubl eshoot
Ġac k
Ġsaf ety
ĠN one
RO UP
I M
Ġsup p
I PT
S ize
Ad min
Ġcomple ted
M an
u k
Ġcommun icate
: :/
Ġm ix
Ġtoo k
Ġsecond ary
Contro l
N ULL
ĠRun ning
Ġma pped
Ġstop s
] ;
Ġld ap
ut down
ĠC L
[[ :
c ur
ane ous
T TY
at ives
ss api
or ry
Ġ7 0
Ġlead ing
ĠTh read
gr ad
rem e
down load
SP LAY
Ġwarning s
b ro
] '
20 12
ac cept
al ign
Ġfor get
fre sh
ĠAd min
Ġsub ject
O PTIONS
16 4
ĠM ost
Ġconfig uring
Ġopen vpn
ĠL EN
Ġresol ved
Ġin deed
sel ves
Ġs aw
Ġautomat ic
l ength
Ġv eth
Ġtyp ing
Ġ ##
ect l
15 00
em ents
Ġreceiv ing
Ġcap ability
P F
ĠS FTP
Ġh int
Ġpi ec
ĠIn stead
Ġopen ing
open ssl
Ġsuper block
Ġ= ~
net stat
EX IT
ĠTry ing
Ġre duce
13 6
Ġauth orized
Ġvis ible
p ipe
Ġrun time
h i
re store
Ġf am
v s
Ġd aily
KEY S
m ar
ap e
typ es
P erm
QU EST
ĠM int
Ġdec ided
Ġs ens
look up
post gres
key gen
Ġlo se
m o
ing er
P Y
et ooth
Ġex clude
h w
Ġp ay
qu ash
comp ress
Ġinv est
Ġreg isters
S EC
m x
Ġdiag nost
f ield
c ustom
w l
ĠW i
/ <
d s
Ġto ken
17 8
w s
ĠSol aris
re sh
ĠG et
ĠâĶľ âĶĢ
IP v
Ġnet ns
r p
at ter
Ġjo in
n ss
âĶĢâĶĢâĶĢâĶĢâĶĢâĶĢâĶĢâĶĢâĶĢâĶĢâĶĢâĶĢâĶĢâĶĢâĶĢâĶĢâĶĢâĶĢâĶĢâĶĢâĶĢâĶĢâĶĢâĶĢâĶĢâĶĢâĶĢâĶĢâĶĢâĶĢâĶĢâĶĢâĶĢâĶĢâĶĢâĶĢâĶĢâĶĢâĶĢâĶĢâĶĢâĶĢâĶĢâĶĢâĶĢâĶĢâĶĢâĶĢâĶĢâĶĢâĶĢâĶĢâĶĢâĶĢâĶĢâĶĢâĶĢâĶĢâĶĢâĶĢâĶĢâĶĢâĶĢâĶĢâĶĢâĶĢâĶĢâĶĢâĶĢâĶĢâĶĢâĶĢâĶĢâĶĢâĶĢâĶĢâĶĢâĶĢâĶĢâĶĢ âĶĢâĶĢâĶ
D ROP
Ġdomain s
Ġback slash
Ġf stab
p f
in i
ĠP M
ĠC opy
A live
ĠTh u
st andard
ig ate
t ent
h ci
gn ome
ĠĠĠĠĠĠĠĠĠĠĠĠĠĠĠĠ ĠĠĠĠĠĠĠĠĠĠ
dis play
ili ar
Ġam d
Ġmatch ed
C MD
V ersion
Ġ2 000
v anced
Ġfl ash
T E
c ing
ĠA M
Cl ass
un der
Ġen o
Ġc ur
Ġin sp
r andom
ĠD isk
flo at
ĠT B
Ġst and
i ver
-- >
ict ure
ĠD ell
Ġtrigg er
E m
ist ing
Ġt c
ĠS tr
Ġver bose
Ġg re
ĠU G
tr ap
Ġb s
ĠT otal
D esktop
ĠW ed
FAIL URE
i est
ĠD on
gr aph
ĠW rite
Ġd atabases
Ġr pm
ĠO bject
ĠDO CKER
Ġcon v
Ġsubnet s
igab it
b its
A uth
Ġmod es
M AT
B S
sh adow
24 8
Ġg zip
Ġde ad
duc ed
i pped
LE Q
UR L
Ġg ave
Ġd pkg
ĠM Y
Ġstr ong
% %
M ore
] "
am s
Ġex ceed
h up
ĠS D
ĠM S
ĠB oth
ĉĉ ĉĠ
in cluding
WR ITE
ĠS E
ĠC re
C D
ub ernet
UN T
Ġw arn
Virtual Host
Ġunder lying
Ġl ack
load er
DO MAIN
Ġreplac ement
' "
Ġtrans m
el ow
ĠD ST
ubernet es
got i
Ġ655 36
con ntrack
Ġcolum ns
comp any
s as
ĠĠĠĠĠĠĠĠĠĠĠĠĠĠĠĠ ĠĠĠĠĠĠĠĠĠ
Ġprot ocols
Ġde precated
ĠS im
ĠS NAT
Ġrequire ment
le g
CO L
ĠWh ile
Ġ1 11
Ġnew ly
Ġlist ing
ip le
am l
Ġth row
Ġread only
Ġsm art
Ġpl us
z ure
Ġapp s
Ġ6 8
Ġknow ledge
v d
out ing
ĠR ES
Ġsub sequ
Ġw idth
ĠP art
** *
Ġfind ing
Ġexper iment
F ailed
ĠT IME
sv n
Ġle g
re start
Ġno body
ĠV AL
Ġrestart ing
a ight
Ġ xx
Ġin active
XXXX XXXX
comple tion
Ġr a
Ġprocess ed
Ġdefin itely
13 2
Re g
Ġsus pend
h ot
K S
ĠC isco
re ject
list en
l ocation
p ush
f disk
x e
Ġsc al
m ay
Ġsymlink s
plic ant
n ext
s plit
Ġ1 0000
Ġfe ed
s uch
Ġh idden
ĠP S
ĉĉĉĉ ĠĠĠĠĠĠ
Ġn tp
O M
ad b
Ġ< =
Ġthem selves
Ġoptim ization
s r
Ġg cc
IN D
Ġinterpre ted
Ġdescript ors
x args
Ġimplement ations
Ġb u
NEW KEYS
ĠCom p
Ġmy s
tr act
C ount
error s
Ġloc ations
=$( (
Ġstr aight
a ks
Ġw get
Ġle ts
Ġconf used
Ġkill ed
Ġinvol ved
ĠD ocument
Ġ<< <
no exec
96 7
Ġ' '
] /
Ġmode m
f ish
On ly
Ġsnapshot s
ith met
ĠP V
Ġ9 8
ph a
vious ly
Ġtalk ing
Ġv im
Ġperm it
om etimes
th ere
orm ally
Ġcore s
ĠE ND
Ġoccurre d
Ġrout ed
ĠAl ways
H ave
ĠL ist
T ue
so ftware
ĠE OF
vis or
loc ale
Ġincrement al
um b
Ġgener ation
t t
ier arch
Ġschedul ing
I B
Ġhandl er
Ġnot ification
al so
ĠPRO T
Ġdistro s
Ġadvant age
a u
av es
Ġh mac
Ġpers istent
Ġg one
L A
Ġcompress ed
G o
Ġestabl ish
S im
ĠNT FS
Ġtr ailing
() :
w ifi
Ġlangu ages
c rt
Ġc aching
P ack
Ġre ached
Ġsup press
br anch
iph ers
ver ify
ug g
Ġup stream
Ġ[ --
u uid
Files ystem
ynam ically
RD ONLY
Ġ' .
18 8
Ġmin imal
sc ale
Ġreplac ing
ĠS RC
tr ust
Res ult
ur st
RO OT
em ail
Ġlevel s
ĠB ecause
ch annel
25 3
CON T
M em
z lib
r it
err ing
Ġmem bers
s on
Ass uming
Ġcons um
ri end
Ġwild card
Ġ5 8
Ġsugg estion
o llow
s port
un ity
Ġser ve
e el
v i
in y
Ġwant s
ul ner
d og
Ġpro gress
Ġkey word
ĠES X
E FI
c nt
ĠD omain
ĠCent os
/ {
Ġhandl es
I SO
cf our
Ġapp arently
ĠS top
Ġreli able
Ġ2 53
Ġf it
l and
opt s
DE BUG
ĠAm azon
Ġmonth s
F OR
ver bose
Ġdis abling
d aily
app lication
V ATE
s ure
Ġcon cept
ĠC LI
Ġprint ing
oc at
() ;
Ġf amily
14 7
P ER
re ce
ut o
vid ia
âĶ Ķ
app end
Ġ ....
ex change
tim er
el ess
Ġwork station
ĠMay be
Ġe fficient
re port
ab i
ĠC MD
Ġsome what
Ġdownload ed
mess ages
F ORWARD
w ire
\ )
C S
an it
Ġst yle
Ġresp ond
Ġregard ing
ithmet ic
U U
comm it
Ġad apt
Ġquot ed
Ġa ux
11 9
Ġauthent icate
Ġall ocation
C opy
Ġtr ap
Ġsymb ols
n r
Ġcont act
arg e
P G
C CESS
op s
Ġcertain ly
ach es
20 8
. :
Ġp se
a i
n am
ĠK VM
ic ial
Ġkeep ing
wh o
s lice
Ġim possible
Ġdec ide
Ġpl aces
Ġso ft
Ġtyp ed
g b
Ġm ed
D ep
ct state
ĠGR UB
ĠL ike
od b
x f
... "
own er
P OST
is ing
Ġsequ ences
8 000
k sh
Ġ' [
ĠW ork
n ote
ĠCO MMAND
13 4
Ġsub directories
Ġpast e
ĠId ent
F inally
Ġdele ting
Ġmys qld
h as
29 5
Ġenc oding
- *
p wd
al ways
Ġde l
Ġwork er
f ound
Ġnet stat
pt ions
CO M
Ġd f
om ed
Ġstat es
Ġid le
i pp
Ġto m
ĠC ore
Ġ' ^
Ġ4 7
Ġrel ay
L F
N ECT
W eb
ĠM ain
19 9
Ġerr no
D ocker
pro v
13 9
Ġcomp aris
local domain
Ġarg s
[@ ]}
20 4
onym ous
ext en
ĠS MP
Ġsh aring
Ġover head
âĶĢâĶĢâĶĢâĶĢâĶĢâĶĢâĶĢâĶĢâĶĢâĶĢâĶĢâĶĢâĶĢâĶĢâĶĢâĶ ¼
ĠHW addr
se par
TL S
sc si
Ġh ello
erm inal
group s
M ount
b re
el come
Ġdet ail
Ġlit eral
est ed
S ource
ĠT O
Ġcard s
ĠVal ue
Ġc atch
block s
Ġ* :
Ġc a
iz ations
check ing
ct x
B UT
ĠM ULTICAST
I nt
d st
ag ment
backup s
Ġexpress ions
ĠJ ava
Ġitem s
EX AMP
ĠStart ed
stat s
Ġph one
d n
Ġsearch ed
Ġin fin
Pro xy
ĠAL LOW
Ġcap acity
Ġ8 3
Ġav ail
CO MM
ĠSpec ify
Ġsucceed s
REP LY
= ,
13 7
sudo ers
Ġeas iest
cont ext
Ġdisplay s
ul se
ĠE xt
AP I
op er
16 3
ch ild
Ġch ance
mode l
e ven
ik ip
ĠPRO TO
11 5
p ic
ĠT OS
Ġ5 5
priv ile
B ack
min imum
map s
it ial
sh opt
Ġ7 77
ĠT ue
riv ate
Ġsupp lied
app s
reg ister
> <
19 8
Ġproper ties
H ello
Log in
olic ies
ain ed
Ġp ub
AS K
ĠRet urn
Ġfam iliar
resh old
" \
Ġlog ic
amet er
C R
:~ /
Ġt mux
dri ver
on line
Ġinit i
Ġdisc ard
ikip edia
4 096
ĠEx ample
B oth
ad itional
Ġfre sh
ĠRead ing
d ot
Ġd ynamically
G ener
Ġ1 99
sh ort
Ġun defined
in a
Ġg l
b ad
h our
ĠE D
Ġevent ually
rou ter
Ġ9 6
t mux
AT T
Ġc ursor
Ġm al
P o
Ġback ed
Ġgener ates
EL L
Ġreposit ories
Ġun like
11 8
Ġformat ted
Ġp thread
Ġ4 3
Ġpoint ing
ic mp
ort ex
Ġupgrad ed
ĠTh us
n y
Ġto ld
ĠPack age
ĠS V
v lan
Ġcombin ed
Ġalloc ate
ĠE NO
ĠCom ple
pack age
ar cfour
k a
ĠB ROADCAST
Ġlay out
w p
Ġt reat
ĠA ND
13 5
Ġke pt
K NO
Ġh ence
tw o
Acc ording
D U
ĠC A
11 11
rel ated
4 56
sim ple
p aste
ĉĉ ĉĉĠĠ
( (
Ġinv oke
ĠAV X
W ed
n n
Ġplug ged
RET URN
fr ame
forward ing
b ig
Ġsp are
Un its
Ġlock ed
Be fore
] =
Ġmult icast
sftp d
sp ool
Ġpr inter
Ġsimpl er
] ="
m ss
RE LAT
ĠP ar
ers on
Ġc ifs
ĠST AILQ
Ġact ions
Ġpip eline
Ġtempor arily
Ġgener ating
P WD
un nel
at ime
Ġc ross
de lay
11 3
am ps
Ġtr unc
Ġwrit able
ĠEn abled
re direct
ro xy
ic ks
Ġb trfs
nt p
ser v
Ġc t
Ġinher it
Ġstr ict
H ER
s ign
ap d
11 7
Ġhost ed
X Y
Ġb an
ĠER ROR
w o
Ġ* )
work er
Ġdecl are
Ġf fff
Ġo ct
ĠĠĠĠĠĠĠĠĠĠĠĠĠĠĠĠ ĠĠĠĠĠĠĠĠĠĠĠĠĠĠ
Ġal ign
/ ,
sh ould
Ġcert ificates
B C
Ġ20 10
bl er
ri p
ĠD C
opt imal
O ver
V D
or n
Ġdon t
ĠM achine
ĠO P
red hat
mon itor
A m
b ecause
Ġposs ibility
t itle
oth ing
Ġman ip
Ġtermin ated
ess age
Ġup per
Ġinit rd
d ict
al th
Ġpo inters
A ctive
ĠF irst
RE G
init ial
v ia
Ġt itle
pt r
Ġc irc
ĠAB I
Ġb atch
act iv
Ġdocument ed
S up
Ġun reachable
ar p
Ġkernel s
Ġschem e
Ch anged
V al
ï ¿
Com p
N FS
Ġ200 9
E rr
Ġactiv ity
Ġum ask
Ġover write
Ġbo ol
Ġremov es
AND ARD
Ġwond er
Un fortunately
Ġcond itions
ĠVirtual Box
KNO WN
ĠR FC
k b
17 6
Ġswitch ing
ĠCPU s
Ġgreat ly
Ġnecess arily
S wap
k o
Ġ Â
ĠR ET
Ġ7 2
(" %
ĠâĶľ âĶĢâĶĢ
ul ator
Ġfast cgi
: *.
Ġbut ton
Ġd ial
Ġ7 5
Ġoff line
Ġs at
Ġthan ks
DE VICE
U M
re load
m mc
ul a
Ġdig its
Ġback ing
CO PY
Ġperson al
- )
Ġ rid
ER R
13 3
ser ved
Ġproduc es
sup plicant
p ip
an on
\ (
R ST
P AM
al ive
Ġ' -
ĠIn c
FI X
in ode
St ep
Ar ch
19 6
v fs
v ideo
Ġv ulner
cl aim
names erver
Ġaffect ed
e ature
Ġfigure d
RELAT ED
db us
ee k
r ate
20 48
Ġtrans f
fr ast
link s
ruct ure
Ġf ac
ak ing
off set
Ġassign ment
Ġm agic
std in
R AN
un i
un ame
ch anged
ĠR PM
23 4
my user
Ġencounter ed
B ash
D SA
B EGIN
yp i
Ġcompon ents
Ġby pass
Ġopen s
! )
Ġch eap
ang er
ï¿ ½
C I
Ġf disk
ĠC R
Ġdet ailed
Ġem ails
xy z
DE FAULT
dm esg
Ġinterpre t
Ġ--- >
Ġpass es
T EST
ser ial
un locked
ĠO ld
Ġacc ident
ĠACL s
C LI
Ġd ash
Ġhe av
Ġw a
Ġsignal s
ĠA S
all en
ĠVAL UE
Ġcon version
Ġsp awn
Ch ange
uck et
Ġcent ral
frast ructure
gr p
d l
n a
ĠW arn
17 0
By tes
ĠRE AD
Ġimp act
ĠIn valid
ne ed
TR Y
Ġend ed
En vironment
Ġutil ities
F ull
1 16
n ormal
Ġk sh
Ġeffect ively
> :
Ġ1 44
Ġbox es
HIST ORY
Start ing
Ġcompon ent
ess ie
Re quest
ffic e
m yp
g cm
ST R
sh utdown
Ġsup pose
* '
C M
w indows
Forward ing
B asically
Ġde limit
put er
CO MP
Ġinitial ized
} \
Th u
Host Key
E nd
Ġ3 27
ten ance
SO CK
Ġcompl ain
24 9
pt ime
ST ANDARD
Ġthrough put
Ġen um
Ġ8 02
Ġupd ating
Ġtre ated
Ġext reme
cle ar
= %
Ġl a
ĠK erberos
Sec ond
Ġd em
ĠL ibrary
Ġquot ing
Ġc odes
IN E
Ġ} ,
99 99
11 4
M ost
. ],
ĠL ook
ftp d
H ope
d rwx
om ic
ist ic
Check ing
B LOCK
Ġpro ceed
ĠR T
G u
H D
Ġre stricted
it em
Ġb ook
Ġcon ven
ĠG u
Ġsect ions
Ġdifferent ly
p w
ĠAC K
S ignal
Ġp od
dig it
n i
Ġar ithmetic
b log
fl ush
c ifs
w pa
en vironment
Ġcl ar
ctr l
SU CCESS
S ol
ce ll
13 8
ierarch y
B oot
ov ing
ali ases
ĠLoad ed
ĠC IRC
oo lean
ĠUn it
ĠATTR S
w c
AC T
cept ion
LOC AL
Ġgn ome
2 32
C urrent
ĠG PT
z y
al s
Ġsl ash
allen ge
ĠConfig uration
2 10
A gent
B ecause
ĠA uth
log ging
Ġdescri be
ĠF ri
Al ternatively
Ġsl ave
P ost
compat ible
m ic
Ġ6 9
Ġec r
ar se
ĠA SC
dir s
D omain
Ġte am
inger print
Ġrepe at
d on
Ġal ter
Ġ4 04
¼ âĶĢâĶĢâĶĢâĶĢâĶĢâĶĢâĶĢâĶĢâĶĢâĶĢâĶĢâĶĢâĶĢâĶĢâĶĢâĶ¼
Ġw ar
âĸ Ĵ
ĠEX T
STANDARD S
t ask
v f
ip ient
Ġweb sites
ĠNIC s
/ [
Ġm ouse
Ġle aving
PRI VATE
ab b
Ġm ill
ĠM AP
Ġstore s
Ġpar sing
Ġprec ise
Ġpot entially
> "
W rite
f g
B E
yn chron
Ġfilter ing
Ġreboot ing
C urrently
u ing
Ġprot ection
ĠS N
Ġwor ry
Ġh el
ME NT
Ġcrit ical
A IN
b oth
d atabase
Ġeth er
( ?
G b
Ġun used
Ġal ert
ĠDis play
Ġrepe ated
on ical
int el
25 1
20 3
Ġoff icial
Ġsys call
atter y
m i
ic ating
ĠUn fortunately
19 0
7 00
er c
SC SI
P ass
Ġus able
Ġim ag
um ount
D estination
le ts
Ġr t
00000000 00000000
Ġcompil ation
8 80
g win
Ġdoc s
D ATA
Ġstructure s
h a
ex ternal
WA IT
fun c
ĠM ult
ĠH OST
if fer
Ġpo ll
Ġbas is
aspberr ypi
privile ged
Ġ Âł
âĶľ âĶĢ
un g
Ġload s
m ove
Ġ url
l ind
un known
ĠG en
Ġp rom
pr t
Ġsys ctl
li p
Ġcomp ared
Ġbenef it
ĠN S
un reachable
Ġen gine
14 8
ĠS end
St atus
install ed
D HCP
Ġport able
ans ible
ĠP o
16 6
- +
5 000
Ġse es
Ġreboot ed
D on
re name
Ġsubsequ ent
U DP
Y ES
g ain
Ġ\ \
UN C
il ter
== =
ĠT TY
sp eed
sk ip
FL AG
Ġscript ing
RE QUEST
Ġslow er
Ġprovid ing
c al
m irror
Ġdec imal
im ate
IT AL
Ġdm esg
li as
ĠP E
prot ocol
ir ing
Ġsign ed
Ġbus iness
Ġess entially
d ouble
ĠW arning
ĠW ARNING
Time out
A b
C X
ĠSM ALL
de vel
24 4
Ġsuggest s
ĠPRE C
WOR K
2 000
ang ing
l xc
qu ired
ys is
ĠâĢ ¦
Ġc ipher
Ġf sc
um an
76 8
w ide
18 4
ĠDE BUG
Ġbin aries
At t
In stead
Ġm icro
Ġd iv
vari able
i pping
un e
Ġb uf
oc h
Ġ8 2
Ġenvironment s
Ġab ort
Pro perty
ĠFun ctions
Inter val
Ġsc si
Ġgr ant
May be
r atch
a udio
str ace
Ġear ly
P ermission
ST ATUS
Ġ200 1
S hell
Ġcomm a
Ġcall er
Ġlogin s
Set ting
x dr
ĠE vent
15 6
5 21
uf act
Ġno queue
reg ex
Tr ans
COMM IT
ĠASC II
! "
S ON
14 9
con n
ĠVM ware
ĠUn known
iss ing
2 12
ĠN ginx
Ġ8 192
Ġnew lines
Ġdefin itions
ac s
Ġtyp ical
Ġh yper
LIN K
Ġappreci ate
ĠOpt ion
S pec
y ond
ro s
Ġex pen
ĠO utput
fo llow
Ġâ Ĩ
C re
at ory
network d
Ġassum es
Ġbot tom
ip set
Ġboot ed
Ġro le
ac kex
ĠW IN
Ġcontroll ers
Ġf lex
ĠĠĠĠĠĠ ĠčĊ
ard ware
P L
b al
20 10
lib s
os en
Ġes ac
fer red
init rd
ackex change
e ither
S er
ce l
um ask
Ġout bound
Ġcomp rom
G ROUP
Ġd er
Ġcap able
est amps
Ġclear ly
Ġdevelop ers
Ġs our
ĠĠĠĠĠĠĠĠĠĠĠĠĠĠĠĠ ĠĠĠĠĠĠĠĠĠĠĠĠ
19 5
Ġsplit ting
ĠSc ope
T W
20 6
15 3
am i
ĠOper ation
13 05
cl ock
00 3
ĠR aspberry
Ġrelative ly
Ġres ize
ĠG n
ĠWh ich
Ġrecogn ized
P ING
s ignal
Ġsh all
ĠA zure
D ate
N EL
[ '
p ag
Ġrem ount
Ġper cent
r ule
? "
D N
Ġa udio
ĠP l
Ġ5 1
cl us
ĠSC SI
Ġm iddle
14 3
ĠThere fore
us es
p u
back end
Ġfsc k
ĠP h
Ġloop s
Pro gram
p rompt
ĠCan not
not ify
ĠAny where
Ġdecl ared
web site
ĠSM TP
r an
Ġl an
ĠG ET
Ġnames paces
âĢ Ķ
Ġ16 384
Ġfailure s
k vm
Ġpot ential
ĠS witch
ĠO f
Ġinsp ect
D G
W arning
Ġre ly
ĠH TML
Ġser ies
H at
++ ++
p v
Ġ' *.
Ġam ong
Ġd ual
Ġre pro
param s
b ine
Ġ" [
ĠHTTP S
Ġsched ule
Ġcomparis on
$ /
ĠR outer
Ġcron job
Ġtermin ate
A ct
ĠĠĠĠĠĠĠĠĠĠĠĠĠĠĠĠ ĠĠĠĠĠĠĠĠĠĠĠĠĠ
m alloc
16 7
R ep
er a
Ġd h
Ġcons istent
head ers
F P
Ġgraph ical
E ven
24 5
tom cat
ĠSec urity
Ġd ou
Ġp ci
ADD RESS
Ġs aving
20 11
ret ch
) ).
s de
Ġreceiv es
Inter face
ĠEnter prise
Ġneg ative
Ġhigh ly
e ared
Ġdecl ar
b s
in ary
is ks
ul imit
Ġm m
Ġbe yond
ch r
lso f
process or
\ [\
Ġl os
Ġ4 00
aut om
so f
Ġ8 00
journal ctl
ĠCAP ITAL
Ġen abling
Ġpre f
Ġlet ter
um s
Ġg ain
AB EL
ĠUT F
ĠRET URN
cl one
Ġdisconnect ed
Ġvir br
Ġle arning
Ġ2 50
16 2
ĠP ut
Ġ ing
config uration
O k
Ġs il
DI S
Ã ©
st ar
Ġmacro s
ĠP rotocol
Ġal t
ĠSo ftware
Ġmodify ing
ook ie
f irmware
ĠW ill
sas l
g ssapi
19 3
---------------- --------
K eep
Ġr x
Ġcontro ls
N N
ĠL et
Ġman page
Ġredirect ed
Im age
Ġfind s
Ġbrow se
m icrosoft
Ġsepar ator
S UB
Ġ ll
p onse
Ġs a
Ġretri eve
bas ename
f use
ĠĠĠĠĠĠ čĊ
Ġperform s
IL L
( &
_ *
AA A
m time
y ml
ĠS ource
Ġend point
ĠDe v
part ed
-------------------------------- --------------------------------
ĠUp date
15 4
OP BACK
ABLE S
etc at
w indow
y tes
Ġal one
e ys
Ġ8 9
ĠH yper
18 7
send er
Ġalgorith ms
W ell
Ġsp eak
Ġsudo ers
Ġnames erver
Ġexport ed
tun e
P ress
an swer
ĠO SSL
ex tra
20 9
++ )
Document s
m map
ĠC omm
ĠP erm
ĠID s
ĠD esktop
ĠO R
15 7
mod probe
Ġhapp y
Ġprev ents
ĠC trl
Ġtransfer red
F D
â Ĺ
Ġin odes
Ġcontain ed
writ ing
Ġd ummy
Ġcy lind
Ġin frastructure
... ,
quot ed
ĠC ap
Ġinstall er
W are
Ġpost ed
Ġdeterm ined
inst ance
s nd
RI BUT
public key
ĠOr acle
u z
ĠWi Fi
[ ...]
Ġp at
er g
spec ified
Ġmed ium
Ġattack s
Ġbo ard
294 967
S R
AC H
Ġperform ing
Read ing
L L
fun ctions
ult aneous
con s
ME M
77 7
stack overflow
err no
TR L
Ġ7 7
22 6
Ġsend mail
IP S
Ġcons ist
% ,
r syslog
**************** ****************
b z
Ġpre set
gu est
ut able
ĠM Hz
Ġum ount
14 6
Ġexplain ed
Ġrestrict ions
Network Manager
Ġch unk
13 1
Ġremain s
Ġm ir
ĠObject ive
f ailed
Ġdis app
KEX INIT
Ġ200 3
12 1
Ġch osen
ĠMount ed
Ġreason able
h da
= \
x b
ĠAd vanced
| --
ĠM A
Perm it
pro gress
p ite
tain er
X DR
con d
Ġel im
max depth
SYST EM
F irewall
G T
20 7
2 17
TER N
Ġ4 1
Ġover rid
Ġdiscover ed
un signed
th erm
Ġpre serve
Ġ7 3
Ġaccept s
Ġref ers
ĠUs ers
r tl
ay s
qu er
ĠP assword
ĠF ull
18 9
Ġsucceed ed
________ ________
E vent
ig ning
Ġv ary
Ġ5 7
rep ly
Ġproper ty
ĠAuthentication s
ĠX en
Ġcompil ing
Ġhang s
" }
og raph
L V
an ic
Ġinter n
78 9
C ore
up grade
P l
In fo
Ġsub system
ĠSI ZE
E MD
d rwxrwx
IN VAL
/ ${
LI C
ĠCON FIG
D EN
ec dh
00 4
Ġdef ines
80 211
Ġ9 5
Ġmon it
part s
ĠN ode
Ġdis ables
Ġret urning
Ġwee ks
ĠMan agement
comput e
Ġprogram ming
) ]
im ages
ect ed
Ġsh adow
ĠSt orage
Ġinter act
Ġschedul ed
H T
d om
s ingle
Ġ1 34
no DB
18 6
ĠUN KNOWN
ĠSup er
ĠESX i
st ood
ĉĉ ĉĠĠĠ
bl ah
C RE
re le
gener ator
Try ing
n ecess
te e
Ġr d
ĠR ED
Ġformat s
Ġabsolute ly
Ġcorrupt ed
t imes
ĠD irect
not ice
ĠEx p
] {
fd ump
Ġimp lies
Ġr are
ĠS P
17 3
Ġrecurs ively
Ġpiec e
P ar
ĠL en
ov ecot
cre d
ĠSh ould
Ġw lp
ĠS hell
Ġnum eric
sec onds
2 16
Ġph ys
uri ous
' />
v nc
Ġt ick
ĠT H
po ll
Ġbr ack
enc ing
Ex it
comp il
B M
ĠTr ue
SER T
journal d
4 80
r and
SH ELL
22 7
Ġinitial ization
ĠSet ting
/ ;
pl atform
ĠDis able
part ition
iz er
test ing
ĠComple ted
m art
ir q
ĠDep end
n p
re set
Ġdeli ver
Ġmist ake
v a
ĠC urrently
ĠD R
Ġcont r
Ġcare ful
ĠExec Start
ĠCl oud
H and
P h
Ġtr aditional
SY S
Ġtop ic
Ġsn ipp
P KEY
ĠD PT
Pro blem
medi ate
âĶĶ âĶĢ
@ .
Ġdirect ives
Ġsim ultaneous
r l
Ġany body
Ġstat s
Ġhop ing
i i
re place
am azon
clud ed
Us age
ĉĉĉĉ ĉĠĠĠĠĠ
Ġdiagnost ic
th rough
ĠX P
Ġs i
The y
NOT E
ac ter
Ġ7 00
Ġsu dden
ĠI T
ĠM ore
files ystem
Ġbig ger
sp awn
ĠS PT
e u
s quash
SS ION
eng ine
Ġattempt ed
Ġf acing
Ġstat ements
ifi ers
% .
Ġf riend
mc li
prec ision
Ġp ure
Ġg w
Ġnot es
: (
15 5
ov ed
S un
BO OT
14 5
Ġre write
ĠD river
Ġh i
16 5
ĠF eature
14 2
Em its
s ame
de ploy
ĠV olume
Changed Signal
Emits ChangedSignal
S afe
Ġde pth
po ly
ĠRe quire
other board
N ext
S p
Ġp icture
' $
Ġd am
Ġd bus
Ġm ine
Ġ7 55
18 5
Ġ"- "
ut f
Ġun d
Ġtot ally
separ ated
Ġp olicies
th es
Ġas ks
l vm
ĠWh ere
cert s
M PT
z fs
Ġcond itional
Ġextreme ly
Ġf av
ĠO ut
MA IL
F older
ĠA cc
olum n
Ġ$( (
Ġconcern ed
Ġh ub
std io
Ġschedul er
ĠBe fore
F ri
ĠĠĠĠĠĠĠĠ čĊ
init ramfs
E Y
sh ift
0000 7
Ġreach able
Ġassem bler
b viously
us pend
domain s
ĠN TP
ĉĉ ĠĠĠ
36 0
cat en
Ġlib c
und red
Ġredund ancy
a el
in ate
Ġr syslog
el inux
are n
Ġ* **
ffic i
Ġz ip
Ġleg acy
A ccept
us age
Re lease
s ection
est er
Ġboot s
ĠCh ange
h igh
p ine
at s
Ġr anges
ff ort
form ance
Ġchild ren
W ould
Ġf ingerprint
IN ET
ass uming
Ġbug s
Ġio ctl
PAR AM
FILE S
Ġtransm itted
ĠD F
Ġd ie
ĠB cast
Ġcirc um
Ġhel per
- $
Ġx fs
m enu
t put
ent y
ĠCIRC LEQ
ufact ur
in ing
is es
us ic
ĠM D
Ġorg an
Ġreg istry
Ġrefer enced
( .*
G ID
no arch
Ġmount point
Ġresol ving
plug in
PASS WORD
ed u
Ġmain tenance
az y
Ġbre aks
wl wifi
L evel
c n
ĠF AT
Ġedit ed
ĠVLAN s
Ġinit ramfs
Ġrecogn ize
S N
z en
key board
Ġar p
Ġ et
st ackexchange
ĠB ad
j ump
64 0
m gr
r x
Ġ" <
ĠS l
ĠAv ail
v t
Ġoper ate
B uild
Sh ould
u etooth
un set
Ġprec ision
Ġtom cat
f lag
ĠF irefox
OS E
OP EN
Ġin form
20 5
E ach
i us
Ġbeh ave
ĠPro gram
p air
s ents
ĠD estination
Ġtim estamps
Ġautom ate
pro duct
Ġinit ially
S W
âĹ ı
u ations
ĠĠĠĠĠĠĠĠĠĠĠĠĠĠĠĠĠĠĠĠĠĠĠĠĠĠĠĠĠĠĠĠĠĠĠĠĠĠĠĠĠĠĠĠĠĠĠĠĠĠĠĠĠĠĠĠĠĠĠĠĠĠĠĠ ĠĠĠĠĠĠĠĠĠĠĠĠĠĠĠĠĠĠĠĠĠĠĠĠĠĠĠĠĠĠĠĠ
P REROUTING
t x
Ġe g
fo lders
ĠSer ial
Ġ6 1
Ġdro ps
1234 56
J ob
v ml
at io
Ġv ector
Ġnum er
Ġf ont
Ġn ight
ari adb
EN TRY
it ude
up lex
und le
15 8
Ġopen ssh
Ġh ierarchy
Ġwhere as
Ġsend er
t ri
s yn
Ġar r
Ġ7 6
sm art
M IT
Ġcol lection
Ġguess ing
A SH
w arning
Ġtrans action
fe ature
Ġbu y
ĠâĶ Į
Ġpse udo
Ġimag ine
5 35
q emu
ĠMB R
Ġim plicit
resol ved
m arch
ach a
ĠST D
ĠAdmin istr
I A
Ġarg v
Ġmultip ort
Ġtell ing
Ġexpand s
vers al
2 13
e ived
H UP
ĠIN T
ĠENO ENT
t ld
al pha
Ġst oring
ss d
ĠC RON
le te
ri pem
ĉĉ ĉĠĠĠĠĠĠ
ĠâĶĶ âĶĢâĶĢ
built in
ripem d
S ocket
arg ument
av g
ARG ET
ĠSER VER
C F
23 8
W ARNING
ĠS at
R et
\ $
an other
ĠD one
16 1
ST ART
Ġassum ed
" ${
or ter
Ġr sa
ĠL evel
ĠM ARK
Ġ5 000
Ġinv ocation
ap er
Ġdir ty
ing ly
IP V
Ġshow ed
mon th
âĸĴ âĸĴ
En v
Ġshort cut
Ġmin or
Ġlif e
M ac
17 4
no hup
Ġ16 9
Ġorig inally
ic ode
Ġrepl ication
vv v
Ġenc lo
Ġactiv ate
Ġrev ision
I EC
22 9
Ġro ll
Ġ$ _
24 2
= ("
s chem
O ption
Ġex am
[ :
c pp
Ġ../ ../
Ġconv ention
l aunch
Ġb are
19 7
FA CE
CLI ENT
Ġconflic ts
par m
exec ute
if ically
Ġor d
lic ations
met ric
P RT
d ated
al one
ĠA ct
f mt
Ġex change
ĠF A
Con tent
hand le
Ġn ic
23 7
48 576
xdr s
g mail
p op
ire s
Ġpr inc
UN D
b row
Ġin dependent
Ġre try
Ġ" --
Ġpre sum
ĠUn able
AUTH OR
oun ters
ĠD rive
t elnet
Ġw iki
od ec
ER NEL
Ġterminal s
ribut es
gn um
end ian
ub y
pro d
ĠIn put
Ġref lect
================================ ================================
f at
Ġdescri bing
Ġprivile ged
ĠL ive
Ġi pt
Ġsur pr
ateg y
N ON
ĠD M
ast ic
() {
Ġign oring
ci i
Ġext end
NOT ES
Ġaltern ate
Ġt er
en o
4 04
Ġb oolean
Ġacc ur
bl ack
Ġexpen sive
Ġem ploy
uff ix
bl ank
d iv
Ġun ame
Ġinst ant
ch k
BACK UP
m ong
x term
li ance
M iB
U ST
In put
Al t
Ġfore ground
Ġsit uations
3 000
Ġl ab
Ġl sof
Ġun us
rot ect
ĠH E
cl uster
( /
Ġh undred
Ġcom bine
PRO T
Part ition
Ġin line
24 6
=" "
Ġsub directory
^@^@ ^@^@
or acle
ĠV NC
Ġz fs
e ay
pl us
Ġspeed s
F ROM
R el
g c
.. ...
our ne
ĠE very
Ġdescri bes
Ġ8 5
ĠB us
23 9
ĠX ML
: [
C LO
T X
w orld
un less
ĠL icense
abb ix
L DAP
18 1
Ġ9 7
Ġ" ^
pl an
lt a
un ction
Ġst age
is f
Ġp anel
as ion
ĠConnect ing
F E
Ġom itted
on ts
Ġafter wards
Ġro b
ĠAR M
Ġs nap
Ġan sible
Ġre named
Ġsec ret
M emory
Ġun fortunately
Ġun necess
& &
23 0
r out
ex pr
01 00
h ook
ent oo
Ġm ent
22 8
Ġsepar ately
osit ory
Res ponse
Ġhold s
aaaa aaaa
n ix
Ġn f
Ġhas n
Ġstr ace
Ġsd c
CON F
s ources
100 1
fer ences
l ang
Ġparticular ly
Ġsimpl est
Ġ' --
ĠAC PI
Ġperman ent
ATT RIBUT
V ID
ĠT AILQ
Ġpre p
Ġover written
ĠK EY
b trfs
17 9
Ġelse where
Ġconf using
Ġcylind ers
Ġknow ing
ĠS ys
em per
ĠP ath
Ġtri v
ĠRe f
SSL eay
Ġfrequ ently
St ate
ĠSpec ifies
Ġe ffort
per f
L M
read able
DI SPLAY
F ound
Ġs qu
ĠV er
od ay
Ġver ified
configure d
S witch
Ġ1 10
Ġy ield
23 3
Ġis o
Ġst ud
IN SERT
Ġ6 2
Ġst oc
per ties
b ak
Ġa p
Ġc tos
Ġswitch ed
N G
n ft
s ack
postgres ql
S omething
Ġplug ins
u a
Ġ[ ...]
02 00
res ize
Ġactiv ated
Ġ" {
ester day
Ġth ous
sh ake
Ġun limited
Ġ8 000
lib rary
22 3
Ġattack er
: '
in uz
Ġp wd
Ġmiss ed
sl ave
base T
" ?
Ġconf ir
Id ent
b ie
Ġcol on
Ġmat ters
log rotate
Ġh im
AP P
ĠApp lying
Ġs ql
Ġcomment ed
Str ing
Ġintern ally
A CE
K eys
w arn
Ġt end
ĠEx change
Ġrespect ive
Ġr ace
sel inux
E V
cert ificate
es ides
ot es
Ġab c
Ġlet ters
Ġpers ist
ĠAtt ribute
F UNC
Ġqu it
Ġlock ing
D A
s ay
ĠG igabit
Ġ00 1
Ġautom ated
Ġaffect s
Ġ ###
ĠJ SON
cs i
ĠU EFI
Ġpos itive
Ġmanag ing
M OT
oc s
Ġunlike ly
s ample
} }
Ġ` /
e le
m cpu
15 9
Ġvari ant
Ġx en
âĸ Ī
Ġg en
Ġsort ed
Ġreport ing
d ynamic
Ġh ist
ag ick
ĠD et
ĠSM ART
. _
ĠIn itial
Ġsys admin
Ġbelong s
I gn
Ġs nd
ĠS AN
ĠA NS
ĠC y
Ġres cue
lets encrypt
up load
Ġgo og
Ġtrust ed
s z
ĠF irewall
Ġcl aim
sy mb
Ġ+ =
Ġop in
ĠDepend ency
8 192
E P
en y
limit s
ĠSe lect
ĠE LF
) -
Ġcon n
sec ret
ĠB ro
Ġ7 9
Ġinterpre ter
m ission
Ġiss ued
Ġcomput e
ILE D
Ġanal ysis
Ġaccident ally
at er
oun ce
Ġdeploy ment
+ --------
if cfg
Ġ3 000
Ġpar sed
1 0000
Ġr ad
LIST EN
de l
Ġ2 222
ĠP ublic
ĠR ep
Ġsp am
Ġform er
Ġqu al
CLO EXEC
W all
Ġglob bing
Ġin bound
Ġ9 4
amet ers
W W
Ġn t
Ġav g
Ġreg ion
Ġcontroll ed
7 55
w an
im ately
Ġsc ratch
Ġconsider ing
Ġsafe ly
s ence
Ġcon str
ĠE verything
tun nel
D M
es ac
th em
Ġsmb d
Ġtroubleshoot ing
de ally
Ġ" #
Ġchain s
P ower
c er
Ġf w
work s
olog in
Ġsum mary
w ell
it el
anit ize
Ġincre asing
= {
ad ing
c nf
Ġ1 50
un ched
ĠAdd ing
Ġtag s
emper ature
ĠR H
ht ool
A lias
Ġp ain
Ġgr anted
Ġsy m
M X
cat al
f etch
Ġpart y
Ġconver ted
omed ir
Ġst ated
ĠA UTH
Ġ[ ::
Ġunder stood
Ġstream s
E B
f n
Ġ2 24
Ġv ol
ĠW ord
n map
low er
c ached
t i
add ing
mys cript
smb d
Ġguarant ee
ĠD IS
Ġdec rypt
Ġpip es
Ġdevelop er
Ġdiscus sion
P HP
j p
Ġover all
Ġgr ab
Ġcustom er
goti ation
< =
T im
st ep
ure d
ĠSt ack
EE E
in ity
ĠC urrent
pp er
Ġsp in
ba z
Ġadv anced
Ġprotect ed
ed ge
bin ary
sd f
Ġseem ed
m ath
Ġ8 4
plug ins
RUN NING
Ġ::: *
AR P
ĠB ack
Ġi SCSI
pers istent
E very
u i
ar s
AR CH
18 2
Ġ... ;
Ġfirewall s
L ine
ol kit
Ġsup ply
ĠRE G
\ /
ang o
Ġcol ors
Sec urity
P R
app le
ĠDE FAULT
Ġredund ant
Ġl n
comm unity
Ġcount s
Ġaccording ly
Ġcorrupt ion
Acc ount
Ġalign ment
n as
e gr
CT X
Ġrecurs ive
A pache
T MP
55 5
et a
act ions
Ġpub l
M ain
Ġw g
Ġa head
Ġm otherboard
15 1
Ġ... })
Ġc ables
grad ed
Ġdelimit er
] );
is on
Ġput s
pro g
command s
Ġdou bt
} _
Ġcon caten
ĠL e
loop back
x en
. $
LO AD
ob ile
Reg ard
33 3
Ġjournal ctl
List en
2 19
Ġd om
ac ron
Ġre fresh
Ġdest roy
2 25
Ġn ested
RE D
t emplate
x a
Ġc iphers
Ġexplain s
I R
i pt
Ġk ick
Ġlink ing
ĠX FS
ĠWith out
B D
Ġan no
ĠL ay
Ġcons ists
f ed
j dk
eth ost
ĠE FI
Ġdocument s
O ff
e o
Ġintro duced
erm od
G CC
l z
Ġtr aceroute
Ġdepend ent
ĠDO WN
ĠC C
ĠP ER
Ġport ion
294967 295
) \
Ġoper ators
Ġser ious
st ance
{ "
ĠG ID
ĠC ache
or ate
de ad
ĠT om
Ġsome body
01 7
Ġro om
aren thes
Ġa ff
N M
O bject
x z
ĠLAN G
Ġtrigg ered
Ġpair s
âķĲâķĲâķĲâķĲ âķĲâķĲâķĲâķĲ
s un
ac c
Ġfr agment
ATTRIBUT ES
Ġh on
ĠProcess ing
Ġh uman
ac ula
id le
r hel
st uff
Ġput ty
Ġfirewall d
dri vers
trust ed
as y
sub net
Ġprivile ge
ateg ory
, -
m isc
Ġaltern atives
Ġb attery
ĠS omething
32 1
Ġover lay
fail ure
ĠSO CK
Ġsat isf
D et
er f
Ġse lection
ĠIn formation
44 4
âĶĢâĶĢâĶĢâĶĢâĶĢâĶĢâĶĢâĶĢâĶĢâĶĢâĶĢâĶĢâĶĢâĶĢâĶĢâĶ ¬
âĶĢâĶĢâĶĢâĶĢâĶĢâĶĢâĶĢâĶĢâĶĢâĶĢâĶĢâĶĢâĶĢâĶĢâĶĢâĶ ´
an a
Ġun available
r ink
Ġfr ames
ĠFound ation
ar pa
Ġappro x
G iven
ĠK eep
St orage
man aged
Ġg pg
act ed
ĠSet tings
O ptions
d av
h p
default s
Ġfail over
Ġpatch es
@@@@@@@@ @@@@@@@@
CX PRT
H Y
e on
f edora
Ġin direct
Ġan onymous
ar b
ĠIf ace
mmc blk
m ega
DE F
Ġrespon ses
pers ist
Ġrout ines
Ġide al
er ally
us et
Ġ[ "
C AT
U KS
ĠS A
Ġ10 1
NO ME
ĠâĨ Ĵ
us ually
par ameter
Ġloc ate
foo bar
G EX
W IN
ic on
Ġ" *.
rece ive
s ym
Ġf ive
im ize
ĠA ccept
FILE NAME
Ġbegin s
ĠPack ages
Ġla unched
NON BLOCK
' ]
Ġb c
Ġ( '
ĠFor ward
Ġrespon sible
ĠPost fix
Ġdist in
DO W
Ġcomm its
ĉĉĉĉ ĉ
export s
ic a
P erson
Ġm as
Ġm and
wh y
Ġquot a
ĠAnd roid
Ġoptim izations
Ġfor ced
Ġfor got
Ġ3 306
ĠT able
Ġi wlwifi
" ...,
O B
X C
ĠO ver
cre ated
St andard
Ġvirtual ization
C AP
s g
ass em
77 5
mys erver
h ave
Ġoff ers
pc r
Rem ove
9 000
Ġc urious
28 8
ĠDefault s
Ġtriv ial
z a
ut om
Th read
ĠS cript
iffer ent
Ġs quid
Ġd u
ĠP olicy
23 6
NU M
arm or
Ġdns masq
~~~~ ~~~~
bro adcast
V ol
Ġprocess ors
DO M
) {
Ġe p
17 5
git lab
Ġobtain ed
/ _
ra ft
contro ller
Ġdeal ing
F ollow
ĠM atch
orre nt
may be
Ġf edora
Ġd ow
Ġj ail
av r
Ġdistribut ed
C omm
Ġb log
Ġm ar
Ġwh ite
Ġnot ed
ĠC IFS
IL D
Ġben ch
R P
Ġbalanc er
R ight
u TTY
re pl
qu iet
ĠF F
Ġinter mediate
Ġc ortex
ri x
ĠIn noDB
LI MIT
Ġmain ly
âĸ ĳ
MOT E
[ *
g a
Ġb ody
ĠVM Ware
y cle
¬ âĶĢâĶĢâĶĢâĶĢâĶĢâĶĢâĶĢâĶĢâĶĢâĶĢâĶĢâĶĢâĶĢâĶĢâĶĢâĶ¬
´ âĶĢâĶĢâĶĢâĶĢâĶĢâĶĢâĶĢâĶĢâĶĢâĶĢâĶĢâĶĢâĶĢâĶĢâĶĢâĶ´
Ġman ner
ĠX DR
Ġreboot s
at ile
ĠH O
Ġbrid ged
as ync
Ġ20 2
Ġcl ue
m tp
Ġr ough
ur al
ĠD ig
Ġident ified
connect ed
Ġboot loader
Ġdec re
Rem ote
Se lect
ĠBlock s
a uthent
Ġapp ended
SY N
Ġguest s
send mail
ufactur er
Ġr aspberrypi
Ġcan t
ity File
Ġar ri
F T
F AT
S at
Ġm q
Ġresp onding
FO RE
ĠS s
ĠR ight
Ġind icated
un used
ĠF D
net dev
32 8
Ġexit ing
B IOS
v agrant
Ġsp ent
mount s
Ġdownload ing
Ġpos itional
Ġsh a
ĠC ert
24 7
Ġwa its
m sd
ect ors
ĠL oop
log ind
conf ined
66 6
aa a
D HE
} :
Ġnot ify
Ġsee k
30 7
pack et
Ġsv n
quot a
f act
g reg
olog ies
Ġconflic t
ĠSupport ed
Ġblack list
hib ited
" "
Ġ );
E xt
p uppet
s f
ĠR oot
cp y
Ġx term
Ġ\ $
load ing
Ġwor se
pth read
2 14
e per
li ant
B elow
ĠApp le
Ġarchitecture s
t ap
Ġp uppet
IN TER
Ġrel ation
[@]}" ;
C ert
st ances
04 0
ASS WD
Ġunnecess ary
19 1
sack OK
) $
log file
over lay
Ġstop ping
FLAG S
W AY
[ "
Ġtime zone
ĠD own
Ġeffect s
Ġproduc ed
655 35
Ġsnipp et
Ġl v
hand ler
âĶľ âĶĢâĶĢ
% )
Ġin tr
Ġ1 12
Ġpo or
be at
ĠGen mask
ore t
Ġ8 6
/. *
po inter
/* /
Ġ123 4
@ $
Ġf oc
C ond
y e
ĠIm age
ĠC ode
Ġwar ns
2 64
v ents
ans ions
Ġip sec
Ġdial og
}' )
Ġheav y
w eek
Ġreal ize
T ARGET
m q
v c
Ġn map
ĠP ri
Ġclo sing
f amily
k y
Ġ% {
Ġprompt ed
ynchron ous
U G
p ur
Ġm ong
Ġdes pite
man ual
Work ing
n ice
Ġdig it
Ġperman ently
22 1
23 5
88 8
G L
q q
P rivate
c mp
v olumes
cl usion
Ġx z
Re write
Ġcalc ulate
Ġw pa
Ġfix es
dns masq
Ġ88 59
ss ibly
AN T
Ġsc ale
2 18
ul ating
Ġpro pag
Ġfrequ ency
Ġch acha
Re quires
Ġw ired
ĠG SS
Ġsize of
rec ord
P ut
us hing
Ġ1 25
net filter
Ġaccess es
80 8
X E
Ġn ano
Ġver ification
hel per
-- ->
ĠA MD
Ġlog file
Ġtw eak
Ġcl on
s em
ĠD VD
Ġcomm only
Ġocc asion
ECT ION
Ġfre ed
ĠRem ove
job s
S ync
x fs
Ġd raw
pri ority
Ġresol v
Ġrest ored
Ġbind ing
00 7
mac ros
Ġpos ix
Ġhint s
Ġcur ve
Int el
S ys
Ġst aff
ĠR O
for ge
jo in
M any
64 8
LE CT
therm ore
Ġphys ically
r ors
ht access
ĠT erminal
ĠK DE
Ġic on
ur thermore
AC HE
Ġel if
Ġinher ited
Ġth reshold
pro perty
P ublic
ĠV ER
rec ipient
M ail
Ġd anger
Ġnon zero
clud es
Ġaccept able
ĠN ET
32 9
Ġdec om
Ġtrack ing
Ġbound ary
I RECT
ut ed
Ġend ing
37 6
S ID
wh atever
P rint
Ġsearch es
ĠRED IRECT
N AS
24 1
dis abled
in stead
Ġg ithub
MO DE
HOST NAME
Ġisol ated
4 000
st ations
Ġus eless
-- .
If Module
Ġint el
Ġopin ion
Ġw elcome
escript or
Ġ655 35
B ASE
f q
o ct
lib exec
96 0
tl en
Ġindic ating
F R
G iB
d ovecot
âĶĢâĶĢâĶĢâĶĢâĶĢâĶĢâĶĢâĶĢ âĶĢâĶĢâĶĢâĶ
Ġut mp
Ġrele ased
ĠRed Hat
at ically
un ks
RE E
Ġover flow
Ġhead s
= :
S c
Ġrep air
F edora
re lay
Ġf irefox
000 2
ĉĉĉĉ ĉĠĠĠĠĠĠ
io ctl
Ġscreen shot
Ġq emu
ĠF ail
14 1
Ġexp osed
Ġdetect ion
G I
24 3
Ġexpect s
Ġinvok ing
n ic
or er
Ex ception
Ġautom ount
Ġmy user
Ġpart ial
m issing
ot d
Ġfil ters
ĠB uild
RE S
Ġinsert ed
// //
Ġlock s
Ġupgrad ing
M achine
b ios
Ġconfig s
Ġad vert
Ġlit erally
b g
Ġ1 39
Ġ2 40
Ġexecut ables
Ġhelp ed
e am
ĠI R
Ġ( *
Ġpro gnum
Ġv ice
ĠP ass
ĠN UL
USER NAME
Ġ327 68
( .
Ġn aming
lob al
Ġvers num
Ġin c
! /
ĠI S
ĠS how
ee zy
US R
e an
Ġp arenthes
set tings
Ġser ving
Ġlead s
Ġir q
ĠSim ilar
Ġthe ory
Ġqu iet
Ġcontin ues
Ġcontroll ing
Ġoccurre n
Ġp in
01 5
. %
fast cgi
Ġrepresent ation
tlen eck
37 4
e very
80 7
str ap
dir name
Ġchar on
ĉĉĉĉ ĉĠĠĠ
Ġcy cle
Ġmigr ate
it er
37 7
Ġvis it
ĠHE AD
P P
ĠTh ank
ME SS
9 00
oc on
Ġplan ning
Ġs rv
Ġtr unk
Ġusers pace
res cue
mem ber
PO INT
Ġrun level
34 0
Ġresol ver
Ġsudden ly
w scale
list s
Ġext ent
Ġperiod ically
D K
M ethod
i ence
00 32
Ġ2 59
Ġset uid
ĠIt s
36 8
Ġdro pping
With out
Ġrepre sents
ĠS ame
Ġrefer red
Ġpress ing
Ġconven ient
Ġrob ust
pp p
alyz e
Ġs s
Ġre q
ff mpeg
fs anitize
ls blk
Ġ1 86
Ġar m
r s
Ġle aves
80 2
start up
âĢ ĵ
Ġlo ve
r ad
r ics
up per
tmp files
Ġapplic able
encrypt ed
B ased
L ocation
Ġd ict
ch o
Ġrec ur
W ill
| -
id s
Ġres ume
Ġstr ategy
Ġpl enty
ĠGener ated
Ġboot able
DE S
Ġanswer ed
Ġkind s
M ASK
\ ]
30 8
Ġnt fs
en ing
ĠS ending
Ġcall back
Ġct state
Ġsour ced
' );
P rotocol
g ers
rec urs
Ġtechn i
P i
ĠI M
LO OPBACK
te am
the y
Ġhand y
Ġcorresp onds
Ġbot tleneck
ĠE INVAL
inter val
") "
Ġtab s
Look ing
/ -
d p
at mega
80 3
Con sider
pri mary
Ġdir s
C N
s am
ĠW ould
âĢ ī
22 22
d ss
Ġ" ",
qu ote
Ġformat ting
Ġdaemon s
in ame
ĠS ocket
ak er
urs es
e er
n ologin
Ġh ar
{ $
Ġenc oded
kn ow
gz ip
2 15
Ġ ult
ip a
ev ents
ĠReg ister
m g
ri ef
ĠIP T
30 3
crypt o
EXAMP LES
Ġdisapp ear
y te
Ġinstall s
Ġopp osed
m and
Ġproject s
itel ist
EC K
stand ing
Ġfact or
f x
ĠCopy right
D MA
V er
v z
pl ain
Ġcons ult
Ġlimit ing
Ġsem ant
ot s
200 9
resp onse
3 306
R ule
LE D
Ġ8 1
86 0
Ġprov ision
iag nost
Ġintegr ity
ĠCommand s
ĠMod ule
B ase
L ike
Ġc e
AB C
" %
Ġ xxxx
^^ ^^
g y
ĠM any
ĠPC s
Ġmail box
ari a
Ġexp ose
P ages
f irefox
in line
Ġn av
ĠAn other
ĠÂł ĠÂł
j q
ĠB ourne
ĠCh rome
work ing
Ġdeclar ation
W AN
Ġac l
Ġpri o
QU E
container d
( \
ĠB asically
Ġdec ode
En able
Ġ26 2
e h
ĠA F
par allel
wr ap
DI RECT
Ġmet a
Ġ> (
Ġexp ansions
Ġsimultaneous ly
ri dden
and box
25 9
gt k
Ġcrash es
support ed
AV A
Ġtransf ers
t gz
Ġstat ically
ob j
ee ze
pack ets
Ġe grep
ĠN OP
Ġneed ing
18 3
ĠFor ce
Ġob sole
network ing
Ġuni q
Ġtransl ation
Ġnear ly
Add ing
Ġregular ly
ĠDM Z
_ %
eb ook
Ġ\ _
Forward ed
[ ]
Ġact s
RI G
client s
Un known
Ġm alloc
Ġh w
Ġauth method
Ġinvest ig
$ '
Ġ10 7
RO L
: +
B R
b ly
Ġre connect
nt ime
Ġhe ard
Ġplay ing
Ġgraph ics
ĠV PC
Ġpar ity
dh client
R AY
Ġapp eared
POST ROUTING
h cd
i w
l f
M icrosoft
O s
de velop
Ġlimit ations
yy y
Ġbrack ets
Ġf an
âĸĪ âĸĪ
j ango
ĠF ROM
vml inuz
ĠA ES
host keys
Ġguarant eed
b k
ust r
44 8
Ġlimit ation
58 7
Ġincre ased
ĠI IS
ĠH and
sp ci
08 00
sc ope
GR UB
N ode
es cap
Ġg ather
ead er
Ġgu ys
ĠSSD s
P olicy
Ġh or
Ġen for
tim estamp
; \
ĠD escription
no atime
76 7
ins ert
alloc ated
Ġsock addr
Ġpreced ence
G ateway
Ġc c
ĠF OR
ĉĉĉĉ ĉĠĠ
Ġ00000000 00000000
iv ing
Ġtrans parent
Ġto wards
ĠM em
Ġarg z
Ġrow s
hour ly
V olume
v endor
ec onds
ri g
ĠLog ical
t a
ar row
ĠF W
im plicit
Ġ" _
Ġ2 54
fd s
ĠEx press
d ash
n agios
Ġp fifo
00 8
Ġexperi enced
Config uration
E verything
at in
Host s
ĠA b
allow ed
Ġescap ed
h id
Ġ ill
Ġm ath
ut ex
Ġwh eel
ĠDocker file
ĠF I
TI FI
O ut
r n
Ġg e
Ġvir t
Ġcomprom ised
.... ----
resol ve
C ache
p ac
Ġ1 33
ĠT akes
23 1
', '
Ġinitial ize
gp u
k ens
ĠP TR
ĠT ER
Ġprevent ing
project s
f all
I AL
ut ing
run time
ib ilities
res ource
ex isting
Ġarch ives
../ ../
t ech
re ference
Ġre view
yp ically
ib re
Ġanno ying
re try
al though
Ġassum ption
V endor
e at
bo b
Ġem ulator
38 9
39 0
Ġcommun ity
ĠI BM
ĠP O
Ġkill ing
ah i
ĠN ormally
ĠDe fin
Ġrandom ly
Ġreject ed
Ġsens itive
M in
et ter
un in
tu ally
RE AM
Ġsav es
clean up
COL OR
00 5
Ġpro files
ĠP R
ĠM ail
Ġhost names
44 0
Ġb urst
SE SSION
b all
Ġex tern
Ġ8 7
\" "
Ġex clus
op py
OS SL
Ġredirect s
Ġtechn ical
ĠB l
Ġhand shake
inet d
Ġ1 64
CO UNT
empl ates
ĠDep ending
B lock
b at
ad ec
Un ix
SYST EMD
I CE
R HEL
ĠTLS v
C BC
ĠR DP
Ġwork stations
ĠOS X
Ġ'/ ^
duc es
ĠĠĠĠĠĠĠĠ ĠĠčĊ
ĠG PU
ĠĠĠĠĠĠĠĠĠĠĠĠ ĠčĊ
char acter
ĠDI SPLAY
92 8
ĠH ave
ft ree
Ġstri p
C ode
M ON
N E
c ss
pro bably
Ġrep lies
Ġenter prise
Ġscan ning
ĠAv ailable
Ġmas quer
de p
Ġlog rotate
IP E
Ġc am
ĠS yn
ĠN R
ĠE d
Ġhe alth
Ġdeploy ed
Ġauthent icated
M o
rom ium
Ġdis patch
os ite
RE NT
F ilter
\ ]\
Ġal ph
ph one
ĠEx it
Exec Stop
. ).
Ġass igning
att ribute
we ight
M b
\ %
t k
t id
Ġd emon
Ġif up
mys ite
B L
Ġcontin uous
mult ip
ĠPer haps
er v
Ġ$ #
exten sion
M essage
Ġ XX
ver ted
ify ing
* \
Ġ1 15
ĠApp lication
ic ious
yp es
Ġproblem atic
` ;
32 7
48 8
K ILL
ĠC ount
Ġprovid ers
Ġexcept ions
Ġadv ise
0 12
Ġover ridden
ERROR S
mer ge
rub y
s quid
te k
Ġtransl ates
c olumn
34 5
sc ape
ing u
Ġsc roll
Ġu int
Ġbehav es
Al though
ĠWIN DOW
Ġconfir med
+ %
/ +
ĠP A
Ġ$ $
Pro duct
MAT CH
Ġdh client
U D
ol es
e ffect
le ft
Ġm ass
ĠL E
30 5
ĠJ ob
drwxrwx r
Ġdanger ous
ĠM icro
Con text
Ġbranch es
32 3
rep os
spec ial
exp and
ĠW OR
AN GE
k ube
Ġv ps
ĠAl though
mount ed
Ġbl ah
xm ox
ĠCre ation
Dep ending
R outer
Ġsp an
Ġrepro duce
Ġthous ands
S ection
00 6
Ġ9 3
âĶĢâĶĢâĶĢâĶĢâĶĢâĶĢâĶĢâĶĢâĶĢâĶ ¤
Ġretri e
prov ider
j a
Ġd port
set facl
29 6
Ġtun e
ĠSp eed
H H
Ġa x
ĠP RI
ĠU RI
RE JECT
ĠPro duct
Ġbalanc ing
o e
et ty
ĠS ometimes
Ġperson ally
compress ed
key code
Root Login
> '
l aptop
Ġ Ð
in otify
ĉĉ ĉĠĠĠĠ
ĠCom puter
Ġom it
Ġ" ,
02 6
V LAN
is ation
Ġload er
Ġfav or
/ #
f ront
l if
l ate
Ġf ire
ug ep
ast ion
n x
el if
O ur
Ġdo v
Ġch oo
33 6
Ġredirect ing
ĠCO MP
Ġtutorial s
ĠMax imum
in v
trans port
ss sd
se g
Ġat omic
ĠMin or
G ood
r yp
Ġre create
connect ions
Ġsignificant ly
d uplic
EM PT
F ind
h h
ip ment
x p
Ġs un
myp ro
G IT
key ex
Ġle ase
d fs
Ġ1 37
ĠNFS v
Ġexper t
Ġmigr ation
ĠStop ped
Ġs dd
=' /
ws gi
y aml
ic ol
Ġk ube
Ġconst ants
ĠGener al
Ġpop ular
dest roy
~ $
Ġ1 36
if up
igh b
ĠLO C
Ġevalu ated
gl ish
b ond
Ġa part
Ġsp arse
ĠT echn
25 7
ĠER R
Ġdov ecot
f ont
Ġw an
Ġ1 30
Ġpre processor
go od
M ult
w ikipedia
Ġc aches
Ġh ide
Ġprompt s
m f
Ġdes c
Ġachie ved
LAT ION
B ind
F urther
ĠI EEE
ĠL imit
ĠF IN
bl ue
ched ul
fre q
met adata
4 294967295
Ġg ame
ost at
F ail
Ġ1 56
pr une
auth or
4 09
b en
b ucket
f profile
u ly
ĠO F
App lication
Ġtrick y
: \\
v sftpd
Ġw all
FO O
ĠEC DSA
and id
Ġdow ntime
> \
p grep
Ġport map
HER E
p in
Ġ+ +
ur andom
Ġun pack
Ġpost s
ĠON LINE
document ation
ffici ently
8 10
s om
Ġl ate
ĠIn fo
Ġdeterm ines
ĠCheck ing
Ġtrigg ers
ĠWire less
ulse audio
Ġfac ility
DE ST
Ġreal ized
Ġre new
Ġ1 80
Ġrequ iring
s ert
Ġc ounters
one y
ĠB LOCK
64 00
Ġrele ases
Ġsuper user
Ġdump s
ĠCON NECT
Down loads
adec imal
S USE
con vert
Ġsk ipped
Ġadministr ation
Ġpract ical
Ġoverrid es
Ġp g
Ġ20 8
ĠST ART
Ġ XXX
Ġun lock
Ġhit ting
P OL
f st
z er
ĠG NOME
000 3
Ġinfin ite
ug ht
wr apper
ĠAd apter
jo hn
re quire
Ġref erring
ĠLoop back
{ }
Ġmy server
Ġinvol ves
x attr
en sion
Ġm it
Ġ1 96
ĠF r
Ġwr ap
St ack
ĠEn abling
// '
Ġdetect s
. \
G CM
b rid
Ġm map
Ġali ve
j enkins
Ġ ecdsa
Ġprefix len
Ġhop s
L ength
P rot
ĠR est
ep h
ide os
cre ment
8 50
= ?
D T
W in
d escription
Ġmov es
Ġ- ----
tr aceroute
Ġclean up
Ġupload ed
ĠRec eived
S amba
m is
t or
v eth
Ġin ject
ĠF ast
ĠG MT
32 6
Ġthought s
att ach
Ġplatform s
ÂłÂłÂłÂł ÂłÂłÂłÂł
Ġcircum stances
o om
ĠE ither
Ġrepl aces
Ġbl k
Ġed ge
Document ation
l arge
Ġg ethost
Ġch ip
ĠL SB
46 5
SY NC
Ġmis match
n aming
et er
qu al
Ġ[ ]
Ġag ree
dis patch
HostKey Checking
Ġex e
ĠL UKS
=$ ?
ait ing
Ġt ion
Ġp v
Ġp anic
Ġm or
Ġ2 52
ĠOff line
ĠDocument ation
Ġord inary
Q DN
ĠP K
Ġsort s
ĠCl ass
Val ue
as ic
ĠRe port
bas ic
Ġpostgres ql
ht m
ict HostKeyChecking
Ġlib virt
Ġadministr ative
Ġhope fully
ryp oint
H ome
Ġv sftpd
ĠSer vices
Ġ[:: ]:
S l
Ġt urning
up id
ĠW H
Ġstr ugg
09 0
uil der
Ġrep os
Ġclar ify
G EN
_ $
Ġc f
th ink
cl es
ĠUs ually
ĠTom cat
F r
O per
80 9
Ġrot ate
Ġdemon str
Ġdec ision
s uffix
Ġn etcat
ins ns
n v
an ent
std lib
T M
ĠW D
Ġoption ally
Ġvari ants
Ġ9 1
AG ES
ĠGn ome
3 20
ĠP uTTY
aspb ian
Ġpartition ing
Ġok ay
B TW
H W
u zz
Ġaddress ing
lib virt
AN ON
Ġdist ingu
ĠConfig ure
Ġunmount ed
Ġflex ible
catal ina
âĢī âĢī
ĠTER M
Ġ2 16
ĠH ardware
Ġser ved
Ġtechn ology
hib it
Ġstay s
I K
ib ern
ABLE D
gre SQL
Ġstrong ly
@ \
n or
ain ing
ĠEn gine
perm issions
Ġgn u
C UR
V G
a N
Ġclass es
in o
ĠS ET
âĢ Ĥ
my app
Ġbit map
ĠS ECTION
Ġ10 4
no body
Ġexpl o
ĠMAC s
EXAMP LE
w g
Ġb other
ĠL D
ĠCh annel
met a
Ġtermin ating
; '
D rive
17 1
Ġpar am
PRO MPT
Ġntp d
Ġhyper visor
U nder
h idden
} ${
re dis
ash ion
Sh are
Ġvm br
O UR
ic orn
ĠA gain
art beat
ĠD ump
ĉĉĉĉ ĉĠ
g ument
Ġs elinux
Ġpre pend
Ġ\ (
DO CKER
S orry
s uspend
Ġm nt
ĠA DD
ap roxy
str act
CO DE
" |
ĠW r
ĠĠĠĠĠĠĠĠĠĠĠĠĠĠĠĠĠĠĠĠĠĠĠĠĠĠĠĠĠĠĠĠ Ġ
Ġ17 3
ĠFor mat
ĉĉĉĉĉĉĉĉ ĉĠ
c ould
-- +
Ġi e
ond a
T wo
w ar
ication s
Ġsw apping
Ġinte gers
Ġ1 22
Ġcorresp ond
SM ART
ISO LATION
T ake
comp ile
ĠK ali
Ġpur ch
sn mp
................ ................
M Hz
h f
ĠM bps
Ġ: -)
sv c
r q
le ar
Ġcon j
ĠD rop
ĠT im
M aster
Ġt ips
Ġrest oring
Ġcor p
rep ository
__ "
Ġsys fs
Ġtag ged
Ġch ose
Ġover l
ak en
ĉĉĉĉ ĉĠĠĠĠ
07 55
ef ik
ĠSY ST
h ist
m ov
ab s
xxxxxxxx xxxxxxxx
Ġmodification s
Ġtermin ates
Ġipt able
j ail
on ce
qu it
bl ed
ĠUR GP
OPT S
Ġlos ing
ot o
Ġ[ ],
Ġsub process
iss ue
Ġpercent age
iagnost ics
P ri
c ipher
g un
======== ====
Ġint ention
Ġimmedi ate
Ġinvol ve
Ġbal ance
D id
F Y
h s
Ġ" *
Ġal igned
bo ss
sp ot
Ġmapping s
Ġconstant ly
Ġavail ability
recurs ive
R AM
n il
Ġin cons
no se
$( (
ĠPart ition
as cii
Ġ1 19
th anks
64 7
ĠRe al
5 04
Ġm id
SS D
sc al
Ġgre en
C Y
x prt
Ġar mv
ĠĠĠĠĠĠĠĠĠĠĠĠĠĠĠĠĠĠĠĠĠĠĠĠĠĠĠĠĠĠĠĠ ĠĠĠĠĠĠĠ
sys v
Ġpri m
Ġresol ves
EM U
Ġd uration
ĠS UB
var s
Ġdec ent
Ġequ ipment
CON NECT
Ġpay load
0 10
9 15
Ġact ing
Any way
P H
n odes
ro wn
Ġ" :
Ġun changed
92 4
ĠG entoo
Ġht ml
fix ed
Ġrough ly
ation al
Ġsh rink
Ġdiag ram
Ġmaintain ed
IPT ABLES
C all
ĠB ASH
Ġhigh light
call s
Ġensure s
Ġcombin ations
Ġinvest igate
Ġmal icious
[ .
e es
id ing
Ġde graded
wr ites
ĠST ATE
rele vant
ident ity
Ġutil ization
Other wise
3 04
N ONE
e ach
n mcli
Ġ14 60
B m
a ud
c ow
y ear
ud isks
Ġar t
Ġdele tion
ĠF ollow
Ġlif etime
re ts
Ġhex adecimal
) ):
P r
Ġc trl
Ġre ve
ĠF l
25 8
add ed
27 6
comp are
Ġadmin s
word s
ĠB it
it ative
rou ght
55 0
56 0
Ġping ing
esh ot
Ġscenari os
ĠM essage
md stat
Ġwin bind
IF REG
bre w
Ġaccur ate
re st
Ġn vidia
Ġ| --
Ġag greg
ĠEX IT
Ġtick et
Ġund ers
art ic
load ed
Ġbl ue
Ġ36 00
Ġconstr ain
U FW
as m
Ġ1 88
56 7
tty S
w av
Ġin fl
Ġass ist
day s
LIN UX
Ġlookup s
Ġsemant ics
p od
Ġre fs
ĠD ate
Ġ3 01
Ar ray
C red
f ill
S end
n odb
H ub
c sh
ĠTh ose
ĠĠĠĠĠĠĠĠĠĠĠĠĠĠĠĠĠĠĠĠĠĠĠĠĠĠĠĠĠĠĠĠ ĠĠĠ
Ġthink s
Ġdele tes
VAL ID
Ġreli ably
cred entials
Ġ ug
ĠS mart
37 9
Ġform s
Ġscope id
Password Authentication
lin er
H aving
W P
For mat
dr m
ĠP oint
Ġvar s
ĠL ast
Ġcho ices
" ),
t b
Ġ( [
Ġr aspberry
Ġlog on
80 4
() )
ĠSec ure
Ġstand alone
V S
ĠD D
=" \
lay er
Ġlearn ed
lu etooth
R M
ac pi
oc ations
by name
B US
P oint
ab out
Not ice
Ġer ase
Alive Interval
, /
t in
ĠG IT
Ġcomp aring
low fish
ATE WAY
duc ing
t ex
ec ode
ĠA H
Ġsub string
rec over
Sol ution
G O
b atch
Ġf atal
og ether
av ed
Ġn agios
Ġpro f
Ġem acs
Ġpower ful
ĠDig ital
K iB
Ġf ashion
st ty
Ġl icense
ĠE vents
Ġde ep
ĠF amily
Add itionally
b lob
e al
on eshot
Ġus r
ĠUn less
ĠAdd itionally
Ġdat ac
ĠSN MP
Ġmar ks
Ġf ts
ĠC EST
Ġtunnel s
ARG S
= ()
D AT
o ss
Ġh yp
Ġfor um
ĠC ustom
Re al
Ġcustom ers
arb age
W ER
Ġpr inters
Ġcapture d
ĠPh ysical
> =
C pu
ĠE BS
Ġpre sence
Ġ20 97
Ġremov al
SCRI PT
ĠT HE
pe er
Ġfill ed
Ġopp osite
C ap
d i
Ġver sa
TP O
Ġtop ology
Ġignore s
L ock
S y
n m
ar c
96 8
Ġins ight
col lect
contain ers
M SS
l b
Ġre dis
to ken
ĠH ome
=" -
Ġbr ute
Ġorder ing
rel ative
s ens
t v
Ġ( !
Ġj q
Ġfilter ed
ĠâĶľ âĶĢâĶĢâĶĢâĶĢâĶĢâĶĢâĶĢâĶĢâĶĢâĶĢâĶĢâĶĢâĶĢâĶĢâĶĢâĶĢ
T cp
av i
RI VER
see k
erc ial
L B
w ould
Ġb t
Ġm ag
root fs
ell ow
34 8
Ġ19 5
ĠOpen BSD
pect ive
Permit RootLogin
f stat
dir ty
cont in
Ġoct al
Act ually
G Hz
[ =
on ent
ĠW R
mount point
d g
d ro
Ġ16 0
ï¿½ ï¿½
h aproxy
i ate
ot ion
Ġ20 24
Any one
Ġapproach es
Ġregard s
Ġfault y
K ERNEL
g w
Ġcon sequ
Ġch unks
ĠT iB
eb ang
26 0
Ġforward s
ĠSh are
Ġmix ed
ag ram
Ġyour s
Ġapp ending
:: ::
Ġem it
Ġgr ace
Ġsmtp d
Ġn ss
ist d
=$ '\
Ġhigh est
C ol
W E
h ex
Ġa uid
Ġd ies
Ġ1 48
ĠC o
ĠP r
ĠH e
red acted
ĠUs age
Ġlabel s
ĠIdent ityFile
ĠLOC AL
h int
nt fs
log ger
Ġnot ation
80 6
Ġiss uing
mem info
S ave
Ġf ly
Ġg ate
Ġsh orter
ill y
Ġele g
result s
ĠReturn s
el m
Ġun plug
AC L
Ġ00 2
Ex p
orig in
initial ized
ĠP XE
ip al
od er
af ka
ĠSe q
M C
d ummy
l ation
Ġ2 45
ĠA ns
ĠP ASS
ĠL ine
Ġpri mit
sub tree
FF FF
D irect
Z Z
ic o
net mask
Ġ20 9
44 5
06 0
Ġwire shark
M AN
n oc
Ġ/ >
ĠA uto
ĠD N
ssh fs
26 5
UN TPO
Ġdiag nose
Ġwatch dog
Ġm aps
00 9
Ġcr ond
Ġindivid ually
Ġment ions
" `
Ġ1 35
sm all
YY Y
Ġseg ments
Ġconj unction
Ġy esterday
Ġtim ing
?? ?
Ġreach es
Ġshut ting
orig inal
Admin istr
I Z
K ill
m tune
Ġback ward
thread s
Ġinterrupt s
Ġcrit er
pcr lock
n own
re mount
IN UX
Ġav ahi
Ġph ase
Ġstraight forward
Ġn ft
ĠI SA
Ġas pect
ĠW indow
Ġser ves
ĠAss uming
/ ?
Ġ ur
Ġsub set
ĠSIG INT
comput er
/ ...
Â ¹
ĠB EGIN
Ġ10 6
Ġnew est
Add itional
O C
k k
ĠS R
10 80
Ġword press
Ġpers pective
Ġh its
ĠS y
uc ceed
Ġexperi encing
udev d
f inal
i ated
in side
Ġpre dict
AR RAY
EC DH
âĢĻ :
ĠGu ide
Ġmor ning
* ,
D es
g vfs
z f
ag ain
Ġun privileged
36 7
Can not
ĠAT A
h ad
o hn
Ġin otify
id map
Ġj son
exten sions
ĠO OM
ST AGE
Ġdefin ing
access ible
BUG S
Ġs cre
ne g
Ġcle ared
TR FS
Ġapply ing
Ġsk ipping
ĠURL s
Â °
Ġm oney
Ġsp end
ST D
cd rom
Ġpresent ed
Ġadapt ers
ĠNOP ASSWD
RIG HT
P ing
min imal
99 5
mk fs
c odec
ar a
ir able
Ġread line
Ġevery where
MB ER
Ġmac OS
???? ????
Ġunus ual
ĠAns ible
3 55
Ġ${ #
Ġ64 4
01 4
Ġsus pic
Ġaddition ally
ĠCap abilities
n vidia
ro py
Ġpro b
K DF
M ap
N one
Ġ' *
ĠCon tainer
My SQL
Ġimplement ing
Ġaccept ing
Ġxdr proc
Ġbench mark
= .
r h
u ro
se ed
Ġ4 000
:// /
anc er
: ]
Ġb ought
Ġun install
Ġ... )
Ġdele g
Ġins mod
OF F
PRO TO
Ġfeed back
ĠAcc ording
Ġun sure
Ġsimilar ly
riv ile
AAAA AAAA
who ami
allenge Response
ĠRequire ments
M bps
t ions
on ic
ĠS W
ON ES
Ġhard er
Ġtun ing
Per haps
R U
m agic
ac ement
un confined
Ġst ory
B l
G it
K it
Ġp m
inter rupt
Ġ) );
Ġdhcp cd
sched ul
k er
Ġ- ---
ad com
ĠD MA
user add
quot es
c op
et ary
un istd
ĠF alse
ĠH igh
Ġ7 1
88 59
Ġstandard s
Ġeleg ant
d am
m int
Ġf use
ĠS eries
Ġpro x
38 8
35 3
ĠInter rupt
gener ated
ĠOff set
allengeResponse Authentication
u u
Ġw ake
ac onda
th ese
Ġwill ing
ap sed
Ġmod probe
TP RO
Ġassign ments
STR ING
. <
s ocat
Ġre lies
Ġme g
ĠIP C
Ġenum er
5 37
al og
Ġlog ger
col ors
Ġtimeout s
gu ide
Ġsil ently
Ġhundred s
Ġhist or
ic ates
ĠD aemon
s low
} -
Ġf ake
Ġz er
Ġexist ence
}" ;
activ ate
if est
ul k
AT CH
ix ed
In dex
Ġrece iver
Set up
Ġs orry
re ally
Ġd c
For ce
=' \
Ġping s
Dis play
b i
t m
10 72
ĠIn ternal
Ġu ptime
CT L
Ġdistin ct
Ġin ner
ic ator
de precated
ĠĠĠĠĠĠĠĠĠĠĠĠĠĠĠĠĠĠĠĠĠĠĠĠĠĠĠĠĠĠĠĠ ĠĠĠĠĠĠ
Con f
Pro ject
I KE
S UP
e ff
m ips
Ġp f
Ġm ere
Ġun quoted
Ġflo at
Ġexceed ed
b idden
Ġn op
ĠN agios
ĠX eon
NO RE
Ġdeli very
% {
O bviously
el ay
ĠH IST
path name
Ġsl ab
"/ >
Config ure
Y PT
en um
ĠU H
net ns
over ride
Ġbuild s
ĠLog in
Ġoptim ized
Inter net
restrict ions
Ġmand atory
B ook
W AR
nt ry
Ġextract ed
Ġdiagnost ics
ac ert
Ġ1 17
ĠS U
Ġx ml
.... ..
ĠĠĠĠĠĠĠĠĠĠĠĠĠĠ ĠčĊ
Ġfi ber
Ġor acle
ĠD OS
ip route
ever se
Ġmechanis ms
on y
ĠA IX
Ġrepl icate
Ġiter ation
3 50
Ġin compatible
ro red
tr unc
06 5
Ġbr and
Ġfree z
Ġavoid s
Ġbreak ing
ĠANS I
in f
ĉĉ ĉĠĠĠĠĠ
In it
ĠServer s
sub dir
orized Keys
âĢĿ .
ĠWire shark
Ġ/ ^
ord ered
Ġdisplay ing
Ġdhcp d
Ġpress ed
ĠCy gwin
Ġ262 144
x org
Ġpre d
Ġx prt
IT ION
Ġwor ried
TO P
Ġbl uetooth
ĠC TRL
Ġkey ring
user auth
opt im
Ġstri pe
N A
d rwxrwxrwx
ĠM edia
AD MIN
Ġconf usion
N X
\ |
m yn
o h
ich ael
01 9
reg ular
CONT ROL
Ġorgan ization
Ġb rief
ĠS uch
Ġk rb
Ġsupport ing
get ty
ĉĉĉĉ ĠĠĠĠ
Ġtrans form
cell ent
Cre ating
ugep ages
3 12
H as
T ext
re ason
al num
Ġvari ety
86 8
28 7
Ġgit lab
Ġrecord ed
ĠSER VICE
# /
ĠS uccess
ĠN F
Ġjo ined
n pm
Ġst upid
Ġinst r
Ġ\ )
38 7
Ġprefix ed
MO VE
Ġdelay s
4 08
Ġp map
ĠF inally
Ġexec ve
Ġret ain
LO B
SV CXPRT
N um
Ġqu ality
Ġexp os
Ġsvc err
Ġr ack
Ġst ands
Ġ[ '
ĠMode l
Ġtransf erring
Ġdo s
ĠST ATUS
A VE
G SS
Ġ xt
Ġh d
Ġas ynchronous
ang ling
ER E
ĠV ari
Ġposs ibilities
ĠIN VALID
Ġimplement s
PC I
Ġbusy box
¼âĶĢâĶĢâĶĢâĶĢâĶĢâĶĢâĶĢâĶĢâĶĢâĶĢâĶĢâĶĢâĶĢâĶĢâĶĢâĶ¼ âĶĢâĶĢâĶĢâĶĢâĶĢâĶĢâĶĢâĶĢâĶĢâĶ¤
> ;
H uge
in valid
Ġwh itelist
Ġrare ly
ic ity
Ġarg c
mod ify
ĠEn vironment
ĠâĶľ âĶĢâĶĢâĶĢâĶĢâĶĢâĶĢâĶĢâĶĢâĶĢâĶĢâĶĢâĶĢâĶĢâĶĢâĶĢâĶĢâĶĢâĶĢâĶĢâĶĢâĶĢâĶĢâĶĢâĶĢâĶĢâĶĢâĶĢâĶĢâĶĢâĶĢâĶĢâĶĢâĶĢâĶĢâĶĢâĶĢâĶĢâĶĢâĶĢâĶĢâĶĢâĶĢâĶĢâĶĢâĶĢâĶĢâĶĢâĶĢâĶĢâĶĢâĶĢâĶĢâĶĢâĶĢâĶĢâĶĢâĶĢâĶĢâĶĢâĶĢâĶĢâĶĢâĶĢâĶĢâĶĢâĶĢâĶĢâĶĢâĶĢâĶĢâĶĢâĶĢâĶĢâĶĢâĶĢâĶĢâĶĢâĶĢâĶĢâĶĢâĶĢâĶĢâĶ
Ġcent er
Ġvm ware
writ able
âĶĢâĶĢâĶĢâĶĢâĶĢâĶĢâĶĢâĶĢâĶĢâĶ ĺ
Ġsuppress ed
RAN DOM
ĠâĶľâĶĢâĶĢâĶĢâĶĢâĶĢâĶĢâĶĢâĶĢâĶĢâĶĢâĶĢâĶĢâĶĢâĶĢâĶĢâĶĢâĶĢâĶĢâĶĢâĶĢâĶĢâĶĢâĶĢâĶĢâĶĢâĶĢâĶĢâĶĢâĶĢâĶĢâĶĢâĶĢâĶĢâĶĢâĶĢâĶĢâĶĢâĶĢâĶĢâĶĢâĶĢâĶĢâĶĢâĶĢâĶĢâĶĢâĶĢâĶĢâĶĢâĶĢâĶĢâĶĢâĶĢâĶĢâĶĢâĶĢâĶĢâĶĢâĶĢâĶĢâĶĢâĶĢâĶĢâĶĢâĶĢâĶĢâĶĢâĶĢâĶĢâĶĢâĶĢâĶĢâĶĢâĶĢâĶĢâĶĢâĶĢâĶĢâĶĢâĶĢâĶĢâĶĢâĶ ¼âĶĢâĶĢâĶĢâĶĢâĶĢâĶĢâĶĢâĶĢâĶĢâĶĢâĶĢâĶĢâĶĢâĶĢâĶĢâĶ¼âĶĢâĶĢâĶĢâĶĢâĶĢâĶĢâĶĢâĶĢâĶĢâĶ¤
H i
P K
b urst
Ġ1 194
Ġ( --
ĠP EM
fast q
Ġtechn ically
= >
l ined
n ano
ad a
20 24
Ġcomple tes
ah oo
ĠMon itor
SM TP
ha ust
+ =(
L VM
T arget
r outing
Ġa im
Ġ2 22
Ġ2 39
nt lm
99 7
Ġatt ention
ĠDe bug
Ġdistingu ish
S ample
There fore
R FC
Ġc ave
Ġk vm
:/ #
02 9
gener ate
ĠMac ro
Ġintegr ated
âĶĢâĶĢâĶĢâĶĢâĶĢâĶĢâĶĢâĶĢâĶĢâĶ Ĳ
Ġbenef its
X DG
c lick
dport s
option al
A v
Ġc andid
Ġf printf
Ġg c
Ġbec ame
exec utable
Ġfix ing
Ġcover ed
l it
Ġp ause
ĠS pace
int o
bo ol
ĠCon sider
Ġre naming
Ġassoci ative
Com puter
ACT ION
W ire
s id
Ġst retch
ĠM X
ĠR estart
fp u
N IC
e k
Ġs es
Ġm p
ic en
Ġsh opt
11 00
77 0
96 9
58 4
pri etary
dele ted
Ġescap ing
ĠAD DR
g row
ec raft
nt l
Ġmy host
cl nt
QUER Y
H TML
Ġin secure
ur able
ks um
30 2
Ġevalu ate
k ubernetes
Ġa a
ĠB IND
99 8
BO O
SV ID
Ġpiec es
r is
v da
ĠP uppet
Ġ"$ @
ĠĠĠĠĠĠĠĠĠĠĠĠĠĠ čĊ
brow ser
Ġs ix
ĠB luetooth
Ġ+ "%
Ġag e
33 8
disc ard
Ġweek ly
ĠOff ering
....---- ....----
g libc
ON BOOT
De bug
e et
n ight
Th us
Ġ' (
Ġ: -
cr it
Ġrepresent ed
Ġb onding
qu ick
Ġun comment
ĠF QDN
iss ive
admin istr
TERN AL
L T
c am
h dd
m ul
Ġt m
Ġp ad
ag ue
end ar
ĠT R
Ġincre ases
Ġb esides
th an
99 6
ĠRe quires
Po ssible
ograph ic
ĠS wap
ce ler
ĠR TL
ook ies
ĉĉĉĉ Ġ
Ġ19 8
angu age
Ġsig ning
ĠD id
ĠG PL
Ġx f
Ġpip ing
ĠSet up
black list
om bie
Ġ2 20
key ring
AN Y
mod ified
6 80
c oding
re claim
Ġl u
Ġ1 13
ĠP rivate
ĠPower PC
Mode l
n b
Ġn vme
Ġh ibern
Ġinstall ations
Ġtap es
tag s
Ġoccasion ally
? ).
W K
X T
ch ool
Ġj enkins
ub ectl
read line
So ftware
Ġz ones
--- +
Ġprefer ence
ĠCL ONE
Ġtrunc ated
Ġgoog ling
Ġdecom press
) [
OR IG
Ġls blk
ĠSI MD
s ers
x ffff
Ġa pi
Ġun w
ĠK EX
Ġinfin ity
M edia
h ole
Ġf ace
ĠD ES
ĠM ark
ĠB elow
ĠK ill
Ġfinish es
hot plug
ĠPut ty
Ġre vert
Ġre duced
ul ations
IC MP
Ġaccount ing
------ +
Se arch
Ġimplicit ly
Follow ing
ĠIR Q
C ron
K erberos
W RT
ĠC SV
ER T
ĠV AR
ov o
ĠY ES
'$ '\
jp eg
UNTPO INT
$ "
C TRL
x l
Ġs ides
con v
ĠO PTIONS
our s
64 6
Ġrestart s
Ġnet filter
dm a
Ġauto fs
TPRO TO
Ġd ates
Ġ1 24
oo f
77 6
Ġfall back
/ :
j k
w lp
pt om
Ġat tr
Ġexp ired
Ġsimpl ify
Ġum ac
GR AM
n ative
Ġl xc
Ġ: :/
In ternal
asp x
ĠAl ternatively
a uthentication
ĠA RC
ĠA utom
Ġhold ing
Ġdeliver ed
A ction
s ur
Ġw p
Ġcheck out
36 5
00000000 0
Ġrestrict ion
Tr ue
¬âĶĢâĶĢâĶĢâĶĢâĶĢâĶĢâĶĢâĶĢâĶĢâĶĢâĶĢâĶĢâĶĢâĶĢâĶĢâĶ¬ âĶĢâĶĢâĶĢâĶĢâĶĢâĶĢâĶĢâĶĢâĶĢâĶĲ
´âĶĢâĶĢâĶĢâĶĢâĶĢâĶĢâĶĢâĶĢâĶĢâĶĢâĶĢâĶĢâĶĢâĶĢâĶĢâĶ´ âĶĢâĶĢâĶĢâĶĢâĶĢâĶĢâĶĢâĶĢâĶĢâĶĺ
F B
S ometimes
b sd
re quires
Ġb az
Ġb rought
ĠL XC
ub key
my file
Ġfunction al
Ġiter ate
F NR
S CP
d up
s essions
ĠM Bytes
word press
Ġdiff ers
OL D
ĠâĶĶ âĶĢâĶĢâĶĢâĶĢâĶĢâĶĢâĶĢâĶĢâĶĢâĶĢâĶĢâĶĢâĶĢâĶĢâĶĢâĶĢâĶĢâĶĢâĶĢâĶĢâĶĢâĶĢâĶĢâĶĢâĶĢâĶĢâĶĢâĶĢâĶĢâĶĢâĶĢâĶĢâĶĢâĶĢâĶĢâĶĢâĶĢâĶĢâĶĢâĶĢâĶĢâĶĢâĶĢâĶĢâĶĢâĶĢâĶĢâĶĢâĶĢâĶĢâĶĢâĶĢâĶĢâĶĢâĶĢâĶĢâĶĢâĶĢâĶĢâĶĢâĶĢâĶĢâĶĢâĶĢâĶĢâĶĢâĶĢâĶĢâĶĢâĶĢâĶĢâĶĢâĶĢâĶĢâĶĢâĶĢâĶĢâĶĢâĶĢâĶĢâĶĢâĶĢâĶ
Ġvi ol
âĶĢâĶĢâĶĢâĶĢâĶĢâĶĢâĶĢâĶĢâĶĢâĶĢâĶĢâĶĢâĶĢâĶĢâĶĢâĶĢâĶĢâĶĢâĶĢâĶĢâĶĢâĶĢâĶĢâĶĢâĶĢâĶĢâĶĢâĶĢâĶĢâĶĢâĶĢâĶĢâĶĢâĶĢâĶĢâĶĢâĶĢâĶĢâĶĢâĶĢâĶĢâĶĢâĶĢâĶĢâĶĢâĶĢâĶĢâĶĢâĶĢâĶĢâĶĢâĶĢâĶĢâĶĢâĶĢâĶĢâĶĢâĶĢâĶĢâĶĢâĶĢâĶĢâĶĢâĶĢâĶĢâĶĢâĶĢâĶĢâĶĢâĶĢâĶĢâĶĢâĶĢâĶĢâĶĢâĶĢâĶĢâĶĢâĶĢâĶĢâĶĢâĶĢâĶ ¬âĶĢâĶĢâĶĢâĶĢâĶĢâĶĢâĶĢâĶĢâĶĢâĶĢâĶĢâĶĢâĶĢâĶĢâĶĢâĶ¬âĶĢâĶĢâĶĢâĶĢâĶĢâĶĢâĶĢâĶĢâĶĢâĶĲ
ĠâĶĮ âĶĢâĶĢâĶĢâĶĢâĶĢâĶĢâĶĢâĶĢâĶĢâĶĢâĶĢâĶĢâĶĢâĶĢâĶĢâĶĢâĶĢâĶĢâĶĢâĶĢâĶĢâĶĢâĶĢâĶĢâĶĢâĶĢâĶĢâĶĢâĶĢâĶĢâĶĢâĶĢâĶĢâĶĢâĶĢâĶĢâĶĢâĶĢâĶĢâĶĢâĶĢâĶĢâĶĢâĶĢâĶĢâĶĢâĶĢâĶĢâĶĢâĶĢâĶĢâĶĢâĶĢâĶĢâĶĢâĶĢâĶĢâĶĢâĶĢâĶĢâĶĢâĶĢâĶĢâĶĢâĶĢâĶĢâĶĢâĶĢâĶĢâĶĢâĶĢâĶĢâĶĢâĶĢâĶĢâĶĢâĶĢâĶĢâĶĢâĶĢâĶĢâĶĢâĶ¬âĶĢâĶĢâĶĢâĶĢâĶĢâĶĢâĶĢâĶĢâĶĢâĶĢâĶĢâĶĢâĶĢâĶĢâĶĢâĶ¬âĶĢâĶĢâĶĢâĶĢâĶĢâĶĢâĶĢâĶĢâĶĢâĶĲ
ĠâĶĶâĶĢâĶĢâĶĢâĶĢâĶĢâĶĢâĶĢâĶĢâĶĢâĶĢâĶĢâĶĢâĶĢâĶĢâĶĢâĶĢâĶĢâĶĢâĶĢâĶĢâĶĢâĶĢâĶĢâĶĢâĶĢâĶĢâĶĢâĶĢâĶĢâĶĢâĶĢâĶĢâĶĢâĶĢâĶĢâĶĢâĶĢâĶĢâĶĢâĶĢâĶĢâĶĢâĶĢâĶĢâĶĢâĶĢâĶĢâĶĢâĶĢâĶĢâĶĢâĶĢâĶĢâĶĢâĶĢâĶĢâĶĢâĶĢâĶĢâĶĢâĶĢâĶĢâĶĢâĶĢâĶĢâĶĢâĶĢâĶĢâĶĢâĶĢâĶĢâĶĢâĶĢâĶĢâĶĢâĶĢâĶĢâĶĢâĶĢâĶĢâĶĢâĶĢâĶ ´âĶĢâĶĢâĶĢâĶĢâĶĢâĶĢâĶĢâĶĢâĶĢâĶĢâĶĢâĶĢâĶĢâĶĢâĶĢâĶ´âĶĢâĶĢâĶĢâĶĢâĶĢâĶĢâĶĢâĶĢâĶĢâĶĺ
> )
X OPEN
Z ONES
m ariadb
t utorial
Ġp en
Ġp ending
ac ut
Ġ` `
ĠHost name
Ġmer ged
pl anation
Re place
ĠPer form
Ġcomplex ity
Ġstrict ly
k es
Ġre nd
Ġfor ces
act ory
Re boot
Ġlay ers
Ġadministr ators
Ġme et
iss ues
Sim ple
Ġmanip ulate
Ġcriter ia
A gain
Ġar row
UT O
ĠK ubernetes
CT YPE
pub key
es ome
ĠA gent
ĠN othing
Ġlog out
Ġocc up
RA CE
Ġdiag nos
Ġfoc us
% ]
ro ff
ĠB E
Ġ10 8
Ġint end
auth ority
Ġele v
Ġinstr ument
P ython
Ġr uby
ex tract
ĠT erm
ak a
Ġlisten s
vid ed
d ry
h y
Ġm ails
Ġ2 46
34 6
less ly
Ġbr ace
AB ASE
Server s
Ġcp uset
Ġnice ly
e ue
Ġre key
Ġx yz
EL F
mk temp
aria DB
V Z
e asy
Ġin complete
Ġh ear
Ġdat as
ĠPost greSQL
Ġprecise ly
+ )
h ub
s b
u ction
In valid
04 8
Ġfun c
Ġorder ed
Ġartic les
amazon aws
Ġprep are
/ $(
2 0000
or ary
Ġg arbage
ĠS EC
lo se
Ġ10 5
ST OP
34 7
res ources
perm anent
[ -
Ġsu ite
root Directory
92 6
mult iple
them es
A udio
N ormally
Ġb pf
ĠI KE
ĠB ase
core utils
MI B
Ġinterrupt ed
Ġc ool
as cript
ĠA udio
end ors
Ġ[ .],
ĠF P
FI L
1234 5
Ġsp read
ĠServer Name
ĠRe lease
En gine
Ġcore utils
prot ected
week ly
c ounter
re w
ab bit
Ġcan onical
el og
ĠOr der
Ġcar ry
Ġconc urrent
PRE FIX
un til
ĠO PT
urn s
Ġdet ach
NO DE
Ġsync ing
Ġpresum ably
S ense
o ll
ĠW S
Ġno hup
Ġinput s
Ġproduct s
O U
Ġ ).
er ved
Ġk erberos
Ġwe ight
54 0
ĠPro blem
AM D
Ġra ise
G bps
Ġs ake
Ġover writing
vers ity
c ost
m ach
Ġc ookie
Ġex cellent
Ġpar ams
Ġtrans mit
Ġpip ed
VI RT
Ġmk fs
n ever
ĠL SI
ĠT S
Ġwant ing
Ġline ar
33 7
ser ving
ci ent
b lowfish
g est
g db
Ġn arrow
Ġpro pos
ĠN IS
Ġwork group
Ġread er
Ġ9 000
@ <
or th
ĠT EST
Ġff mpeg
ĠAtt empt
) ...
6 000
K nown
b est
an n
Ġ1 16
ss ue
ĠD uplic
Ġback wards
Ġcare fully
Ġdistribut e
Ġincorrect ly
Huge Pages
p ol
t em
Ġg ssapi
ĠS LIST
Ġsh ebang
ĠC ron
Ġas ide
ĠP ORT
ĠW orld
UP S
Ġ== =
resp ons
Ġspeak ing
H INE
Ġ1 38
ĠA MI
Ġchar set
Ġgu y
Ġsubstit ute
ĠRes ult
m all
y box
Ġ ulimit
Ġ10 48576
33 4
56 8
++ ;
Ġdownload s
win bind
Ġmeaning ful
Mo zilla
( [^
w i
Ġb ios
am b
out h
01 8
St ore
Ġmail ing
ĠSIG TERM
xv da
Ġsqu are
Ġun stable
Ġpre served
ert ype
35 4
READ ME
655 36
F IN
H ardware
r fc
t tp
Ġr atio
Ġ| -
48 3
29 8
Ġu uid
address es
d y
Ġcgroup s
Ġen force
Ġexp ire
po ssibly
Ġsetup s
Sh ort
Ġdig est
mysqld ump
Ġprimit ive
R est
V ari
j av
Ġto kens
99 4
50 6
Ġrot ation
ĠHD MI
Ġobsole te
Ġcorp orate
3 80
V iew
ri ble
oc om
jar o
A K
N EXT
P ool
Ġfor th
Ġne ighb
Ġbo b
exec ve
Pack age
Hand ler
h en
w m
Ġan alyzer
Ġl in
de lta
Ġcon form
ĠS AM
35 7
Ġtrans ition
Ġmultip ly
Ġinteractive ly
Ġs lice
ad ays
76 6
=' '
Ġrules et
pc ap
names pace
Ġnameserver s
> </
L ABEL
Ġ10 2
Ġ8 08
Ġrec v
Ġtunnel ing
PRO XY
Ġdem and
c oded
r snapshot
Ġ5 24
ĠV endor
St ream
Ġclo ses
Ġfast est
Ġpreced ing
Over ride
g le
Ġpro be
ĠL ED
read link
wr t
ĠEn crypt
S uccess
il us
Ġ* ,
Ġ< --
Ġreg exp
Ġfl av
Ġwire guard
lin ing
B ad
G r
m id
ist a
ak u
CH ECK
Ġcy cles
L ibrary
u ce
Ġ ou
od et
top ic
aut ilus
ĠQ EMU
s ect
Ġ- ----------------
Ġ2 12
id ence
04 00
ster isk
Sim ilar
G V
L ong
al igned
AIN ER
Ġsa fer
Ġunders core
( -
Ġt en
ĠN aN
Ġpart ed
55 6
Ġpath names
LD ER
re verse
Ġre trans
AT TERN
Ġpar ser
IL ITY
\\ \\
field s
ĠA ck
50 7
35 9
size of
Ġ` --
Ġtransl ate
is econds
Ġd ivid
ĠF ind
Ġim pl
RE MOTE
Ġwe ak
Ġvalid ate
ĠSet s
Ġstick y
E d
G A
f h
w a
Ġc ul
ĠD ATA
ĠV T
Ġduplic ates
ĠProxy Command
ĠSV N
Ġb ucket
Ġ1 14
Ġv an
55 4
09 5
Ġfw mark
ĠHO ME
M agick
S creen
c rw
k ali
ĠDE VICE
ExecStart Pre
Ġprim arily
Ġcom fort
Ġcomm ercial
Ġmy file
ĠU I
Ġma j
ĠG ot
eg er
ĠTrans fer
Ign ore
10 10
be h
man age
Ġc sv
64 9
bug s
ĠV I
Ġ17 6
Ġgu id
Ġaw s
Ġing ress
N Y
c g
ĠI DE
ĠH ard
Ġ14 6
bb b
crypt setup
ĠHDD s
ĠEnter ing
er en
Ġ" ./
ple te
ĠU FW
50 5
get ent
26 9
ĠPro ject
}/ ${
ĠDI R
" -
F DC
G ATEWAY
Ġ1 18
ĠS quid
av id
Ġcomp an
Ġeth ertype
cmd line
leg acy
ĠGn u
ĠSOCK S
Ġthe oret
ĠS TR
Ġinter cept
Ġssh fs
ĠĠĠĠĠĠĠĠĠĠĠĠĠĠĠĠĠĠ ĠčĊ
---------------------------------------------------------------- --------
O PTION
W rit
c ar
Ġ3 06
Ġrec all
36 6
Us ually
@ '
I VE
Ġc li
Ġ1 00000
ĠL ABEL
50 8
)) "
FORE ACH
( ...)
A I
A WS
Ġin depend
Ġe uid
dis ks
Ġreal m
can not
gl uster
3 01
S ame
Ġs ocat
ch rome
Ġha proxy
ex act
ĠB TRFS
Ġle git
Ġbr aces
Ġselect s
rec v
ĠSe arch
PER M
Back ground
DEN Y
Ġsurpr ised
D AY
Ġth in
Ġd uplex
st rip
ĠC ol
Ġlaunch ing
Ġtre es
T C
[ /
z A
ĠV im
pro hibited
Ġ+ --------
Ġpost ing
Ġque ues
Ġhar dd
: !
W r
Ġr p
att iny
Ġsur v
ĠPCI e
leg al
Ġmir rors
k ind
q a
ou ched
ent ries
36 9
Un able
Mon itor
need ed
ĠPassword Authentication
D rop
v ector
Ġs in
Ġre nder
ĠS ectors
ĠW AR
IN ST
Ġroot fs
ĠIn sert
33 5
ĠX SA
val ues
26 8
Ġsequ ential
Gu ard
V R
c over
p at
w est
Ġt iny
Ġv fat
FI RST
${ #
string s
ĠMac OS
Ġvulner ability
MESS AGES
W ITH
my admin
Ġmess ed
ĠUn reachable
Ġfl aw
ĠSec ond
hard ware
TIFI C
BOO TPROTO
Ġp ac
Ġwork load
pro perties
Ġsit ting
ĠTr a
Ġsimpl ified
+ =
Ġex haust
Ġpro posed
ex istent
Ġ4 03
server fault
Ġdisc overy
Test ing
Ġconver ting
( *
m tu
v ision
Ġn r
ul ates
ĠG raph
UT E
Ġind ent
FA IK
gre en
ĠMA X
' >
Ġper f
new keys
De lete
process ing
Or g
ĠEN V
fst ype
Ġstrugg ling
Ġ outer
Ġpro prietary
ĠB ox
Ġres ort
Ġ; )
Ġreason ably
Ġrecommend ation
bre ak
z n
ro c
ig httpd
end er
ĠF USE
ug in
pro blem
ĠJ enkins
Ġgu ides
Ġra ised
Ġvulner able
Ġparenthes es
$ @
p ick
q t
Ġl ed
Ġex cluded
ĠM SI
Ġun ion
arch linux
Ġoptim ize
MY SQL
uro pe
ORIG IN
v ps
it led
Ġf ol
ri age
Ġse ed
pl orer
64 5
ĠV FS
80 5
process es
Ġelim inate
Ġcul pr
ass ign
58 3
Ġmirror ing
nss witch
" ],
al ived
em eral
Ġcons ume
ĠUn icode
âĢĿ ,
blk id
Cl oud
sy mlink
Ġppp d
Ġanal og
Ġm int
ĠS ession
Ġj essie
ask ubuntu
forward ed
Ġframe work
B est
C AR
re write
Ġm obile
up g
50 3
Ġob served
TI VE
lat form
Ġimp lied
VID IA
] |
host key
28 4
mail box
Ġwon t
IG NORE
can onical
Ġmis under
Ġdiscard ed
` `
Ġ2 44
ĠD ist
ft en
Ġem erg
Ġ` -
real m
Ġcrash ed
ĠED IT
rig inal
T Z
al tern
av z
BU ILD
Ġscan ned
Ġir relevant
Ġadvant ages
ĠN U
Ġ' <
back ground
inter net
Ġrecommend ations
Ġiniti ate
r us
ver sions
ost art
ĠM SS
cl am
ĠĠĠĠĠĠĠĠĠĠĠĠĠĠĠĠĠĠĠĠĠĠĠĠĠĠĠĠĠĠĠĠ ĠĠ
man agement
Ġselect ing
Ġfoo bar
FA ILED
MO DU
Ġnav igate
Ġgate ways
FDC WD
E ither
m icro
Ġ$ @
Ġmir rored
cer pt
Ġmere ly
h ide
w ants
Ġs se
Ġc ast
Ġp ty
Ġ2 48
ĠN TL
In itial
Ġsub mit
02 8
num bers
ĠSh ort
Ġextern ally
S ay
l x
Ġc al
== >
AN G
cre ating
35 8
Ġident ification
Ġdevelop ed
Ġvis ual
Ġupgrad es
d ifferent
ad ly
Ġsp ot
66 0
Ġmet rics
Ġchecksum s
v n
Ġc ksum
ĠL UN
86 9
37 0
EC DHE
aph ore
4 10
G C
P anel
Ġth rot
um mary
ĠM a
set ting
37 8
CH LD
Ġlaptop s
ĠLook ing
V olumes
` "
Ġw ipe
ab ytes
Ġ. *
35 2
Res ol
Ġmember ship
Im pl
|| ||
Ġalt ogether
Ġpubl ished
J AVA
l spci
ĠA uthent
ĠL Z
ĠR S
Ġun re
Ġi if
ĠIn it
04 7
TIME OUT
ĠFiles ystem
ĠMY SQL
I E
d os
m ust
n ers
lib ssh
Ġcontainer d
ens ive
call ed
ĠStr ictHostKeyChecking
FOR MAT
A X
s est
ch anges
IN X
Ġbo ld
34 2
ĠSub ject
Ġsym ptom
U ME
ul ative
Ġsub domain
Ġchannel s
rel ax
o on
Ġv agrant
Ġ$ !
Ġchar s
Ġmess ing
Port s
Ġfront end
Build ing
/ )
L e
Ġd Bm
Ġe q
Ġex cess
ĠD L
Ġ: =
99 3
Ġcons uming
Ġsleep ing
msd os
Ġtechni que
Ġne goti
ĠD atabase
ob u
56 6
Ġtyped ef
ĠFI FO
Ġlu ks
m n
Ġopt imal
ĠHost Name
Load ing
Ġspawn ed
g pt
m ir
ic ons
de mo
ĠF older
__ _
Re ferences
mar ks
TE MP
m otd
Ġto gg
ĠC N
ers ist
27 2
27 9
FO LDER
LAN G
Dis able
Ġbelong ing
ĠOP EN
ĠLay er
V T
c ups
Ġc ell
th ree
ĠE dit
Ġ8 6400
me an
Sub system
follow s
p rep
v ider
ĠT ext
## */
Ġpract ices
Ġisol ate
smart ctl
B AD
U sed
v r
ER S
++ ,
VI RON
ĠFun ction
a ft
Ġmod ifier
26 7
Ġglob ally
ams ung
ĠExt ended
8 11
g ames
Ġs ane
Ġg pt
Ġ2 13
ore wall
be ar
pos ix
Ġexport s
Ġinvok es
T emp
Ġc s
is p
ern ames
# "
Ġsp ort
Ġ10 3
ĠH ence
ia lect
Ġexp ir
######## ####
ĠSystem s
G W
Ġf ifo
un t
âĢ ľ
++ ))
Ġt il
Ġb astion
ĠI deally
ent rypoint
og roup
ĠO bviously
ud get
76 5
Ġide ally
Ġsn mp
ĠQu ery
P IC
ĠA AAA
10 48576
ĠT ake
Ġ4 65
Ġsec s
Ġfew er
tty USB
Ġlarg est
ĠIO PS
schem a
0 11
T ried
an acron
Ġg igabit
Ġ12 9
Ġhook s
Sup pose
D ist
} {
Ġ il
on us
Ġb undle
Ġ1 55
ĠVal id
v hosts
ĠR C
Ġgo ver
Ġ200 2
Ġscre w
B F
k ing
s il
s cri
al es
ad v
ĠS eg
ex amples
12 00
ĠB ind
Ġsup ers
Ġip s
38 3
ns ure
prot ocols
Ġinsert s
ĠCON T
Ġrebuild ing
Go ogle
5 36
N on
b undle
Ġf b
ant ic
Ġun related
SS EC
) ),
W ants
\ [
Ġp olkit
ĠA SA
Ġ15 7
Ġred hat
Auth orizedKeys
ĠAct iv
3 44
5 14
b ay
Ġ2 29
Ġch allenge
ip sec
ĠM MX
ĠO ur
IP ADDR
Ġref uses
loop s
Ġreach ing
firewall d
Ġsynchron ization
COPY RIGHT
-+ -+
R X
d id
Ġn ature
10 23
xx xxx
ME T
AC CESS
Ġad m
aw ning
Ġenc ode
reg ion
VAL UE
Ġder iv
^@^@^@^@ ^@^@^@^@
w k
w ake
x ec
Ġf c
ĠĠĠĠĠĠĠĠĠĠĠĠĠĠĠĠĠĠĠĠĠĠĠĠĠĠĠĠĠĠĠĠ ĠĠĠĠ
98 7
Ġwor st
$ $
' ],
/ **
T able
g if
l ost
w as
an i
us ermod
as ible
se p
sd X
34 9
Ġdet ached
37 5
reg istry
Ġappropri ately
tim ed
Ġeval uation
ĠMO UNTPOINT
ĠCLI ENT
ĠAdministr ator
R S
d ll
n od
Ġp ve
ion ary
wh eel
Virtual Box
ĠDep ends
keep alive
XXXXXXXX XXXXXXXX
Ġcam era
r limit
u ptime
is csi
Ġf ancy
ot ing
up stream
Ġtime val
sd g
ous ly
33 9
ĠSpec ifically
Ġdest ined
I p
Ġp ane
Ġh ur
eth ernet
Ġuser add
Ġres ides
39 7
Ġenc aps
pos ition
mk v
ot ed
um ble
no op
Ġexp ires
sum er
Ġpur ge
Connect ing
Ġpull ed
>> >
Ġ'. '
tri gg
D atabase
ad vant
ĠT unnel
Ġman ages
RE MOVE
system s
EC DSA
Ġwildcard s
Ġug ly
S MB
Ġpro g
---- +
ĠW rit
Ġz ombie
Exec ute
Mod ify
Ġdatac enter
S ession
Ġas ync
con struct
ĠW SL
Ġspec s
ft ime
----- +
'\ ''
Ġschem a
f onts
o ffice
Ġt ill
ĠI F
Ġre use
Ġinter action
Ġ< -
Ġgener ator
Ġob j
Un less
Ġbig gest
Th ough
Ġv endors
Ġ100 1
network s
Ġfr ag
Ġauthor ization
Cert ificate
Ġoccurren ce
# $
4 163
g d
x i
Ġb lob
AR M
part y
trans fer
Ġrecur sion
G lobal
I FI
W elcome
\ '
f analyzer
m av
et htool
Ġsub script
76 0
ĠST REAM
Ġbuffer ed
Ġca ught
j mp
Ġl oose
Ġfor cing
ĠS u
up loads
ple ase
ĠE SP
time o
bl uetooth
EX P
Ġsort ing
wire less
ĠWR ITE
Ġt emperature
ĠD uring
ap ing
Ġset facl
Ġindepend ently
/ (
om p
Ġ\ .
Ġent ropy
ARG V
ĠSimilar ly
0 644
3 24
Ġh dd
Ġ9 76
Ġext glob
Ġdam age
Ġculpr it
A rm
L X
] (
e ers
Ġt put
in her
un zip
Ġout proc
Ġ10 9
RE AL
55 8
04 6
ĠUn comment
Ġlet ting
Group s
Ġp a
ĠL TO
ĠG l
Ġcount ed
Copy right
Ġprom isc
Keep Alive
myn etwork
P IPE
P rivile
S ELinux
Ġn sl
Ġ2 49
ĠD es
cp us
01 3
Ġsw apped
path s
Ġ64 0
Ġtrunc ate
I deally
u er
z abbix
Ġc lip
le ading
Ġv nc
Ġde lta
Ġi w
Ġ9 00
Ġcount ing
NET WORK
Ġscal ar
Ġalph ab
re quired
st ill
st ash
ri m
Ġ2 10
Ġsub folders
77 3
Ġresp onds
fr ag
ĠCall s
crement al
: --
W TO
^ [[
in ished
Ġe poll
). *
92 9
86 6
test ed
54 9
Open VPN
Ġcost s
Ġhon est
S RC
U A
pre fer
Down load
âĸĴâĸĴ âĸĴâĸĴ
is ite
al g
ĠP rot
ĠN on
ĠT wo
Ġown s
28 5
ored ump
Ġfl at
det ail
Ġinterval s
ĠED T
Ġet htool
6 20
T erminal
m igr
Ġfor ums
ĠA PT
Ġ12 6
Look s
Prot o
ĠI nd
ri ends
est ing
ke eper
out ube
Ch anging
UN IX
ik es
ens es
Ġexam ine
ben ch
B I
Y MO
t asks
Ġ1 32
ĠD eny
ex im
ĠO FS
Ġind ication
Set tings
assem ble
m ime
x ffffffff
ou df
Ġch k
ĠF re
ID R
ON G
par ameters
59 7
Ġremov able
source forge
Ġcol le
Ġtar ball
ĠSub net
Backup s
Ġrc vd
Ġslot s
Ġbrid ges
paste bin
8 20
h r
i ant
Ġst ar
cp io
Ġsim ulate
SS E
SS ID
Ġid map
ĠRed hat
Ġnull glob
3 10
| '
Ġd i
Ġr hel
Ġse per
Ġcommand line
ix el
zsh rc
Ġmill ion
s ity
Ġc ategory
oc ate
Ġapp liance
Ġpr ice
29 0
ĠDe lete
Link s
ĠMS G
¼ âĶĢâĶĢâĶĢâĶĢâĶĢâĶĢâĶĢâĶĢâĶĢâĶĢâĶĢâĶĢâĶĢâĶĢâĶĢâĶĢ
â Ĩ
Ġs pt
Ġp y
Ġst ock
ĠS SID
Ġde limited
ĠF E
ĠT ypically
ssh pass
Ġpart ially
55 9
app iness
Ġsc ans
Ġoper ates
SE LECT
Ġchoo sing
dam ent
YMO US
; "
O W
Ġt xt
Ġb uff
ad j
Ġ/ .
Ġ3 07
ĠG iven
98 4
sql ite
Ġstri pped
INTER FACE
c ortex
p ermission
ĠM P
Ġ* <
ĠG b
29 7
Ġgot ten
cr ond
ĠDocument Root
nft ables
and a
ĠT C
ffic ial
RI ER
input rc
Ġthrow s
Ġmasquer ade
A E
P age
ĠB UG
app y
ession al
rypt fs
install ation
Ġremain der
Ġkeyword s
l r
ac tually
al gs
out side
qu eeze
ĠT PM
per formance
Ġover view
27 7
Ġsm ooth
ffff fff
Ġ27 1
det ect
fork ing
aaaaaaaa aaaaaaaa
C RON
S K
f atal
Ġh er
pt p
Ġip erf
27 0
ification s
Ġdat agram
Ġf ro
st h
Ġr ing
pl t
Ġlist ener
33 1
Ġclo ser
ĠEn glish
Ġprocedure s
b h
Ġs quash
Ġh ole
em acs
ig uous
ĠĠĠĠĠĠĠĠĠĠĠĠĠĠĠĠ ĠĠčĊ
ĠM aster
Ġip set
48 9
Ex planation
45 7
Ġinvol ving
ĠCl uster
Ġconstruct s
h it
Ġth umb
Ġm ariadb
Ġun link
Ġhe ld
prot ector
ĠDE V
Ġreli ability
al ert
ri j
ĠD ocs
ĠP ART
Ġwhere ver
54 32
Ġhe ur
ĠFA ILED
Sys log
c v
d nl
ĠD H
92 7
pro duction
ĠĠĠĠĠĠĠĠĠĠĠĠĠĠĠĠĠĠĠĠĠĠĠĠĠĠĠĠĠĠĠĠ ĠĠĠĠĠĠĠĠ
ĉĉĉĉ ĠĠĠ
kn od
Ġbind ings
frame work
ĠGu est
Ġsuspic ious
m angle
Ġd up
Ġdoes nt
app ro
!! !
ĠIPT ables
' /
P ACK
re comm
im p
ĠM agic
Ġ3 84
PU B
rem ov
ĠSY S
FOR M
Gener ally
d t
r atio
Ġf onts
all ocation
id get
ĠC Group
Ġ* ****
Ġmin us
AST ER
process ed
ROUT E
Ġpk cs
âĶ ¤
ĠT emp
Ġcont rib
47 0
Ġcred ential
Ġlower case
Ġmysqld ump
Ġcompan ies
DENY WRITE
: <
N map
d ie
Ġ âķ
in nam
re fs
en et
le y
ĠS k
ĠR M
ĠN ormal
Ġle ak
RE C
RE MATCH
ĠUn i
arn ish
IG N
Rec ently
Process ing
++++ ++++
S ATA
e qu
Ġw ise
Ġare as
ĠL AMP
ĠG rub
Ġ7 50
55 7
Ġrequest ing
Ġes p
Rel oad
b eta
s pl
t ick
Ġ( .
ock s
37 2
CO VER
ĠMT A
Ġimpro ved
âĸĳ âĸĳ
ubkey Authentication
N eed
Ġs g
Ġp error
ĠE m
ĠH ope
Ġim ap
min depth
Ġduplic ated
Ġrot ated
Ġcontr act
authent icated
x ff
Ġf q
om et
av is
Ġsol ves
AG IC
W analyzer
k t
re fix
at o
ac ct
ss ss
Ġmy domain
ĠT Z
Ġcomp ose
Ġ16 8
MP LE
ĠOper ating
CR YPT
Ġheav ily
Ġso le
Ġcomp ound
ru it
gorith m
Ġtransm ission
innam on
B an
an et
Ġ- -----
up al
IP s
Ġkill s
fc ntl
YY YY
autom ount
Ġyield s
l arg
Ġo om
ac ters
il st
48 4
rec overy
Ġutil ize
tag ged
Ġmonit ors
ANON YMOUS
j vm
Ġw aste
Ġus ernames
Ġun specified
Ġsol id
sys fs
boot strap
Ġem ulation
Ġactiv ation
icture s
Known Hosts
C ustom
N L
P ad
S ym
Ġf a
Ġd n
Ġcomm as
Ġ# !/
02 7
27 4
ĠCom put
termin ated
| \
Ġan alyze
Ġh ouse
ĠC ET
Ġ14 3
Ġassum ptions
Ġexpand ing
ĠLog ging
Ġhang ing
End point
ĠDIS K
FIL TER
S u
e us
im ap
ĠR el
int r
ĠB PF
Ġ) "
ĠSub system
had oop
H igh
N ames
T AB
p ull
Ġli es
for ums
ĠH A
Ġfun dament
Host name
part ial
fr aid
Ġbrow sing
ĠRun time
ĠStr ing
Ġupper case
SW AP
A uto
a o
w ind
ly s
ĠP DF
local time
OR ITY
Ġhe ap
dig est
H eader
L AST
Ã ¿
Th ose
sw an
ir a
86 7
LE TE
Ġprogram mer
Ġmanag ers
az ure
Ġ123 45
Cre ated
escap e
el t
Ġ20 49
ync d
right ness
Con tainer
Ġbrow sers
Ġdelay ed
Ġbrid ging
Ġzer os
, '
3 16
3 30
n ex
Ġa fraid
Ġ{ "
Ġcr azy
cent er
last ic
Ġpick ed
Ġspecification s
D river
a head
Ġn l
Ġre stric
li u
pro p
Ġ& >
Ġcount ry
gent oo
Allow ed
bal ance
j ack
w ant
ow ait
ĠP HY
sp am
Ġ] ,
Ġavoid ed
Ġclass ic
MAC HINE
Ġiter ations
Ġdiv ision
Ġcomfort able
F inal
st aging
Ġtr uly
mp rotect
ĠJ essie
Ġdiv ide
3 09
Con t
Ġpower ed
object Class
Ġconver ts
OPT ARG
Ġus ermod
sd k
Ġswitch port
Ġbr ings
Ġ19 3
78 4
ĠĠĠĠĠĠĠĠĠĠĠĠĠĠĠĠĠĠĠĠĠĠĠĠĠĠĠĠĠĠĠĠĠĠĠĠĠĠĠĠĠĠĠĠĠĠĠĠĠĠĠĠĠĠĠĠĠĠĠĠĠĠĠĠĠĠĠĠĠĠĠĠĠĠĠĠĠĠĠĠĠĠĠĠĠĠĠĠĠĠĠĠĠĠĠĠĠĠĠĠĠĠĠĠĠĠĠĠĠĠĠĠĠĠĠĠĠĠĠĠĠĠĠĠĠĠĠĠ ĠĠĠĠĠĠĠĠĠĠĠĠĠĠĠĠĠĠĠĠĠĠĠĠĠĠĠĠĠĠĠĠĠĠĠĠĠĠĠĠĠĠĠĠĠĠĠĠĠĠĠĠĠĠĠĠĠĠĠĠĠĠĠĠĠĠĠĠĠĠĠĠĠĠĠĠĠĠĠĠĠĠĠĠĠĠĠĠĠĠĠĠĠĠĠĠĠĠĠĠĠĠĠĠĠĠĠĠĠĠĠĠĠĠĠĠĠĠĠĠĠĠĠĠĠĠĠĠ
Ġnotification s
Tcp Forwarding
N othing
S ite
U SH
re fresh
Ġ" (
ĠC S
ĠN G
Ġconfig urable
=" %
sp aces
test s
Ġkeep alive
install er
perm it
Ġnumer ous
CF G
h omedir
Ġ ub
as c
Ġ2 47
ST AT
Ġoper and
AP roxy
Ġbas ename
super user
CRE ATE
Ġinfl u
T erm
r ss
Ġw alk
ar win
ĠTh ink
Ġ[ /
ST OR
Ġht b
Ġz pool
07 00
vol atile
Ġmill iseconds
Att empt
Ġt s
Ġin f
ĠM bits
Ġ$ '\
con version
Ġvari ations
27 8
08 8
76 9
pc m
pk i
EM ON
request s
Ġtransl ated
Ġbackslash es
Ġult imately
Arm or
D eny
F l
P ART
S Z
i ot
ĠS HEL
Ġun do
34 3
br ctl
Ġmultip ath
Ġ07 55
Ġintro duce
et ic
ust ers
port ed
ge ar
mount ing
ĠAl t
ĠTr ace
Ġsubstit utions
Ġevalu ates
QUE UE
4 06
W format
e grep
m dev
ĠR D
Ġ8 32
fore ach
36 00
De v
ĠNOT E
ĠMO V
Ġexceed s
Ġcontinuous ly
Ġhistor ical
. '
2 177
b m
i ation
s q
t ftp
al pine
ri gin
Ġv host
Ġ20 3
Ġsub str
Sh ared
ĠRes ol
Ġreve al
b id
Ġre ver
ĠR ST
92 00
QU IT
alloc ate
Ġflush ed
Ġpoll ing
Regard ing
B it
g am
Ġm ut
ion ed
Ġin proc
im plement
ĠS ync
ĠB ridge
ph an
Ġterm ination
ĉĉĉĉ ĉĉĠĠĠĠĠ
Connect ed
Tr ace
Load ed
cnt l
FIX ED
S AS
ĠI MAP
77 72
Do ing
ĠInt egr
mon it
att ributes
ĠGit Hub
Ġdiscus sed
Ġrepeated ly
GEN ER
odet ect
h omes
Ð °
Ġ0000 00
Ġamount s
:]] *
Ġpubl ish
Ġkube let
C lick
f ipa
qu estion
92 2
Ġass ert
Ġconcern s
$ ?
: ${
m al
n etcat
st ant
Ġpro fil
Add ed
Sh ift
gorith ms
compil ed
Ġcontr ast
Ġs ke
Ġsu it
ĠN V
Ġresult ed
################################ ################################
respons ive
CAR RIER
ĠE rr
nd ael
Ġman ufacturer
Ġdes irable
46 9
play er
SEC ON
ĠN VIDIA
sp ent
apt ure
ogn ized
Ġder ived
astic search
- ]
] =$
Ã ¢
ĠG RE
Ġgu i
Ġdocker d
Ġmaj ority
U NS
Ġd ere
Ġ2 11
Ġun zip
ĠH as
Ġar rive
ong o
conf irm
28 9
Ġvalid ation
Ġhandl ers
Ġoffer ed
ĠSTD OUT
Ġenclo sure
c orp
er ial
om ing
Not es
ĠProcess or
Ġconsum ption
Ġclon ing
lys ator
H CI
Ch ild
UR I
rem oved
Ġinv ent
AG ER
Ġhash es
------- +
Ġsmart ctl
A uthent
m tab
s ector
u fs
Ġ XXXX
Ġch ron
Ġset af
pl ane
Ġim m
39 4
Ġdevelop ing
Ġassem bly
Ġconsum er
mynetwork s
rij ndael
0 22
W atch
u int
ss entially
ĠW ell
Ġcomp liant
vir br
start ing
ĠPC R
Ġdam aged
5 24
C B
l ish
Ġv a
Ġreg istr
prot ect
c or
j boss
Ġn om
Ġ2 32
ĠL ength
ĠM ap
ĠF C
edit or
NET LINK
tic ks
SU M
ĠInstall ing
Ġiniti ated
ĠMA J
0 20
5 86
_ ${
v p
ot os
rem i
pass phrase
ĠVG A
Ġconsist ency
G S
f ly
Ġex erc
ĠL IB
ĠF ore
ĠU nder
Ġred ist
Ġmaintain ing
mong odb
. *.
H alf
s ound
in nodb
es pecially
Ġl and
ce an
Ġv o
ain After
ĠD SA
Ġ3 02
ĠB uffer
Ġ* -
Ġ14 0
Ġtrans p
88 88
Re f
cpu info
Ġunexpected ly
Ser vices
Ġm mc
ff c
Ġno op
ph ere
Ġgu ard
78 7
Person al
k h
un ct
ĠS CP
Ġ2 34
ag raph
Ġ< &
wn er
Ġref use
N B
d ial
f name
Ġc n
Ġw eren
Ġb udget
Ġst all
Ġtarget ed
b rev
r aspberrypi
Ġf riends
Ġto ler
ĠS chedul
Ġif ace
Ġthan k
ne gotiation
26 6
ĠSt ill
39 8
Ġvirtual box
down loads
Ġpull ing
ĠON LY
Ab out
2 80
b ird
al go
fs ched
In stance
proc mask
++ +
Ġintegr ation
cli p
Ġram disk
A UTO
L abel
k u
in fin
Ġst aging
Ġk ubernetes
Ġ7 75
be gin
how to
att ended
Ġess ential
Ġabort ed
Ġrelation ship
a ware
Ġ" `
se ye
ull seye
Ġfe asible
03 1
ĠAd vert
Ġcover s
Ġgrow ing
Ġinterpret ation
123456 789
ainAfter Exit
W ord
s oc
al ks
err y
eck o
Ġaddress ed
Ġ9 99
ĠX F
yy yy
Ġsynchron ize
Ġopp ort
ĠGSS API
Ġpropos al
c iphers
m apped
ĠM IPS
Ġ20 25
Ġ14 2
07 77
88 7
Pro bably
Ġlow est
Ġsurpr ising
Ver ify
h ack
Ġre configure
de limited
Ġv aries
54 7
Ġfree ze
pect ed
ĠGener ic
ĠSIG HUP
types et
N I
Ġt ip
Ġre lying
ent ium
ex tern
ance l
str ument
St ill
47 9
T unnel
en ed
ag le
ĠIP V
wh ite
Ġpl acing
Ġnumber ed
my host
ĠX org
ns lookup
CG I
2 86
4 37
8 01
le ment
Ġst ress
th reshold
Ġcan cel
ĠE V
RE F
Ġclo sest
Ġavoid ing
Ġfact ors
Ġbuffer ing
Ġcar riage
ĠStop ping
B IT
Ġst ub
ĠC RE
Ġ' ./
IN A
ĠCon sole
Ġ200 7
Ġprinc ipal
u v
Ġt ls
Ġnew s
Ġ18 5
ĠTo ols
lat ency
Ġaffect ing
ĠUp on
Ġconven ience
mis match
Ġtil de
+ $
h z
Â ´
ment ioned
new s
check sum
ĠRed irect
vis ord
Ġclon ed
COLOR S
W H
Ġf its
ĠB Y
") )
check s
ĠTime out
uni que
Ġprep ared
ĠPER C
ĠSTR ING
W ID
g estion
n om
Ġw ast
Ġf ed
Ġd l
st p
et ype
ĠM b
ex am
ĠT arget
IN TO
pro ftpd
Ġint act
Ġ"${ !
mon o
ĠAcc ount
3 15
s in
it ter
Ġh alt
Ġ2 66
ĠL td
end if
56 5
ĠX DG
49 7
ĠAss ume
Pack et
mg mt
Ġconstrain ts
+ =("
m r
Ġc k
ag ate
ex per
ĠB asic
ĠH aving
man y
AS C
' ).
= \"
R oute
m soft
Ġ ig
Ġl ag
Ġch at
ĠIn stance
In side
work space
Ġsock s
Ġnumer ical
dfs g
Z FS
c aches
Ġand roid
ĠS ite
up sd
ĠF OO
Ġ4 19
Ġ* :*
Ġ"$( (
ĠRes ource
Ġexperiment al
contin ue
C U
T F
n othing
Ġc um
Ġan on
and r
ĠG Hz
RE Q
04 2
ava hi
L K
R R
e verything
Ġ QUERY
Ġs an
ab ort
ur m
Ġsu id
87 9
Ġprefix es
ĠCheck sum
ĠLoad ing
does n
Err ors
Ġfreez es
c it
o i
ĠS TP
38 5
Ġob sc
ĠCon t
96 5
Ġ19 20
ĠAllow Override
Ġsens ible
Ġunw anted
ĠDuplic ate
Ġemerg ency
T ab
V NC
\ }
Ġs kill
Ġb ounce
pre v
Ġtim ers
Ġ"/ "
Ġredirect ions
}' `
ĠBy tes
Ġsem aphore
snapshot s
ĠMult iple
ĠPerm it
ĠWord Press
P D
k i
} ],
Ġ( ?
ab cd
ĠD ir
Ġun clear
ĠW iki
log out
Ġ6 04
ser ting
ribut ed
ĠEx plorer
)) )
install ing
cert ificates
Ġdeploy ing
ĠAtt ached
- \
B ro
I V
] ...
in ated
Ġex pr
ĠA AA
ĠC ard
ers istent
Ġapp armor
lic ense
Ġpartition ed
Ġ19 70
fe ed
pk ill
ĠDo ing
Res ource
App arently
Ġmigr ating
Err no
= *
l k
{ {
is er
fa ke
", $
44 9
27 5
100 2
46 8
Ġext ents
sub ject
Ġcrypt o
DIS K
Ġprinc iple
ĠSHEL L
f ips
Ġan n
Ġn m
Ġn mcli
Ġfiles erver
ook up
** *.
Ġevery time
06 8
Ġcol our
Ġoffs ite
loc ate
prov ision
ĠMult i
Ġimpl ications
ĠVI RT
Ġclip board
% .*
Ġs ssd
Ġp ow
Ġp df
st age
Ġwhich ever
Ġ20 4
fo ld
ph emeral
sec ut
Ġlight weight
Det ails
li able
read ing
() (
server name
Ġtri ple
44 6
Ġterm ios
Ġaut ocom
he alth
pers on
Ġmanip ulation
* [
Ġs illy
Ġs chool
ĠD ri
ĠL ock
Ġ6 80
Ġmode ls
Ex change
45 00
ĠPro xmox
CON N
Ġdump ing
Ġcalc ulated
Ġretrie ved
l h
v box
ct ime
ON T
AL SE
Ġhead less
"; ;
thread ed
Ġorigin ating
ĠLay out
Ġincons istent
' %
- <
b etween
m pt
t oo
Ġa th
Ġin ten
Ġout dated
Ġget opts
AT TR
Ġab brev
app armor
It s
26 1
Ġjo hn
tra ffic
0 16
U AL
Ġr er
ĠS creen
Ġv net
Ġ: (
** )
add y
39 3
RI PT
Ġclass id
Ġauthor itative
L atin
p rom
s ch
it tle
Ġun compressed
Ġperm issive
Ġrec ipient
Ġwrite able
mail man
Ġ"{ {
EV ENT
D uring
k ern
un its
ĠC UPS
ĠD S
ER O
ĠIn Release
Ġtra verse
Ġcons isting
exp ression
Ġconver sions
Em pty
refix route
T K
in coming
ac ility
Ġlocal es
44 7
000000 01
Ġfour th
listen ing
Ġflex ibility
ĠSyn ology
3 128
S FTP
V m
u it
CE S
pr ing
Ġ9 31
ĠCon tent
std c
sy ntax
Ser ial
T oday
en e
th eless
qu es
In clude
33 33
ph y
test user
reg s
view er
Ġcalc ulation
Ġscal ing
Ġdeclar ations
! '
y outube
ack ware
ĠTh ough
ĠC OL
32 768
Ġ00 01
Ġem itted
gn upg
Ġactive ly
rec ur
Ġstream ing
Ġassign s
Key board
ĠKey board
Ġidentify ing
bro ken
Ġmonit ored
Ġ134 2177
ĠTH IS
L ATE
in secure
en sions
Ġm usic
ĠF urthermore
ĠK ERNEL
59 8
Ġclear ing
IF Y
lean up
Ġguid ance
i or
q m
Ġp adding
read only
ĠCon f
cont ents
Ġinstruct s
Ġsem icol
Ġ1342177 28
v ec
Ġs addr
Ġo pc
Ġl azy
Ġ2 15
Ġ2 88
host apd
Ġmod ifies
It em
Ġ14 9
Ġke yst
NO TI
new line
Ġappear ing
PRO CESS
Ġcontext s
Ġupload s
Ġpush ed
watch dog
Ġreinstall ing
ĠBro adcom
ĠDIS ABLED
i ov
r ap
Ġb m
an os
ĠW PA
ST ATE
Ġim ply
55 55
Ġnow adays
Ġweb page
}" )
depend ing
Ġequal s
= ...
C ached
ion al
Ġn pm
Ġe fficiently
ĠN VM
Ġ5 87
ĠH ello
Ġprefer ably
Ġjournal d
contro ll
ĠCre ating
ĠFail ure
d ates
k bd
m ight
z pool
ĠS ense
Ġdo ll
pl oad
ĠG ecko
Ġno ise
54 6
Un safe
MO UNT
Ġplay book
Hand le
Ġaff inity
EMPT Y
âĢĤ âĢĤ
T ag
f ire
m stack
n spawn
Ġt t
Ġp ager
Ġr snapshot
ĠD SL
48 5
DE X
39 5
part itions
fl ash
Ġfriend ly
Ġapprox imately
4 07
M AGIC
ĠT RACE
enc oding
Ġsw arm
Ġ} }"
Ġid s
Ġ17 8
03 9
vm ware
ĠPower Shell
Count Max
Ġoverrid ing
altern atives
D ig
M G
Ġ2 35
Ġ6 66
Ġfore ign
Ġque ued
Ġconsum ed
schem e
Ġkick start
l ans
sh w
ĠB U
Ġkey tab
Ġcomp liance
/. /
Ġem ulate
Ġmultiple x
num eric
Ġcustom ize
Ġmac vlan
ĠGo od
Sub ject
Ġcomplain s
G N
M SI
X ML
j j
Ġl p
Ġ" ."
Ġr ates
Ġmy script
Ġset gid
ĠT UN
Ġres ide
02 1
Ġ17 9
36 3
AP IC
46 7
Ġbound aries
ĠSim ple
Ġinstant ly
Ġpf Sense
7 000
I ABLE
Ġ ####
Ġv box
ht docs
Ġ3 20
os er
77 4
dec l
Ġpatch ed
Ġfall s
Ġnsl ookup
! ).
ro b
pro f
pro j
Ġman ifest
AR C
ext ended
sys call
ĠCh unk
Ġwide ly
rout es
ĠForce Command
reclaim able
F oo
M Q
c urrently
| /
Ġdirect ions
Ġprot ot
Ġ? ?
ĠIgn ore
ĠSC RIPT
Rep ly
Ġnop refixroute
oudf lare
L AG
f us
h anced
or row
Ġ( =
Ġpre m
NS E
Ġph ones
soft irq
REP ORT
ĠCould n
Make file
Ġdesign ated
cur ve
ocat able
Docker file
XY Z
00 22
64 2
per haps
arg c
In active
Ġ\ "$
my hostname
AL INA
ĠPro bably
Ġdig ging
Default s
Ġexplo it
I W
get facl
Rem ember
Rem ainAfterExit
ĠCall ed
Request s
: #
h old
Ġ( <
Ġ2 57
se en
ĠM ariaDB
ĠN E
Ġover kill
99 0
Ġwrite back
pri o
defin itely
4 50
c u
e fficient
Ġf p
ver b
de fs
id ers
Ġch ances
ĠD ynamic
Ġthem e
NT FS
Rem oving
sim ilar
Ġvers us
' `
7 10
7 20
S can
k erberos
Ġc oding
Ġp ushing
ov pn
Ġpassword less
Ġob serve
Ġauth ority
ens itive
Ġfeel ing
uni q
m ouse
Ġp ag
ut ent
Ġ( %
ĠS CH
id x
ĠF ort
Ġsub volume
spec ially
Log s
Alive CountMax
nameserver s
Vol Group
: )
Ġ Å
Ġc ups
Ġdis aster
46 6
reg ard
Ġhour ly
Ġut f
-------------------------------- ------------------------
LIB C
m un
Ġt ftp
Ġex cluding
ex ist
Ġup link
Ġdirect ed
96 6
Ġrespon s
ĠLO OPBACK
ĠRes erved
Ġoccur ring
big uous
ĠPo ssible
Ġfavor ite
I FACE
S phere
V H
e ath
z ones
Ġb f
ĠI I
ec s
âĶĢâĶĢ âĶĢ
ĠS ent
ĠA NY
ĠV ista
ĠĠĠĠĠĠĠĠĠĠĠĠĠĠĠĠĠĠĠĠĠĠĠĠĠĠĠĠĠĠĠĠ ĠĠĠĠĠ
Ġag gress
56 9
but ton
Ġdeterm ining
âĶĢâĶĢâĶĢâĶĢâĶĢâĶĢâĶĢâĶĢâĶĢâĶĢâĶĢâĶĢâĶĢâĶĢâĶĢâĶĢâĶĢâĶĢâĶĢâĶĢâĶĢâĶĢâĶĢâĶĢâĶĢâĶĢâĶĢâĶĢâĶĢâĶĢâĶĢâĶĢâĶĢâĶĢâĶĢâĶĢâĶĢâĶĢâĶĢâĶĢâĶĢâĶĢâĶĢâĶĢâĶĢâĶĢâĶĢâĶĢâĶĢâĶĢâĶĢâĶĢâĶĢâĶĢâĶĢâĶĢâĶĢâĶĢâĶĢâĶĢâĶĢâĶĢâĶĢâĶĢ âĶĢâĶĢâĶĢâĶĢâĶĢâĶĢâĶĢâĶĢâĶĢâĶĢâĶĢâĶ
upd ated
dk ms
B r
D RIVER
T ask
c ookie
t ons
y ahoo
Ġcon secut
Ġpro ve
Ġadd user
ĠW ifi
64 3
arch ives
Ġfr ustr
vent ions
TH ON
Se ems
success ful
ĠMa jor
Ġâķ ĳ
p ay
v o
Ġ2 23
ur ally
ĠW LAN
ĠB o
Ġtra versal
Ġrestrict ive
Ġcy gwin
Ġed ition
Ġconsist ently
chk config
Ġexclus ive
Ġc sum
Ġg awk
Ġ2 19
Ġ2 38
Ġac know
LE V
ĠConnect ed
Ġpk g
ĠRec v
Ġround ing
child ren
dispatch er
k bytes
w alk
Ġs de
Ġs size
con sider
Ġac celer
SO L
Ġhe ight
ĠPID s
Ġfeel s
Red irect
Ġ"$@ ";
r ather
Ġs andbox
re h
Ġfor bidden
ĠS ID
Ġnot ebook
th op
og s
ĠF ix
92 3
Ġres um
... '
AC P
res ent
Ġsync ed
nc y
DA EMON
Ġfragment ation
ĠWr ote
+ ="
4 20
B Y
D NAT
O RE
Ġt ech
ĠM AIL
0000 01
Ġprogram m
58 2
rt t
cr ash
TH READ
ĠSp are
F ix
\ ":
p olkit
v an
09 9
br k
Ġacc um
Ġslow ly
Log Level
Ġpreced ed
Regard s
âĢĵ âĢĵ
g an
un icorn
Ġg p
Ġspec ially
86 5
sp arse
Ġseem ingly
Ġhad oop
57 8
ale x
remote host
ĠRem oving
Load Module
fq dn
RES ULT
/ ~
f riend
l im
if e
Ġsh ipped
ĠH AProxy
Ġhost keys
sp ect
Ġaut odetect
Ġcorrect ed
06 7
58 9
Ġident ifies
SP ACE
Ġsur round
Ġconflic ting
effect ive
artic le
INTO POINT
E VP
T asks
Ġd a
st retch
Ġe ase
Th ings
Ġrun c
int eger
ĠT eam
cre te
be e
ĠSt ore
Ġbuilt ins
PRO C
:]] +
times yncd
h dr
Ġthat s
Ġ2 18
Ġv ideos
=$ !
Ġpar agraph
34 1
Ġ14 7
ĠDe velop
dhcp cd
Ġsuspend ed
Ġalert s
Ġsurv ive
$ _
U GE
[ <
d ating
Ġn a
ex pl
Ġsp oof
ĠOpen VZ
Ġnfs d
Run time
Ġaccompl ished
lu ks
CONT AINER
3 25
b ec
i ostat
o sh
s it
ĠB ACK
ĠV ol
Ġx hci
Ġrec ip
Ġz lib
MP ORT
âĢĻ ,
Ġpers ists
Ġescap es
ĠREAD ME
Ġspan ning
Ġredist ribute
T mp
b acula
o S
at omic
Ġg dm
Ġkn ew
LE ASE
app ers
sec s
54 5
Ġro les
Ġmass ive
m iddle
Ġf n
est abl
ĠR SS
iz ard
ĠT asks
Ġpack aged
Ġpass ive
Ġmin imize
Install ing
Ġtreat s
R ate
c alc
em bed
Ġ0 777
Ġ" +
ĠS ave
Ġserver fault
Ġ* (
09 4
back light
26 2
=( $(
sort ed
Ġmeasure d
R PM
c ms
e i
Ġw ip
et ing
Ġin accessible
Ġh al
Ġre ducing
ex plicit
ST AMP
Ġ12 80
Ġ16 2
most ly
nfs d
ĠNet BIOS
dhcp d
Ġdem o
Ġsour cing
123456 78
CUR RENT
trunc ate
ut ter
Ġ2 17
ĠA nal
ap ro
Ġqu ant
000 9
Ġsec comp
set uid
Ġdec ides
Ġ200 5
DO WN
Install ed
ĠDis abled
ĠDO MAIN
typ ically
ele ment
Tim estamp
Ġdict ionary
schedul er
Ġprox ies
T AG
w size
Ġd rwxr
Ġb aud
Ġ{ {
=$( ($
Ġrestore s
Ġscan ner
Ġreset ting
Ġupload ing
vari ables
xm ega
Ġarri ves
a ux
x auth
ar ation
ad ir
um bo
Ġsp awning
rou bl
11 94
Ġautom ation
fl ows
Ġclean ly
NET MASK
Ġsum mar
cy g
Val id
front end
* ",
H e
R everse
} ]
ou ve
us s
Ġh ung
ĠC orp
ĠG bps
Ġpo ols
ass is
48 7
pend ing
ls b
CO RE
mac s
ef c
xxxx xx
Ġmonth ly
ĠPack et
Ġfill ing
ĠSE Q
ĠIdent ifier
Ġassist ance
4 12
R aid
Ġm yst
00 10
Ġst an
nt pd
ind ly
Ġ' "
... ).
app ly
ĠSO A
ĠInstall ed
Ġslash es
Ġdecre ase
Ġmong odb
ĠReal tek
h ouse
Ġh arm
Ġsh ot
yp ass
Ġindex es
Ġexport ing
Ġclean er
Man agement
ĠWOR K
# '
s uid
Ġt on
Ġd addr
Ġch rome
int egr
ĠT or
ĠB r
bo sity
mod es
Ġfunction ing
Ġcat alog
FO UND
ĠSIG N
Ġindic ator
BO D
Ġalter ed
ĠSYST EMD
L ay
f ec
Ġis p
ĠR aspbian
Ġ3 04
rep air
ĠĠĠĠĠĠĠĠĠĠĠĠĠĠĠĠĠĠĠĠĠĠĠĠĠĠĠĠĠĠĠĠĠĠĠĠĠĠĠĠĠĠĠĠĠĠĠĠĠĠĠĠĠĠĠĠĠĠĠĠĠĠĠĠ ĠĠĠĠĠĠĠĠĠĠĠĠĠĠĠĠĠĠĠĠĠĠĠĠĠĠĠĠĠĠĠĠĠĠĠĠĠĠĠĠĠĠĠĠĠĠĠĠ
Use PAM
Ġdest ro
HIST FILE
Ġtransp arently
Ġe phemeral
ĠC NAME
ĠE L
Ġtyp o
ient ed
ĠApp Armor
sv g
Ġgl uster
Ab stract
ASC II
$ '\
= ~
t oday
Ġc isco
an alyze
Ġan c
ss id
Ġne x
ĠM ove
Ġtr icks
pro vided
-------- --
55 2
Ġtri m
IC AL
Ġlaunch es
ĠSpecify ing
Ġmal ware
3 14
A U
H S
J ava
T ION
g dm
oc ated
Ġli ves
Ġun responsive
ĠAC UTE
33 89
Re ference
virt io
ĠHOST NAME
Ġdestroy ed
CONNECT ION
VIRON MENT
O b
j an
ut ting
Ġ2 30
ĠM ethod
ĠU l
Ġuser land
ĠV R
ond ay
PT P
RE EN
AL LOC
88 1
co very
ĠSys V
Ġlegit imate
omet ry
r vm
s ke
Ġ ve
Ġf at
Ġde eper
av ail
ĠIn dex
Ġloop ing
fl oppy
>& -
sock s
Person ally
Working Directory
Ġexerc ise
G ot
X authority
k im
v b
| "
Ġt ions
ĠB uilt
open at
Ġdown side
Ch eers
88 4
sc ore
Ġdescript ions
Ġoperation al
Ġflo od
Ġrepresent ing
hash limit
[ \\
Ġ Ä
Ġf g
Ġd umb
id ecode
ud a
Ġcomp reh
09 1
07 0
gener al
Ġoffs ets
Ad vanced
Ġban ned
Ġdraw back
ouve au
< ?
@ :
H DD
L icense
s le
in dependent
Ġa sterisk
Ġd ied
dd d
Ġsub folder
Ġ12 00
When ever
Ġ== >
some file
socket s
RSA Authentication
Dep end
Gener al
Ġgoog led
# *
st ree
Ġin lining
nt il
Ġ' :
Ġ< ->
act ivity
ber t
Ġsol ving
56 3
ear ly
ĠOS es
Ġcommun icating
CMD LINE
Ġ144 0
Ġcomprom ise
~ #
Ġd ialect
et up
Ġe lect
Ġe gress
ip erf
ell ing
Ġ4 80
AT URE
80 86
Ġperm its
LE X
link ed
addr info
how ever
bus ybox
Ġclick ing
Ġjump s
(? :
LEV EL
s ar
Ġt ied
an ular
ĠS S
op end
Ġun managed
ĠT AB
pre dict
lob ber
ĠStart up
Ġdump ed
ĠAP Is
feature s
ĠHand le
roubl eshoot
' }
w x
Ġth or
Ġr isks
ĠR oute
0000 1
Ġfo ot
eb sd
000 5
Ġ15 8
Ex ternal
Ġold est
Ġcollect ed
Ġan acron
am zn
Ġwork flow
ĠW ay
ĠH ID
27 1
05 9
98 9
Ġhe artbeat
Ġkill er
Ġdetect ing
"$ @"
aff inity
Ġsynchron ized
ĠFA Q
ĠTechn ology
Av ailable
Ġt ex
Ġt ends
Ġre duces
Ġ/ ]#
Ġch ipset
ĠE lastic
28 00
77 2
dr bd
Ġglob s
Ġintr anet
Fr ame
Ġnft ables
- [
D escriptor
L P
M ASQUERADE
ĠN ever
92 1
Ġ16 6
Disk label
dec ode
\. [
argument s
ĠBUG S
k afka
p x
it ems
Ġm x
Ġre claim
Ġe b
Ġr user
Ġst amp
Ġ3 14
Ġup start
Ġinter fer
76 2
ma jor
Ġmist akes
hook s
Ġoverl ap
Ġ2097 152
d nf
f our
l st
Ġb i
st ri
aus es
AP ACHE
Ġident ifiers
47 4
- .
J S
Ġc fg
Ġ[ :
ĠUS E
co ll
Ġdesktop s
Ġsn iff
object s
Ġsignature s
Ġcandid ate
R sync
ut mp
Ġif cfg
Ġconnect or
ĠG PG
my company
Ġthrough out
27 3
Ġ18 4
Ġ18 7
ĠMake file
Cond ition
//// ////
V ar
er ge
Ġw ins
ro bin
Ġe ight
de li
Ġst ation
ĠR outing
Ġk ali
ĠN ames
sd h
Ġbec oming
Ġinterf ere
vir sh
Ġadmin ister
Ġimportant ly
Ġauthent icating
Ġhack ed
Ġaff ord
Cred entials
MODU LE
q mgr
Ġf open
Ġb og
Ġg db
-- )
oc opy
ĠR o
ĠT ask
ĠB ased
/* ;
Ġfig uring
Ġbug gy
âĶĢâĶĢâĶĢâĶĢâĶĢâĶĢâĶĢâĶĢâĶĢâĶĢâĶĢâĶĢ âĶĢâĶ
Ġalternative ly
look ing
ĠAtt ributes
Accept Env
E A
Ġf stat
as sth
am a
Ġcomput ing
Ġcert s
47 2
\\ \
ĠWire Guard
icen sed
8 169
e uid
m sec
r ash
u able
an age
Ġ* "
Ġx org
77 9
NO ARP
udev adm
ĠPri mary
Fail ure
Personal ities
- ,
4 30
B X
E F
c as
Ġa ka
re stricted
ad es
ĠR ate
UT C
ĠJ ournal
Re port
link ing
block ing
Ġfl ows
ĠSystem d
Ġauto ssh
ĠApp lications
clus ive
NM ARK
oct et
ĠDN SSEC
E mail
c odes
h older
s ucceed
om b
Ġ( @
ĠR uby
Ġ19 535
ĠRem ember
Ġpresum e
Ġoccurren ces
] ?
f PIC
m itted
s aved
ĠA ction
Ġout age
Ġac pi
ĠB MI
ys ql
ound s
AN CE
ĠIN IT
Ġ... ]
Ġrepl icated
tain ers
UB E
ĠSh ared
des c
Per l
Ġworkaround s
VERSION S
Ġthrow ing
rele ases
ĠSerial Number
ĠDefin ed
W indow
Ġf aced
al y
Ġex im
Ġtr acing
Ġ... "
46 0
57 0
fd iagnostics
ef ail
Ġest imate
Tr ust
Listen Address
Ġdesc end
Ġgethost byname
ani el
1 00000
< &
H ttp
S pace
U til
j re
is ible
and roid
Ġoutput ting
Ġvari ation
min or
str ong
36 1
Ġimport ed
ĠISP s
âĶĶ âĶĢâĶĢ
Rel ated
symb ols
fact or
Ġce il
4 01
B PF
F urthermore
b iz
p b
ĠP ing
Ġ5 86
Ġdis advant
77 8
Ar gument
Im port
Ġwatch ing
ĠCre ated
Ġlack s
crit ical
Ġthrot tl
M et
a j
an onymous
st ick
et z
ac ls
ĠS afe
ĠS elf
Ġde part
ĠC RO
Ġun encrypted
Ġperm s
09 8
my dir
Ġ17 0
PE ER
UU UU
g awk
k mod
m ine
ac me
Ġ( ~
ol c
ĠL BA
ĠV ideo
Ġwho ami
pid s
Ġbad ly
kill all
char s
ĠCO M
\ {
Ġ ........
Ġun supported
Ġ16 7
Ġisol ation
lz o
' )"
- "
Ġt itled
er outing
Ġp aper
ĠS LES
ĠG r
Ġ07 00
ĠVal ues
Ġvulner abilities
ĠDR BD
Sp eed
Ġunus able
Ġprob ability
M bit
P ubkeyAuthentication
p q
Ð µ
Ġa aa
Ġre act
Ġre format
Ġst ability
ol oad
ment ation
ĠIn ode
ie ve
08 9
++ .
En crypt
ĠSpec ification
EE K
zz z
Ġunmount ing
month ly
ĠANS WER
Ġsquash fs
R H
h g
x ls
out going
Ġv t
ĠD en
Ġterm info
Ġreg ions
share s
ĠRe pl
ĠY OUR
Ġimprove ment
Ġsubsequ ently
Pack ages
ffici ency
Ġsatisf ied
Ġax is
WAR F
* ;
S ending
Ġb and
ĠL ibre
ex press
rou ters
Ġres ync
Ġdev pts
ĠRe quired
Ġcustom ized
struct ions
ĠCO DE
Ġbrowse able
Ġf cntl
Ġb zip
Ġ" ;
Ġcon clusion
Ġ4 45
ĠG lobal
:: :
Ġsc rub
59 0
200 6
Ġassoci ate
ident ification
Ġcapt uring
SUB SYSTEM
3 56
D one
F X
M ARK
h u
00 20
ab ove
ĠĠĠĠĠĠĠĠĠĠĠĠĠĠĠĠ čĊ
are a
OR M
58 5
lay out
Ġsimpl icity
Ġconfirm ation
sil ent
F il
d jango
r size
Ġs alt
es a
Ġe f
ĠA E
app lications
Ġcl usters
dm i
RUN TIME
Ġextract ing
perm s
Ġfork ed
DIS COVER
ocon f
Ġprofil ing
B ridge
F ield
j essie
Ġcl ues
cc c
rem otes
ĠDHCP v
ĠLog s
CL U
Ġcrypt ographic
Man age
Ġb ill
iz ont
ĠT emperature
ĠB al
fa q
ever al
Ġprint able
ls usb
Con sumer
eng er
call back
Ġ<< >>
Ġsecure ly
multip ath
l on
Ġp grep
Ġin serting
Ġwh ilst
ĠP WD
Ġtr aps
ath an
Ġspecif ier
db c
Ġ100 2
Ġclose ly
1111 1111
Ġinvestig ation
ĠNG INX
B IN
d if
Ġcon ventions
Ġne gotiation
Ġreg ener
Ġmult il
Ġcheap er
Rewrite Rule
WID TH
Ġconsecut ive
G LOB
H it
J ohn
K TOP
an aconda
no auto
Ġhapp ily
Ġunderstand s
Ġ'/ '
. (
5 01
O ld
s ending
Ġin definitely
Ġ2 43
Ġint ent
pid file
Ġbas ics
Ġbind s
Or acle
anc ing
Rec e
enter prise
Ġendpoint s
CRE AT
FAT AL
- $(
G PT
J PG
M e
Ġc time
Ġd sn
Ġh p
Ġ" '
Ġ2 14
Ġget facl
Ġkey pair
38 2
Ġexist ed
07 6
mb d
AB I
67 2
Ġ'{ }'
tra efik
Ġcalc ulations
Free BSD
Ġmist aken
Am azon
Ġep och
Ġf lock
un def
ĠT urn
Ġget opt
Ġsup plement
Ġret ries
ĠWh eezy
Ġmention ing
Ġbro ke
Sub net
Ġrot ating
Restart Sec
ĠComp ile
Ok ay
ĠComm on
sym metric
Ġpropag ation
GSS API
' @'
B IND
v host
Ġg ames
Ġ2 36
ĠC IDR
Ġ3 89
Ġ5 02
ĠV is
Ġport al
Ġcp io
ĠAr gument
Ġexplain ing
ĠĠĠĠĠĠĠĠĠĠĠĠĠĠĠĠĠĠĠĠĠĠ ĠčĊ
------- .
ĉĉĉĉĉĉĉĉ ĉĠĠĠ
ĠProxy Pass
inv oke
ĠSAM BA
/ :/
M ark
S how
m hard
p anic
Ġp tr
ĠA A
ĠL WP
ĠF ilter
Ġapp arent
Ġ16 7772
SC H
INIT IAL
Cl uster
Ġbrack et
ĠPART UUID
L aunch
s mp
x it
ĠC F
ĠR sync
Ġres ets
Ġtri p
Ġanswer ing
66 9
ĠEx amples
Ġpod s
O h
[ !
s use
ip address
ex ists
ĠG ROUP
000 4
sp eak
Ġ17 4
ph ys
37 1
05 7
Ch annel
57 3
ĠPerm issions
Ġseper ate
5 20
X org
Ġp uzz
Ġan ch
Ġl aw
Ġ* ;
Ġmount d
Ġad ress
Ġ15 1
stat d
06 00
Ġcombin ing
ĠDI MM
Rec eived
Work s
sig action
x init
en force
ss s
ĠP I
Ġj ack
ĠG OT
ĠH ash
pro files
Ġback ticks
act or
Ġnew bie
37 3
cert bot
ĠPer formance
RA W
Ġmer ging
Client s
Cent os
Contro ller
HTTP S
DIRECT ORY
8 12
D Q
G n
S ummary
b n
f ab
p an
Ġ ................
ĠF inished
ĠU PS
ĠIP Sec
OS S
br and
28 2
28 3
ĠRe write
rwxrwx r
O riginal
out es
ĠE qu
ĠE urope
oth ers
start ed
.... ...
ĠDe le
Ġ13 1072
Ġrecord ing
ili ary
xv t
Ġmeasure s
ĠAUTH ORITY
Ġcave at
N P
y et
Ġ( **)
ĠN X
ĠG PO
ST P
form ed
Ġbash rc
Ġinv ocations
ĠAdd itional
Ġsequ entially
ĠAd apt
Ġsecure d
[@]} ;
Ġcentral ized
pur ge
) }
A c
b uffers
l ot
ro g
ĠN I
ĠU DMA
not es
arch itecture
mb it
57 4
Ġphysical drive
medi um
let ter
Ġreser ve
Ph one
Ġill ustr
trigg er
( `
* $
C al
G i
m apping
Ġs sd
Ġm t
as d
04 4
04 5
07 7
54 2
RI M
Ġsuper visor
WN ER
ĠLOG IN
det ails
Ġrsyslog d
O VER
en viron
ĠR x
ĠO k
Ġac quire
Ġ5 03
for um
ass oci
Ġcons iders
bl a
ĠOpen LDAP
57 5
57 9
Ġmet al
.* /
________________ ________________
Ġthor ough
w ine
is m
ĠP ool
ĠM IT
ĠR LIMIT
Ġsp ool
act i
stat istics
Ġ200 6
Ġreal ity
Ġhash ed
Ġbu ying
Ġban ner
âĸĪâĸĪ âĸĪâĸĪ
Ġgrace fully
Privile ge
4 99
o fficial
r ist
ĠC ond
ap id
lib m
08 4
Ġ19 4
++ ));
ĠEn ables
Ġsmall est
xr andr
ĠSup ports
Ġreinstall ed
Ġcomplain ing
ĠExp ansion
ĠSTD IN
Sym Links
Ġe of
Th ink
od ename
ĠE SC
Ġ20 6
Ġtri al
Ġevery body
Ġbr ctl
Ġbet a
Ġ${ !
RI L
Ġfl ushing
Ġbro ad
f stack
r ict
Ã ¤
ion ic
ĠA ut
Ġcont iguous
OR TS
EN O
run ner
======== ===
26 3
Ġhand s
ĠRe boot
Ġfr action
Ġpop ulate
EG ER
ĠĠĠĠĠĠĠĠĠĠĠĠĠĠĠĠĠĠĠĠĠĠĠĠĠĠĠĠĠĠĠĠĠĠĠĠĠĠĠĠĠĠĠĠĠĠĠĠĠĠĠĠĠĠĠĠĠĠĠĠĠĠĠĠĠĠĠĠĠĠĠĠĠĠĠĠĠĠĠĠĠĠĠĠĠĠĠĠĠĠĠĠĠĠĠĠĠĠĠĠĠĠĠĠĠĠĠĠĠĠĠĠĠĠĠĠĠĠĠĠĠĠĠĠĠĠĠĠ ĠĠĠĠĠĠĠĠĠĠĠĠĠĠĠĠĠĠĠĠĠĠĠĠĠĠĠĠĠĠĠĠ
cond ition
Tim er
Oper ation
, ...
Ġn ightly
ĠL F
ĠL INE
ĠR R
Qu estions
ĠW atch
pro b
Ġpre defined
eb uild
Ġph rase
-------------------------------- ----------------
mc ustom
Ġmaintain s
Ġpop ulated
ĠFILE NAME
snap d
Ġ--------- --
Ġsqu eeze
Ġinstrument ation
u pt
Ġas cii
ĠC DB
vic table
Ġinter mit
ep el
86 2
ĠCh ar
68 4
Ġequ ally
cr l
Ġclaim s
ĠNVM e
E ntry
[ ])
s andbox
ut s
SO ME
Ġdist ance
47 5
Ġprefer able
ĠAny one
ĠWork station
Ġfol ks
, \
Y N
t st
Ġf fffffff
de mand
Ġ2 51
Ġnot ing
Ġam azon
Ġname ly
04 9
min ute
Re quire
point s
auto fs
Ġview ing
const ant
LOC ATION
Ġblk id
etz ner
3 22
L en
Â »
Ġd um
st or
ĠS can
ĠG W
ER IC
aw ait
Ġmin im
Re fer
Ġ0000 7
Ġens uring
ĠMan jaro
ĠSIG KILL
xm ss
IM AGE
ĠSE LECT
ĠWord press
W M
Ġc sh
Ġcon gestion
Ġdo zen
ĠD AT
ĠB ug
ĠIn clude
86 1
sp are
ĠCh rootDirectory
ĠUUID s
ĠĠĠĠĠĠĠĠĠĠĠĠĠĠĠĠĠĠĠĠĠĠĠĠ čĊ
tc sh
Ġnative ly
ĠSV r
Ġpure ly
J ump
n z
v ault
Ġt alks
Ġb urn
erm an
In ode
Ġtechn ologies
Ġmigr ated
Ġhot spot
Perm issions
ĠExt ension
LM UL
symb ol
Ġelev ated
Ġtogg le
r st
t el
ã ĥ
Ġth ru
Ġpro d
ell ed
Ġneed priv
64 1
Ġ"$ #"
09 7
Ġad j
49 8
NU MBER
new er
rot ik
Ġkind a
Ġmark ing
ĠPRO MPT
Ġuni versity
Ġvis ibility
match ing
jo e
Ġudev adm
graph ical
c w
ĠS PAR
oc ean
ht op
Ġ$ '
Ġun icast
:// $
IP C
ĠUn like
CH ANGE
ĠSe qu
ĠExec ute
Ġqual ified
acc ording
CY RIL
mav x
CYRIL LIC
5 02
P a
V malloc
Ġp ol
ĠC GI
ĠD pkg
ĠL atin
so ever
lo setup
Ġ15 9
88 9
ero ot
sl ot
En coding
âĶĢâĶĢâĶĢâĶĢâĶĢâĶĢâĶĢâĶĢâĶĢâĶĢâĶĢâĶĢ âĶĢâĶĢâĶ
Ġrecover ed
return s
Ġprior ities
******************************** ********************************
fed or
Ġdivid ed
inher it
+ \
B LE
P eer
Ġp an
Ġde ll
ĠM o
Ġ[ $
ĠN map
âĢ ¢
ĠĠĠĠĠĠĠĠĠĠĠĠĠĠĠĠĠĠĠĠĠĠĠĠĠĠĠĠĠĠĠĠ ĠĠĠĠĠĠĠĠĠĠĠ
47 8
Ġinitial izing
Pre fix
drop box
Ġmit igate
Ġinten sive
A utom
in ating
Ġs aml
Ġf ish
Ġg mail
Ġ0 644
ig ation
ĠC lear
ĠM IN
ĠAn swer
gu i
ĠApp arently
exp ire
ĠSO URCE
Ġhex dump
Ġnc urses
ĠDirect ories
5 0000
5 18
i owait
m utex
Ġs its
ĠI E
Ġ( >=
Ġch arge
Ġun tagged
eth eus
cl s
Ġ7 200
Ġssh pass
EN C
ĠSt atic
Ġmaintain er
Ġcompress ing
ĠRec e
Ġsuffix es
oper ator
AuthorizedKeys File
* -
e ast
q w
et ched
Ġal pine
err a
dev tmpfs
Ġ10 80
Ġsec rets
rw sr
Ġgot o
NET DEV
Ġproduc ing
Ġexperiment ing
Result s
>: <
ĠAb ort
neg ative
Ed ge
) |
Ã ³
Ġt z
al ty
Ġsh if
Ġsh ip
ĠM UST
Ġal sa
ĠW HERE
Ġel apsed
Ġcle ver
Re q
pk cs
Ġindex ed
ĠRec overy
Ġ54 32
Spec ifically
Ġrad io
âĢīâĢī âĢīâĢī
Ġexpir ation
. ]
8 168
F amily
m iss
s ugg
y brid
in ations
ĠS w
Ġ2 37
Ġ2 26
ch grp
ĠM AN
ĠR ole
ĠW ikipedia
Ġstat ing
Ġpar ses
MO V
ĠAD SL
Ġguarant ees
ĠCH AR
ĠCert ificate
Ġenfor ced
f eb
k dc
r sh
Ġg ig
em erg
em aker
Ġv ague
ex tr
Ġ5 14
ml ong
tmp file
ump ed
Ġ? ??
shell s
att empt
Ġproc num
ĠMO DE
ĠSV CXPRT
Ġenclo sed
exam ine
INITIAL IZ
. [
u h
Ñ Ģ
if act
ID E
LE N
Ġchar m
line ar
49 0
Ġquot as
Ġspeed up
ĠCON NMARK
ĠUID s
hib ern
lif etime
S ign
p ulseaudio
Ġ ud
Ġd ire
ĠS em
ĠF TS
86 3
urre ncy
Ġ16 5
pre vious
wr ong
67 4
names paces
ĠĠĠĠĠĠĠĠĠĠĠĠĠĠĠĠĠĠĠĠ ĠčĊ
Ġperiod ic
ĠGroup s
claim er
Gu ide
mypro ject
F REE
il ob
ĠD WARF
Ġ3 03
lock s
Ġtest file
Ġsc ore
05 8
Ġnet plan
any thing
Ġconcept s
~~~~~~~~ ~~~~~~~~
% \
G H
b one
al most
ĠL INUX
Ġout come
ĠE M
Ġ8 38
ĠRe ached
Ġgr anular
ĠMan ufacturer
First ly
sk b
Ġgraph s
ĠRaid Device
Ġfork ing
^^^^ ^^^^
Ġneighb or
Ġ*< "
ongo DB
er es
on ed
Ġsh m
port able
Ġwhat soever
Ġ17 7
AL LOW
59 5
Ġpublic ly
row ser
Ġconsider ation
-------------------------------- --------
Ġfrequ ent
resp ect
Ġtechni ques
pac man
4 34
4 03
6 31
a io
k de
Ġa do
ir th
ĠĠĠĠĠĠĠĠĠĠĠĠĠĠĠĠ ĠčĊ
Ġget ty
Ġi ostat
ĠWh ether
md k
88 5
code l
<< <
" *
- '
Z a
ĠS amsung
ss e
Ġal arm
Ġ9 999
FS ET
54 3
Ġ19 7
met al
Ġduplic ity
Ġsur prise
riv ial
Ġdisappear s
Ġopc ode
/ [^
t emplates
Ã ¡
ĠB CM
Ġhost apd
sub folder
Ġcor ner
Ġmis leading
ĠRec ord
ĠNO DE
Ġserious ly
ĠForward ing
ĠEd ition
Ġunre liable
larg er
( %
E MAIL
Ġo d
Ġsh ed
og ling
ff e
Ġapp ends
wh ole
Ġad s
ĠPC H
rec ognized
stop ped
Ġrepresent ations
Script s
Sol aris
ĠInitial izing
ĠLE SS
DAT ABASE
/ "$
m abi
n is
p aper
t f
t orrent
Ġt or
Ġw s
em o
Ġst ale
ĠD T
ĠP AR
ĠM E
ĠW ait
ST AILQ
Ġab str
ĠAC TION
Ġprogram mat
Ġtra de
Ġaudit ing
Ġprof essional
ĠTra ffic
ĠGraph ics
Ġopport unity
U ED
c rc
m outh
v ide
is able
Ġl z
âĶĢâĶĢâĶĢâĶĢ âĶĢâĶ
ill og
Ġ' +%
Ġdis allow
bin fmt
Ġ20 7
55 3
rep aring
96 3
Ġvirtual ized
Ġquick er
App lications
Ġwar rant
ĠLen ovo
Ġspin ning
ĠAccept ed
ĠSR V
: .
W unused
b u
Ġn as
Ġst um
ĠS SSE
ĠC P
ip er
ell ig
Ch allengeResponseAuthentication
Ġclean ing
Ġquery ing
Ġdest ruct
Ġchroot ed
ĠRegister ed
I SS
M ove
x s
Ġs id
ad vert
Ġ2 86
Ġac ct
Ġrec ipe
Ġ14 5
Ġdec isions
check ed
enari o
Ġexpress ed
[* ]}
tech net
MET HO
Cont ents
. ),
? .
B OSE
G PU
P V
i om
s ense
Ì ¶
Ġs df
re es
ĠV agrant
Ġport mapper
Ġ7 68
Ġdifferent ial
test file
pre sent
proc s
ts v
Ġexpl an
Ġsl apd
------ .
Ġtrack ed
SIG INT
MT U
ĠRT C
Ġadvert ised
Ġsymptom s
p cre
s an
x AB
Ġt ain
Ġa ir
Ġp w
ill es
Ġ4 88
Ġ5 50
ĠĠĠĠĠĠĠĠĠĠĠĠĠĠĠĠĠĠĠĠĠĠĠĠĠĠĠĠĠĠĠĠ ĠĠĠĠĠĠĠĠĠĠĠĠ
Ġip a
back ports
07 2
07 8
200 4
Ġreal time
97 0
dr v
ĠAny way
;; ;;
Ġconcaten ated
m usic
Ġt emplates
Ġs ized
ar ter
se udo
ĠC lo
ĠO ffice
ps ql
sub str
CH AR
MO D
les k
fp v
chain s
ĠWIN S
Ġshortcut s
$ >
@ %
Ġn i
Ġis w
as df
ĠA WK
Ġatt aching
39 1
sc ratch
98 5
ÂłÂł ĠĠĠĠ
ĠGener ally
AF TER
Ġbring ing
redirect s
launch pad
Ġqual ifier
Ġrend ering
7 50
C IFS
H MAC
g ems
Ġp ulseaudio
um eric
iz ers
Ġj av
04 3
:: ---
Ġlong est
06 9
ik rotik
De velop
some where
ĠRE MOTE
Log ging
ĠLink s
lab s
Sim ply
! =
8 16
H A
Z ERO
h o
s pring
Ġd ark
Ġp le
im ation
Ġ2 27
ĠO FF
ure s
ue abi
80 81
open jdk
ild card
smb client
¼âĶĢâĶĢâĶĢâĶĢâĶĢâĶĢâĶĢâĶĢâĶĢâĶĢâĶĢâĶĢâĶĢâĶĢâĶĢâĶ¼ âĶĢâĶĢâĶĢâĶĢâĶĢâĶĢâĶĢâĶĢâĶĢâĶĢâĶĢâĶĢâĶĢâĶĢâĶĢâĶĢ
filesystem s
Ġsatisf y
MSS P
D OS
K K
` .
k ubectl
s aml
ct m
ub i
cp s
Ġ< ==
15 35
sp an
56 2
Ġel ab
Pro vider
gn ueabi
Rewrite Cond
* :
F ET
f align
t z
il er
ĠF oo
ĠE P
âĢ ĺ
Ġ& >/
Ġhelp ing
Ġoper ands
Ġaw esome
Ġsubstit uted
Ġcommunication s
WA RE
Ġstud ent
SECON DS
C y
P rotect
c z
Ġth rown
add user
Ġboot up
Ġoff ending
Ġbeh alf
Ġmark er
Ġadjust ed
ĠTrans lation
OO OO
menu entry
ĠSl ot
Ġexclus ively
Ġdatas et
E scape
T ypically
| ^
Ġc x
Ġc as
Ġ- ------
il o
Ġpro of
ĠN e
ĠB AR
ĠIP PROTO
Ġev idence
ne igh
Ġbefore hand
Ġadv ised
rib ly
dec rypt
sn ip
book s
ea ks
QUEST ION
ĠFF mpeg
) +
? !
D aemon
F actory
L ab
N ginx
ec ommand
Ġe fficiency
ĠS IP
ess ential
Ġun initialized
ĠE PERM
Ġres izing
ĠV HD
per iod
fin ished
mac ro
SY SC
Al gorithms
ĠPost gres
hour s
5 44
Ġt db
re trans
it ate
Ġfor ks
Ġ2 76
ag ma
ĠD escriptor
ĠL ACP
ĠM ath
Ġun t
ĠW est
ĠV ery
ĠĠĠĠĠĠĠĠĠĠĠĠĠĠĠĠĠĠĠĠĠĠĠĠĠĠĠĠĠĠĠĠ ĠĠĠĠĠĠĠĠĠ
Ġover come
my username
Ġspl its
EDIT OR
ĠUN C
BO X
Proxy Command
Ġpromisc uous
; }
P SH
b w
k m
s ometimes
Ġe hci
Ġ2 64
ĠA c
ug et
key tab
cp uset
fs id
Ġtest user
AC CES
ĠCh allengeResponseAuthentication
mode m
web server
Ġmat erial
ĠSH R
brow se
ĠPK CS
Ġpurch ased
mir rors
ĠErr ors
E O
i as
Ġ" @
Ġuser auth
read array
56 1
Ġ; -)
AG ENT
az ing
Ġapt itude
vim rc
Ġassem ble
Ġleg al
activ ated
Ġinc orpor
ĠIM AGE
mach ines
A Q
ĠS ignal
ĠD r
ĠN eed
Ġal pha
Ġsome file
Ġhas sle
ĠIP sec
NO W
Ġnet bios
php myadmin
200 3
78 5
System d
des cri
xd g
channel s
wire guard
bal ancer
Ġchk config
+ /
V B
x fer
is ol
ig er
Ġv ml
ĠD EN
log on
mod p
mer ged
Ġaudit d
ĠPar ameters
product s
INST ALL
4 96
S Q
m unin
Ġ Question
Ġa de
Ġs ink
ĠS ym
th umb
Ġor phan
are st
ĠB GP
Ġver bosity
ak ed
EN VIRONMENT
be it
pre tty
br a
Ġmin s
Ġsat ur
Sp are
K VM
b uilder
f ee
Ġm arg
ĠM ega
Ġwork ers
ĠW aiting
ST ORE
per cent
net sh
In v
Ġent ers
AC PI
ĠWhen ever
Ġspl ash
except ions
them e
lit eral
abbit mq
D ef
j c
in x
id r
Ġ5 01
ĠĠĠĠĠĠĠĠĠĠĠĠĠĠĠĠĠĠĠĠĠĠĠĠĠĠĠĠĠĠĠĠ ĠĠĠĠĠĠĠĠĠĠĠĠĠĠĠĠĠ
Ġ00 3
35 1
28 1
Ġ% (
Ġph y
Ġ19 0
=' -
Ġsepar ation
TR ACE
ĠSI MP
ĠAct ually
k r
p it
p db
â ŀ
Ġan alyz
ch attr
and y
Ġv lans
ist ency
ĠP age
ĠE l
ass igned
Ġx inetd
36 2
sec rets
mem cpy
ĠWH EN
5 80
B G
F lags
L oop
n debug
Ġfo ld
Ġno file
44 1
De fin
rec ip
252 80
sect ions
Ġpac man
, %
3 11
h op
ĠI ssue
Ġwh eezy
Ġun trusted
inter pre
with in
66 8
pg sql
87 2
Ġinitial izes
Ġclean ed
Ġinterpre ts
ĠList en
ĠPar allel
D VD
d ists
t tl
Ġm DNS
Ġre ct
un lock
de ll
pt on
Ġ2 25
ĠD om
âĢ ¯
Ġport ability
Ġsuggest ing
Ġsent ence
Ġglob star
ĠNetwork ing
fr a
Ġtty S
Ġrepe ating
@@@@@@@@@@@@@@@@ @@@@@@@@@@@@@@@@
ĠImage Magick
Ġprovision ing
Ġinvestig ating
Ġaspect s
Ġtheoret ically
ĠFore ign
ĠSIMP LEQ
" }'
. {
T om
ar set
Ġ+ ++
proc ed
HO WTO
DIR S
Sec ure
Ġtypes et
contain s
ĠMet adata
Ġoffer ing
TT TT
P ATTERN
T TL
Y OUR
c wd
c ursor
h yper
Ġ2 33
Ġstr error
Ġcomp act
EL INUX
comp gen
ĠOn line
fl ux
Ġplay er
sign ature
mean ing
Ġhur t
Ġacknow led
C isco
f an
q cow
Ġa fore
Ġre used
ro cess
Ġon board
ĠS ingle
Ġ2 147
ĠP P
Ġget ent
Ġi ov
Ġread ability
38 1
UN TER
ĠRe place
AG AIN
ade on
ins mod
Us ername
rec ent
char set
CL ONE
grad es
inotify wait
5 10
6 01
P END
p key
Ġa f
re en
Ġg igab
ĠL at
Ġ' ${
** .
Ġsure ly
Ġtra ver
05 2
Ġlib gcc
"," /
âĸ Ħ
Ġpress ure
Ġluck y
Ġround ed
oper ation
pod man
3 96
> (
H ead
Ġ ri
on fig
Ġan ti
ad ius
Ġst re
ĠA FAIK
ul i
Ġcomm itted
od ata
ht ok
ĠT x
14 40
the ir
Ġtrans actions
ious ly
ĠPl us
8 15
V OL
W EB
] ++
Ð ½
Ġd ong
ĠS FP
Ġv enet
ĠP Y
ĠP eer
Ġun safe
Ġ5 04
Ġab sence
sp in
Ġ12 1
enc ode
Ġ17 5
pre serve
Ġnat ural
auto ssh
ĠST AT
Ġmanual s
Ġtrigg ering
PRE LOAD
Ġkeyst ro
' ),
k ms
l ers
st ock
Ġin file
com ments
Ġsub module
09 3
dir colors
99 1
08 7
Ġ18 2
PC NT
87 4
DO WS
fr ames
Ġalloc ating
bound s
sig procmask
cell aneous
Ġdisapp eared
Ġter rible
Standard Output
pur pose
ĠDrop box
N TP
g iven
s our
u ary
Ġb ulk
ar th
ct s
Ġ' ...
Ġwork space
str uction
00000000 00
Ġgr ate
Ġdir fd
Do S
Ġindic es
Ġfut ex
DU MP
ĠCONNECT ED
ĠXSA V
ersist ence
ĠMOV BE
softirq d
B T
f usion
t ake
Ġbe ar
im ents
sw appiness
Ġsu cc
Ġ3 12
put ty
ĠG UID
ast y
fs ense
Ġrequ isite
ser ves
05 4
Ġspecific s
ffff ff
ĠZ ero
Ġhash ing
Ġverify ing
symb olic
CAT ALINA
ĠADDR CONF
Ġalphab et
Authent icated
( @
f m
p eed
p anel
in ates
Ġs as
re fer
st eal
ĠS ection
ĠR ather
ind irect
ĠO B
ĠW ake
Ġle af
sd ata
Ġel m
exec dir
ĠAny thing
cpu freq
ĠNot ice
Pre ferred
buffer ed
IB M
Ġroll ing
ĠGigabit Ethernet
F ault
b are
e ah
h l
ac ent
lic ts
net link
Ġ: ;
000 8
no fail
Ġip route
Ġz abbix
Ġdev link
Ex pected
Con sole
bl ing
Ġ200 112
Ġcap ital
____ _
Or der
Ġconc urrently
dig ital
Ġte le
Ġed its
ĠSuper block
ĠAdvert ised
+ ,
C ACHE
a ac
y d
ĠR Pi
ĠF urther
Ġ14 1
97 5
// ;
Ġtermin ology
Ġsyn onym
Str ict
duplic ity
Ġfundament al
Ġcompreh ensive
3 92
_ .
f v
Ġc Panel
Ġan not
al an
Ġ( #
if name
ch romium
ĠD ue
Ġtr ash
com bin
ĠT ABLE
pre fetch
get opts
ĠST A
ĠVirtual box
select ed
account s
under bird
Ġestablish ing
[* ]}"
A ERE
H elp
I SP
b am
i ers
ur u
Ġ3 68
Ġle x
Ġmess y
98 3
cap s
Ġfl oppy
PI O
FF ER
ocon fig
assth rough
ĠSPAR C
AERE SIS
x C
y Box
ing ress
Ġre compile
un link
Ġse p
ĠT FTP
Ġver t
ĠĠĠĠĠĠĠĠĠĠĠĠĠĠĠĠĠĠĠĠĠĠĠĠĠĠĠĠĠĠĠĠ ĠĠĠĠĠĠĠĠĠĠĠĠĠ
Ġpar alle
run c
ten ess
az el
enu ine
Ġer ased
Ġ82 25280
Drop box
ĠCRO ND
S G
h al
r nd
Ġp pid
ĠP arent
ĠT P
ĠK Hz
57 2
âĶĢâĶĢâĶĢâĶĢâĶĢâĶĢâĶĢâĶĢâĶĢâĶĢâĶĢâĶĢâĶĢâĶĢâĶĢâĶĢâĶĢâĶĢâĶĢâĶĢâĶĢâĶĢâĶĢâĶĢâĶĢâĶĢâĶĢâĶĢâĶĢâĶĢâĶĢâĶĢ âĶĢâĶĢâĶĢâĶĢâĶĢâĶĢâĶĢâĶĢâĶĢâĶĢâĶĢâĶĢâĶĢâĶĢâĶĢâĶĢ
================ ====
TR ACK
we ak
Ġsem i
hd parm
ĠWork ing
cyg drive
R outing
e ople
n ormally
Ġf put
Ġm unin
Ġ1 000000
Ġbut tons
ĠM ouse
Ġ* _
ST REAM
UT EX
ĠJ ohn
uc ode
ES C
(" \
Some one
mer ica
Ġstand by
Ġcomparis ons
Ġpurch ase
< -
F eature
W c
d ue
i j
at xmega
Ġre built
Ġe e
Ġr v
Ġr type
ate ll
Ġv Sphere
ĠL aptop
Ġqu ad
Ġper ipher
05 00
comp liant
link er
ped antic
LOG FILE
vis ible
Ġrecover ing
rece ived
rad ius
artic les
Ġaggress ive
0 23
5 13
6 10
8 443
P id
c oredump
ll ing
ĠI G
ach i
Ġ3 24
ĠG CP
Ġkey code
Ġ16 1
Ġcomput ed
43 04
PS K
Ġsl ight
SP EC
ĠExec Stop
import ant
Ġintegr ate
NODE LAY
ĠOPEN SSL
ĠSCH ED
W l
b io
f ce
t ility
Ġc ookies
Ġm ke
st ud
Ġin efficient
Ġ( *)
Ġr om
ĠE specially
Ġaut ore
ns l
06 6
Pro file
Ġcontin uing
Ġcrash ing
RD WR
ĠDI RECT
inst ances
Ġdifficult y
nss ec
Sup er
UD IT
ĠLZ MA
Ġfro zen
CLU DE
! \
T EXT
p ulse
s etc
Ŀ ¯
ĠT oo
Ġread link
19 20
Ġ16 00
ĠJ AVA
ĠRA W
map file
pri ate
vis udo
except ion
ĠDocument s
Ġaux iliary
ĠMore over
Ġvirt io
Similar ly
Ġs am
on athan
or ation
Ġm im
Ġl spci
ĠA lias
ur p
ĠN ONE
Ġi op
Ġfo ol
IN F
Ġsub scri
cre ds
AL T
Ġnow here
29 1
IP A
Ġetc d
Ġsign s
ĠCh ipset
Ġconf use
Ġtrack er
CL ASS
ISO C
9 01
L AB
Y et
Ġh ab
Ġus d
Ġv fs
ĠP rotect
ĠP PP
Ġi b
ST YPE
ID EN
Ġ{ '
pr act
Ġdata store
08 2
bar rier
Ġcapture s
Ġcrypt setup
COL LATE
Ġfac ilities
mong od
Ġdepart ment
) }'
* (
4 25
D ell
D ump
f lat
ro le
ld d
se ver
ĠD ouble
Ġ3 30
ĠF IPS
Qu eue
tp m
Ġle ases
000 7
08 5
49 5
ĠEx ternal
ban ner
Ġgrow th
GENER AL
FET CH
T ABLE
k v
Ġc abling
ion ice
al sa
Ġat om
aus ed
Ġdest inations
he ight
Ġcompare s
Ġca ution
AUTHOR ITY
develop er
Ġdiagnos ed
o a
~ ]#
Ġd ports
Ġin verted
Ġex cludes
and ra
ĠL ICE
od ate
ĠM M
ang led
20 100
ĠB ob
ST ACK
Ġwr apping
its cript
47 00
Ġlib g
ĠAt tr
ĠWork s
lip se
NN NN
lz ma
develop ment
ĠTR UE
F ire
W B
W i
c isco
o ols
v y
Û °
Ġd nf
le af
Ġpro ftpd
âĶĢâĶĢâĶĢâĶĢ âĶĢâĶĢâĶ
Ġsu ited
end point
key scan
sd i
Ġopen SUSE
app ear
par ser
get req
Ġmin i
Start up
Ġpe ers
En abled
create error
Ġlarge ly
asp i
agent o
Ġuni versal
!! !!
Ġvi able
war f
Ġinflu ence
ĠLIB VIRT
T A
c se
m fix
Ġt ouched
on ents
Ġc oded
st alk
ec ryptfs
ch anging
ĠA SP
Ġun successful
Qu ery
Ġpip efail
Ġprefer ences
Ġpower shell
Ġbl ame
cy ber
grad ing
vnc server
Ġparenthes is
- /
D el
L N
L Z
t rivial
ĠS G
ĠS US
Ġsp rint
Ġar c
OR S
77 1
Ġins u
BB BB
ĠSTD ERR
- /+
G bit
s ink
ï ¼
Ġs op
ar mv
Ġl x
Ġh oles
ad itionally
log path
Ġ20 480
Ġx auth
Ġ16 065
init tab
Ġaw ait
Ġdot s
VAR IABLE
Rep o
Ġconcaten ate
Ġbt ch
3 13
D SC
Ġre put
Ġst ty
Ġsh aping
ind er
ĠU til
Ġdes ire
Ġcomple teness
Ex ists
ĠUn specified
dr acut
Ġstack overflow
Ġ06 00
Ġdr acut
Last ly
Ph ysical
jav ascript
ske l
h an
k g
t echn
in cremental
Ġh ive
ac tual
ent rant
Ġr host
Ġ4 50
Ġ20 5
Ġgroup ing
Ġrepl ay
Ġ26 1
Ġdig ital
ĠPack ets
Ġ39 07
Stop ping
ĠSYST EM
ĠAuthent icating
ĠGl uster
recomm ended
0 24
v l
Ġc rc
Ġre written
as ma
il ed
ĠO C
ĠO U
ĠB O
ud ge
bug zilla
Ġpre serving
Ġval uable
rypt o
46 3
ĠID EN
Ġconf ident
mem cached
Ġimp ression
TH ING
ĠĠĠĠĠĠĠĠĠĠĠĠĠĠĠĠĠĠĠĠĠĠ čĊ
Ad apter
Ġsuff er
compat ibility
Ġpse ud
ĠLike wise
:( ("
ĠLe aving
MESS AGE
Ġexcess ive
ĠFre qu
Ġimm utable
ĠLICE NSE
R ather
X en
g uid
j b
m relax
p grp
Ġt id
at um
Ġo pend
if down
ad o
ch unk
Ġget addrinfo
ĠH BA
ext end
ĠJ VM
sec label
ib yte
fun ct
like ly
Ġcrontab s
Ġded uplic
ĠINT EGER
Ġmisunder standing
@ ${
F unction
S k
b etter
d atabases
e as
p ix
w tmp
Ð ¾
Ġs amples
on sole
im bra
Ġcon vers
ch dir
ĠP ress
ĠB est
Ġsub dir
AC TIVE
Ġ} }
Ġ% -
54 1
domain name
ARG E
ĠâĢĺ /
Par ser
ĠAdministr ators
Pri mary
< >
C ase
Ġ ),
il og
Ġg etc
ĠP od
Ġk b
Ġun bound
pl ist
erm al
lic enses
âĢ ĥ
Ġcomple tions
ĠDe fine
ribut or
comp act
Ġrel ax
49 4
Ġprompt ing
prot ection
ĠUp dated
ĠEX EC
ĠSO ME
ĠWAR RAN
Ġderiv atives
+ '
3 99
E l
E sc
I US
L ONG
Z Y
e X
k worker
u ent
Ġh top
Ġg round
Ġ" *"
Ġr u
ur a
Ġsh e
ĠF irmware
ĠH ot
av oid
RO W
RE LEASE
set env
My Admin
66 7
By te
duc ible
Ġpos itions
dat adir
ateg ories
Ġ<<< "$
Ġpub key
cho ice
ĠAb out
TIFIC ATION
ĠIntegr ated
hibern ate
P EC
b and
g ssd
y c
Ġ- :
Ġ2 0000
ag o
ĠH eader
mp ath
29 3
Ġpriv acy
45 2
Ġls b
=( [
,, ,
Administr ator
Ġvan illa
Ġsole ly
C IP
C lear
W extra
in cludes
ri gg
Ġen g
os ync
Ġbo ost
res ume
Ġ! !
audit d
Ġsil ent
POL LIN
Ġsmooth ly
- ${
N ative
j f
Ġt ight
Ġa e
Ġre xec
ss p
Ġch ips
ĠR EC
Ġ4 44
ĠB acula
pro per
OR D
.... .....
100 3
ĠContro ls
FF F
Com ment
Ġvir sh
Ġfault s
ĠSim ply
next cloud
Ġstud ents
Comm on
Ġhd parm
ORIGIN AL
B asic
G CT
g ree
h os
Ñ Ĥ
Ġs ar
Ġh ref
ch ang
Ġback log
32 00
do e
Ġstate ful
59 4
Ġpid s
kex ec
]\ {
Gu est
Ident ifier
apro ject
/ @
E nt
H F
N r
s alt
x sl
Ġs r
de limit
Ġ2 42
th ose
ĠP PID
ĠV SS
ĠV iew
ass in
Ġ... /
ĠSt ream
Ġdec oded
To ols
pid of
Ġequ ival
Ġdiff ie
TIME STAMP
clo ak
ĠDI AERESIS
Ġpicture s
Ġpoor ly
ĠPri ority
Ġconsequ ences
Ġafore mentioned
E nsure
N ull
P latform
n ol
s ess
Ġt ons
Ġb Descriptor
ĠC I
ĠO b
Ġlog name
Ġmod ifiers
Ex amples
Ġ200 4
OT HER
âķ ¬
Ġpast ed
Ġpract ically
Ġrecogn izes
Ġperiod s
Allow Users
Auth or
Sup port
ĠVer ify
Ġdoll ar
Depend encies
( _
? ),
D ue
H ard
L ets
P AGER
d ere
k l
in vent
Ġ2 67
ĠC AN
ĠD uplex
li ases
Ġsu fficiently
== )
pro gs
Ġag ents
ob y
Ġrefer encing
ĠCh anging
work station
ĠĠĠĠĠĠĠĠĠĠĠĠĠĠĠĠĠĠĠĠĠĠĠĠ ĠĠčĊ
ĠArch ive
Ġfill s
power off
=- /
ĠNTL MSSP
ĠActiv ation
4 13
J B
T IN
g f
in active
in cluded
Ġn asty
al ready
Ġg sub
ul ators
pp c
ĠP F
ĠT ried
Ġ* .*
55 1
Ġsub j
Ġtra vel
mys ervice
ik ube
Ġinterpre ting
Ġplay ed
Ġseg fault
ĠLISTEN ING
ĠQu eue
ĠRet ry
ĠAB C
bot s
ĠRequest ing
ulse Audio
fedor aproject
ilob ytes
A rt
V Box
\ _
g sub
Ġb onus
Ġto ward
il s
Ġv Switch
ĠE ntry
net plan
Ġkn ock
par ing
ps k
gre nt
Ġamd gpu
0000000000000000 0000000000000000
535 3
ĠRep ly
Ġenfor cing
icol or
Ġelab orate
uget lb
C LE
O FS
g ss
Ġm o
Ġo w
ĠP PTP
Ġ' *'
Ġ5 11
Ġ5 18
Ġwr apped
Ġbo ss
Ġsub stant
other wise
ts c
Ġcons oles
based ir
det ach
Ġdot glob
Hope fully
Ġlos etup
Ret ry
NG TH
NUM ERIC
ĠVER SION
Ġconsequ ence
Ġmeg abytes
SUP ER
KnownHosts File
dial og
Ġobsc ure
friend ly
ĠEqu ivalent
5 64
T ASK
h or
Ġ QUE
es c
st ub
Ġn ogroup
Ġn anos
ĠA rm
ĠC T
Ġsu ffice
Ġk ubectl
ern eath
RE STOR
Ġcomp ar
Ġent ity
76 3
45 1
Ġdpt s
sched ule
Ġprior it
Ġfav our
' ?
6 24
L ib
b uster
s omedir
v h
Ġs gr
th ird
ĠP entium
config uring
open ldap
get s
time zone
ms ched
red uce
ĠRe v
Ġsys v
97 4
Ġlead er
vf at
Ġprepend ed
RESTOR ER
! (
Ġo c
al ice
al gorithm
ad s
ĠD arwin
ĠF X
ĠT AP
Ġdis cs
Ġoff load
bc ore
Ġscreen s
SIG N
¼âĶĢâĶĢâĶĢâĶĢâĶĢâĶĢâĶĢâĶĢâĶĢâĶĢâĶĢâĶĢâĶĢâĶĢâĶĢâĶ¼ âĶĢâĶĢâĶĢâĶĢâĶĢâĶĢâĶĢâĶĢâĶĢâĶĢâĶĢâĶĢâĶĢâĶĢâĶĢâĶĢâĶĢâĶĢâĶĢâĶĢâĶĢâĶĢâĶĢâĶĢâĶĢâĶĢâĶĢâĶĢâĶĢâĶĢâĶĢâĶĢâĶĢâĶĢâĶĢâĶĢâĶĢâĶĢâĶĢâĶĢâĶĢâĶĢâĶĢâĶĢâĶĢâĶĢâĶĢâĶĢâĶĢâĶĢâĶĢâĶĢâĶĢâĶĢâĶĢâĶĢâĶĢâĶĢâĶĢâĶĢâĶĢâĶĢâĶĢâĶĢ
Ġbuf len
W ikipedia
r mem
Ġg parted
ri e
Ġ" ,"
ĠS ur
og gle
ĠL X
ers ions
ĠF AIL
oo keeper
ĠH ub
cp anel
Ġar range
act l
Ġ+ '%
LE SS
ls mod
Ġcol ored
Ġpe ak
Ġ^ /
App le
Ġdeal s
Dir ty
super visor
serv ation
INVAL ID
(.* )
ĠRest ore
Ġsemicol on
S ure
T HE
c ross
Ġt v
in ner
an oid
Ġan cient
ul o
ĠP op
ĠP lesk
ĠĠĠĠĠĠĠĠĠĠĠĠĠĠĠĠĠĠĠĠĠĠĠĠĠĠĠĠĠĠĠĠ ĠĠĠĠĠĠĠĠĠĠ
14 00
back ed
mb ps
vm stat
Ġpip el
cert ain
Ġdir name
ĠAll ocation
swap file
AV AIL
Ġpen alty
- :
F LOW
O ffice
W PA
f u
Ġa io
Ġb uster
ur b
ĠP erson
ĠM ON
Ġtr ail
con ven
ĠB UT
add itional
Ġplug ging
Ġpos it
match es
ĠSe agate
"/ "
document ed
Ġsuppress es
Par ameter
Ġcircum vent
Ġsubscript ion
Ġrespons ibility
azel as
W RON
p wn
r ich
Ġw ine
Ġd im
em e
ĠD RIVER
ĠL ocation
Ġun readable
our aged
Ġinter ference
RO UND
ĠSt udio
reg exp
Command s
ĠPort s
ng th
light dm
Ġ.... ..
xf ce
ĠENO MEM
Ġoct ets
Ġelim ination
Ġpropag ate
ITION AL
4 76
K EN
p ure
r av
Ġc old
ic ular
Ġ1 31
Ġr ich
ĠS USE
Ġmy app
ĠF ield
dev pts
fs ync
ass ume
Ġstr ftime
sd j
Ġcert bot
Ġrel ating
Ġtun ed
TR A
osit ories
virtual box
ĠRes et
Ġ10000 3
ĠDEN Y
Ġade qu
M LINK
l ighttpd
Ġg z
ĠR ange
Ġsub tract
AC TER
Ġsc op
88 00
Ġcomput ation
=' ${
97 9
Ġframe buffer
ĠError Log
ĠSe ems
oubl es
Ġwebserver s
Environment File
Ġinform ations
Account ing
BI AN
Ġrestric ting
SYSC ALL
proced ural
+ :
B W
C ERT
K R
f open
o P
w char
Ġt st
in formation
Ġc mp
it ech
ard s
Ġexpl orer
sub st
97 2
part x
fr agment
UB LE
Com plete
IO C
rf kill
\( .*
ĠQUE UED
G ive
S ql
^ [
s able
at om
Ġp kill
Ġ2 80
qu is
Ġif down
ie ee
Ġsub version
Ġpri me
Ġwrit er
53 00
Ġlib s
Al tern
Ġdiscover ing
Dep ends
HD MI
Post fix
Ġtweak ing
qual ified
Ġanc est
( {
8 14
S ounds
g ate
m eg
t ank
} $
Ġin o
Ġis csi
if orm
ĠA verage
Ġun confined
ĠThe ir
Ġdocker file
by e
connect ing
sub system
De vices
Ġdisc ip
Ġclear s
Ġfre q
Ġest im
]* \
Ġalong side
Ġvir us
Max imum
Password s
Ġclar ity
5 25
A verage
R aw
j oy
an ently
Ġe mp
un bound
de ps
ĠS queeze
Ġpro log
ĠL S
erm ine
lo ss
ph in
Ġinv isible
Ġxdr rec
Ġinher its
Get ting
Ġcronjob s
ĠProgram ming
ĠBl ack
HW ADDR
Ġsan ity
5 34
F alse
N ever
R PC
h ope
l anguage
v db
w b
Ġ à
Ġm sec
st ro
Ġr and
ĠD at
Ġse am
ind ent
Ġlog files
mod map
ĉĉĉĉ ĉĉĠĠĠ
UP D
47 3
ident ally
abc def
Red Hat
second ary
Ġvol atile
bat im
Ġmid night
NOTI CE
âķ¬ âķĲâķĲâķĲâķĲâķĲâķĲâķĲâķĲ
X P
g cloud
h alt
x id
Ã ¼
Ġf if
ĠD est
Ġun locked
Ġpr erouting
Ġ7 70
Ġaut one
Ġexten sive
ĠAR G
Ġ00000000 000000
ffffffff a
he ap
Ġsubshell s
ĠFollow SymLinks
Ġxf ce
ĠFP DMA
pick up
INITIALIZ ER
Ġprogrammat ically
4 58
B P
G ING
J O
U l
_ /
g ives
Ġd s
Ġre created
Th ird
Ġr h
ĠC lick
Ġ3 60
ĠF ront
ET H
Ġweb app
Ġ18 9
200 7
97 1
Ġview ed
ĠAT T
Ġtrack s
Cent er
/^ /
ĠMode m
xd ot
anit izer
Ġhor izont
NE F
Ġskill s
) *
5 15
V ideo
g ive
m ade
Ġs el
Ġbe ll
ir us
el asticsearch
ĠC AT
ĠP lay
Ġ3 128
Ġ"$ ?"
set gid
tmp dir
05 30
ĠSo ft
exec ution
ĠRe ference
Ġ@ @
ĠCent er
Ġselect or
Server Name
mk fifo
ĠSIG RT
ĠArch itecture
Ġadjust ing
Ġ78 140
OB J
Ġregistr ation
3 17
; $
F LEX
d sk
Ġ ought
in odes
re configure
ĠS F
18 24
Ġend ian
96 2
DI SC
Ġtun ables
Ġdebug ger
Pro perties
af ari
TI F
Ġmask ed
Ġbroadcast s
ĠPl ugin
ucceed ed
4 29
B AR
r ar
Ð ¸
Ġh ell
ri ll
th in
ĠC RC
ĠL IN
Ġ8 888
cc d
ĠSt ep
SY SV
Ġpower off
Ġactiv ating
Ġpatch ing
ĠCl one
ĠEnd point
FL USH
ĠCH ECK
Ġmix ing
Ġ10000 5
ĠComp ression
compil er
Ġdemonstr ate
ĠBACK UP
Û° Û°
G LIBC
H ash
T AILQ
a ffect
m u
Ġh omedir
un defined
all ing
all eng
ĠP OP
iz able
Ġdis rupt
own ed
Ġgo ld
AN A
cre ase
res um
ĠInter val
Ġkill all
87 3
Ġsk ips
Ġgrow s
ĠCert bot
ĠCOMP REPLY
Col or
Writ ing
Allowed IPs
L iant
P ersistent
b rw
m en
r ans
Ġt em
en ch
ed ir
Ġb Interface
IN TR
IN DEX
bo ld
eb tables
000 6
lock ing
sys init
uc ial
ick et
rsync d
therm al
DES KTOP
Ġ167772 16
Ġdong le
ĠWARRAN TY
I nd
M odes
g ame
n w
re dir
Ġc os
Ġf us
Ġ2 28
Ġv ict
ain er
ĠD EST
Ġun allocated
0000 03
tu ff
AL I
77 77
/* '
Ġro ck
ok ed
Ġbl a
hel o
squash fs
POL L
ĠSuccess fully
administr ator
infin ity
Ġresum ed
establ ished
7 30
= @
I ssue
t ol
t rip
} %
Ġm angling
Ġn am
Ġre nt
de a
im agick
Ġby obu
Ġ5 0000
44 2
88 2
ĠSIG CHLD
ĠAllow TcpForwarding
Ġvir tually
Ġsig set
List ener
Ġ'[ '
rsyslog d
dav id
ĠFOR MAT
ĠEm pty
ĠComput e
Ġ604 800
3 19
5 29
> @<
I ED
c x
h ugepages
x digit
Ġd ry
un ing
Ġ" +%
ĠS uffix
Ġdo able
ĠM at
ap se
=" \[\
Ġcl ause
Ġconfigure s
ĠBut ton
ĠAs k
Ġmis configured
CL OSE
align ment
%% %%
ĠCIRC UM
ran et
ĠPER F
4 86
8 13
V PS
a q
m uch
x kb
Ġpro bes
Ġch r
Ġun share
ĠF ire
ĠF NR
ĠE macs
cl mul
host ing
Ġim g
Ġdifferent iate
Ġmem cached
ĠSSH D
apt itude
200 2
alias ing
SU DO
document s
gp io
Ġrpc bind
ĠRight s
Public Key
ĠIM HO
Ġcave ats
ĠCIRCUM FLEX
7 26
F PM
S ingle
w orm
is erver
ĠS orry
Ġ/ '
ER TIFIC
Ġpre t
tr aditional
In noDB
Ġcomp et
Ġx dg
Ġhard links
96 1
aut htok
admin er
QU OT
mon tools
Ġactiv ities
Ġdisconnect s
custom er
Ġthous and
Ġconsult ed
Pri ority
ĠKEX INIT
Ġinsu fficient
xdot ool
C OR
T echn
g etc
ac on
Ġre writing
Ġe ye
Ġ2 60
Ġex cerpt
Ġch assis
ĠU id
Ġsp ikes
ĠT ell
Ġi ke
âĶĢâĶĢâĶĢâĶĢâĶĢâĶĢâĶĢâĶĢ âĶĢâĶĢâĶ
Ġ10 23
Ġpre sents
ĠĠĠĠĠĠĠĠĠĠĠĠĠĠĠĠĠĠĠĠĠĠĠĠĠĠĠĠĠĠĠĠ ĠĠĠĠĠĠĠĠĠĠĠĠĠĠĠ
ee e
SO FT
*. *
Add r
Ġcontin ued
SER IAL
fl to
Ġalloc ates
Ġrm dir
Ġsur face
Dis ks
Ġpick ing
Ġresearch ing
ĠList ening
Second ly
ĠLe ft
fall back
Cal endar
ĠDAT ABASE
Ġexplan ations
CIP HER
0 64
: ?
R hosts
S napshot
in correct
Ġf idd
Ġd ock
Ġm pt
Ġn is
ĠS OL
ag ine
ĠP ersistence
ĠN C
ap ic
Ġ3 10
Ġ3 05
ĠE CC
pro x
cc iss
88 3
Ġtarget ing
98 1
MM MM
Ġbegin ner
Ġrw x
SV N
Ġsmb client
ĠWin SCP
ĠWire guard
ĠAre a
ĠâĨ ³
Ident ityFile
ean ing
ĠFW DI
Ġsprint f
ERTIFIC ATE
4 19
8 40
A PT
F acility
M ASTER
b p
v ention
Ġp ic
Ġ- /
un reclaimable
ĠR EST
Ġ3 50
Ġany ways
Ġwhat s
04 000000
get opt
So ft
Ġcompil ers
Ġalloc ations
PID FILE
ĠBSD s
mong o
ĠPTR ACE
ĠADD RESS
Ġexpos es
embed ded
Ġsupplement ary
5 92
b ang
ad just
ess er
ĠH elp
RE SET
rep eat
Ġhard coded
SE Q
Log ical
âĶĢâĶĢâĶĢâĶĢâĶĢâĶĢâĶĢâĶĢâĶĢâĶĢâĶĢâĶĢ âĶ
tim ers
ĠUP DATE
ĠLOG DROP
ĠER ANGE
Ġtroubl es
ĠIm port
dist ribution
LV L
D ST
F irmware
Z illa
b um
c ity
h uman
w mem
Ġw izard
Ġm time
ve y
Ġbe gan
Ġv ault
Ġne at
ĠC innamon
ĠL in
ĠE nt
sp i
uct or
ph ase
Ġboot strap
Ġ% %
DE LETE
Ġ100 3
press ed
Ġsyslog d
Ġplan ned
Ġdistin ction
Ġdeleg ate
ORM AL
6 36
9 80
K A
f lex
u wsgi
x inetd
z ens
Ġth r
ll a
Ġh id
out file
âĶĢâĶĢâĶĢâĶĢ âĶĢâĶĢâĶĢâĶ
ach ines
Ġmy hostname
Ġk dc
ĠE mail
Ġchang elog
Ġcode page
AL S
Ġdown grade
Ġarch ived
Ġmean ings
Ġincre d
rt c
fl ac
cy gwin
ĠFW DO
UNS PEC
Ġpow ers
. ?
P PID
T AP
b attery
p ot
p map
y a
Ã Ĺ
Ġh am
as an
un ion
ĠE ACCES
etc d
Ġsom etime
58 1
De le
87 5
Ġro ad
based Authentication
Ġimprove ments
Ġspawn s
Ġhibern ation
ĠTemp orary
% /*
4 05
N ormal
T w
\ ",
Ġth reat
Ġl oo
ĠS LA
Ġha ir
ĠP ACK
ĠL inode
ĠM ongoDB
Ġ' !
Ġpre serves
LE NGTH
my website
sys root
07 4
LO OP
aut ostart
68 7
SE ARCH
Ġplace holder
web app
mysql client
Ġ<< '
Ġdeli ber
Ġinsp ection
ĠFollow ing
/ ../
D L
T ra
W I
W ait
W strict
e gg
w q
Ġre vis
oc us
ach ectl
ĠM IME
ĠM onday
Ġ3 0000
ĠF R
ust rate
oo b
Ġres ized
ĠIP tables
44 44
ĠJ BOD
man master
96 60
rid ay
ffff f
Ġnet link
ĠCh ild
ploy ment
count ry
Ġgraph ic
dat as
Ġarbit r
Ġdelimit ers
Ab ort
Trans fer
}: ${
hist icated
ĠDES C
ĠWay land
+ \\
M usic
T ree
g ist
h icolor
Ġ udisks
ce ph
Ġun installed
ĠT ag
Ġrout able
IC H
sc r
Ġcharacter istics
rm dir
ĠRE P
Ġprevent ed
vers es
Ġview er
defin itions
Ġconstruct or
LA CE
Ġund erneath
Ġemploy ees
Ġ"{ }"
Ġconfir ms
repl acement
PUB LIC
) #
4 02
h ar
k w
Ġt orrent
Ġb at
ĠC X
Ġ' ]'
ĠG id
ID GE
sp f
Ġremote host
mount d
admin s
IG H
Exec uting
ĠAl pine
Ġconver ter
Work station
compil ing
WIN DOWS
ĠCustom Log
Direct Map
ĠHope fully
Ġinvent ory
Ġgrate ful
G UID
g ov
| $
Ġa ver
at ectl
Ġp ixel
Ġm sd
Ġan t
Ġl ic
Ġg unicorn
Ġv ms
ĠD FS
ĠP ull
ĠL oc
Ġ3 13
port al
Ġget line
ass andra
te le
set s
AD V
AB ILITY
ĠRe fer
DI ST
/* "
=( $
ĠSh adow
Mount ing
Ġpref etch
ĠLive CD
escap ed
gun icorn
ĠFl ash
Ġhibern ate
Ġinterfer ing
Ġ'... ';
pwn am
7 46
R andom
m cast
r g
r ings
v sv
Ġa zure
Ġ- -------
up le
Ġv arnish
iv ot
AT IB
AC M
ĉĉĉĉ ĉĉĠĠ
03 00
mb ed
59 3
Start Limit
87 0
ĠConnect ions
Ġflo or
âĶĢâĶĢâĶĢâĶĢâĶĢâĶĢâĶĢâĶĢâĶĢâĶĢâĶĢâĶĢâĶĢâĶĢâĶĢâĶ ¤
Ġexpos ing
E ssentially
e ues
p ager
t age
} [
in er
Ġp trace
ot onic
Ġr apid
.. )
ĠC ST
gh i
Ġ] *
AD IUS
08 1
Ġhand ful
mb ig
list ener
Ġobject ive
dr aw
CH ILD
Ġvis udo
Ġtouch ing
ĠMod ules
nam i
Ġclar ification
Trans port
MAIL TO
Ġmasquer ading
Ġalph an
CONTROL LED
Ġlin er
appro priate
( *)
1 000000
T UN
` -
g pl
Ġn ouveau
ĠS EEK
Ġrun n
ĠN um
ĠW DC
Ġ7 20
Ġtra efik
Ġsever e
pack ing
off line
Log Vol
kill er
Ġ** :
Work er
ĠAdmin s
ĠÂ «
follow ing
Comm it
Ġpredict able
ĠResol ution
12345678 90
ĠbDescriptor Type
4 15
5 48
7 04
I con
X t
s ized
in place
Ġp icks
om it
Ġtr acer
Ġ3 65
Ġ6 000
ass ets
Ġover writes
alloc a
resol ver
GP L
Pl ugin
ĠDown load
Vari able
exact ly
b pf
l rwx
p errno
Ġw idget
Ġst unnel
ĠD DR
ip c
16 384
ĠF PU
ĠIP MI
Ġback plane
arg z
lock mgr
ĠIn side
enc oded
Con s
59 00
cont rib
SE ED
pk t
Ġvm stat
tim ately
ĠNet gear
GP G
Ġsock p
Process or
Ġlack ing
Ġsyscall s
erg y
Ġvary ing
rand r
ĠBro ken
ipt able
tutorial s
Ġann oun
âŀ ľ
R q
om as
Ġe ject
Ġ( +
ab e
ist ed
Ġun des
sd x
LE G
IT ICAL
:: [
37 44
ĠCon vert
lect ron
UR ITY
ĠCh ain
ĠPC LMUL
catal og
nv L
+=(" $
A ut
m h
p ane
Ġ/ \
ur ls
pp a
ĠM C
ĠN vidia
Ġadd itions
Ġ3 19
Ġres ident
ph ane
mb uild
78 2
ĠQ oS
sequ ence
des ign
HEAD ER
Load er
Over flow
ĠExecStart Pre
Ġhealth y
dro pped
5 28
D b
N za
w er
Ġm asks
Ġm utex
Ġh om
ro ck
ab yte
Ġ" )
Ġ" \"
Ġr f
Ġr tl
ir t
ĠD ro
ĠR ule
ĠN either
ĠF AN
Ġ8 28
config s
05 3
45 3
ĠY et
Ġstd io
ok en
Ġparent s
ĠDis ks
cnt rl
Ġbook s
idmap d
WAR N
ĠEncrypt ion
âĨ Ĵ
ĠCond ition
N V
g ro
an al
Ġin tu
Ġg roff
ĠS ay
Ġwork loads
Ġuser id
ĠV o
-------- -
Ġfun ny
IT LE
Ġpoint less
vm ail
CO UNTER
priv key
ĠSpec ific
program s
switch port
Ġanal y
Ġdead line
WORK DIR
och arset
Ġlos es
4 38
P IP
_ "
f am
k ub
s omed
t if
ll y
Ġl m
un share
Ġnot ified
Ġdo zens
Ġne arest
ĠH ead
Ġpr one
my ip
Ġid Vendor
Ġem ulators
06 3
Ġinitial izer
Ġexper iments
Ġtunnel ed
depend encies
Ġintro duces
Ġrisk y
Ġflow id
ĠMin imum
ĠPar ameter
ptr ace
Ret urn
Thread s
qq qq
ĠDefin ition
Sy mb
ĠNTL M
METHO D
7 80
E lement
N ER
S ENT
d iagnostics
e of
k ed
| :
Ġs b
es k
it z
Ġ( \
Ġg ap
Ġv x
ol id
ĠC LOCK
ĠN ex
Ġun ified
Ġun attended
ĠE BAD
ign ored
Ġtrans formation
UR G
bers ome
stit ute
Ġmis configuration
rpc bind
AV R
Ġsuperblock s
Ġsnipp ets
================================================================ ===========
Ġindirect ly
ĠIPT ABLES
6 04
X mx
] -
Ñ ģ
Ġc wd
Ġm c
Ġe fi
ĠD ay
ĠR ules
ĠT Sec
Ġme as
âĶĢâĶĢâĶĢâĶĢâĶĢâĶĢâĶĢâĶĢâĶĢâĶĢâĶĢâĶĢâĶĢâĶĢâĶĢâĶĢ âĶ
Ġ00 4
sa ver
Ġenvironment al
76 1
Ġrep et
Ġsepar ators
/* ","/
BU F
bb bb
Ġenv z
END OR
Po E
ĠGnu PG
hit count
ALI AS
ĠTSec r
" ="
4 32
W X
\ :
m sp
n cat
ut l
Ġ( '\
ĠS L
ĠG TK
Ġinter procedural
Ġqu er
UT ION
sys rq
Ġid Product
pre fork
print ing
${ (
59 1
bl es
Ġali ased
CH AIN
char acters
rr p
Ġcur ly
SOCK ET
Ġarri ved
Ġill ustrate
Ġheur istic
ĠVis ual
delimit er
@ [
l legal
Ġc upsd
Ġm lock
ec l
ĠA ir
Ġserver name
ĠL ater
ĠU tility
gr ant
Ġle ap
Ġ6 64
Ġstat istic
Ġown ers
Ġem ulated
Ch rootDirectory
ĠPro Liant
SSL v
.* '
Ġcomment ing
filter ed
fl ate
ĠRead y
ĠNet filter
TH IS
ĠClient s
ĠProgram s
Ġresolv conf
NE ED
lif e
PK G
Ġtheoret ical
C IRC
c ategory
d yn
i ents
u ity
Ġm es
Ġ" \\
ĠS ucceeded
Ġsh ape
Ġres uming
Ġret ained
Ġser vic
UN IT
RI VE
null glob
Ġimport ing
call ing
Ġmark et
ĠTr ust
match ed
ĠRed is
IF DIR
Ġfall ing
Ġsop histicated
% /
L ARGE
S uch
t n
est ingly
ig ible
Ġv ast
ĠC atal
ĠM issing
ĠN SS
0000 02
18 00
iss ible
Ġedit ors
Ġnode js
Ġblan ks
super visord
Comp ression
ĠCap acity
duplic ate
ĠTS val
ĠSeg ments
Ġwarrant y
4 24
P ED
c apture
v ides
z h
} /.
Ġn oc
Ġn autilus
un auth
Ġ0 666
ĠL icensed
Ġj unk
ĠG P
fs et
Ġnetwork d
AC LE
Ġrel ocation
Ġconsider ations
LOG IN
label s
Ġ000 2
Ġhack ing
Ġcollect ing
Arch ive
============ ==
Rest ore
Ġhonest ly
) !
8 64
L at
[ ,
Ġt ed
un ter
Ġ( ==)
Ġex c
Ġsh op
ĠR U
Ġ[ "/
net bios
pr inter
Ġtrans ient
SC AN
Ġcr ack
XXXX XX
gu ess
>/ <
Ġjo e
ĠMount ing
Ġ--------- ---
Ġdecrypt ed
Ġforgot ten
Ġhyp hen
ĠXSA VE
adv ise
atell ite
J K
N AP
t ried
Ġc ook
Ġb Length
an stalk
Ġbe gun
Ġ" :"
ere po
ĠD ovecot
ond uctor
15 36
xt end
Ġ+ ----------------
my name
07 9
100 5
Ġrepl ica
EX IST
Ġnext cloud
Ġes cal
DB C
Ġ0000 0001
some user
pa que
Ġco ord
termin fo
track ing
Ġconsum es
Ġ'- '
quer ade
Ġcandid ates
Ġassert ion
resum ably
+ ="/
5 17
L DP
T urns
U AGE
h am
Ġt sc
ed y
Ġb ul
us ec
Ġst umped
ĠS afari
ĠR everse
Ġun def
32 767
Ġrec ycle
SS t
ĉĉĉĉ ĉĉ
49 3
AM L
78 1
xxxx xxx
sim d
ĠPower Edge
Ġed uc
ĠON E
Ġpod man
ĠAuth or
ĠPo ll
ĠSU DO
predict able
ĠDen ied
ĠLibre SSL
SCH ED
@ (
L ines
M ARY
S w
Ġa pk
re served
at op
Ġn lockmgr
ĠR OUT
Ġac quired
Ġcr aw
XXXX X
switch es
Ġxen ial
icon v
ĠVari ables
-+-+ -+-+
Ġske w
Ġado pt
Ġabstr action
CIRC LEQ
S ugg
U ES
[ +
Ġb und
Ġyou t
am on
An on
ĠD elay
Ġ| __
Ġqu ir
Ġpack aging
ĠX Y
client addr
Ġaw ful
ĠVPN s
spec ifically
Ġ27 5
amd gpu
ĠAP P
SN AP
amb da
Ġbog us
affect ed
> ?
J ournal
T ED
V L
d uration
h oc
u j
is a
Ġf st
Ġm ce
Ġv lc
pp id
ĠP ATTERN
ĠO rigin
ĠT oday
key file
ĠB an
Ġ8 443
=" --
user content
Ġsub domains
Ġ} "
direct ly
uc ed
Ġbr ain
Ġdev tmpfs
46 1
Ġfree ly
FA Q
Ġcp us
Ġfact ory
SIG TERM
Client AliveInterval
PO INTOPOINT
Ġencounter ing
Ġdr ag
-* -
UM NS
Ã© phane
ograph y
ĠOut look
ĠÂłĠÂł ĠÂłĠÂł
ĠSy ntax
migr ation
Ġwast ed
Ġspoof ing
Ġconvers ation
ĠEBAD F
A bove
A FAIK
M K
T ID
ã Ĥ
in file
Ġf ul
le ak
Ġin conven
im edia
Ġ2 92
Ġch arg
ĠP latform
ĠM ichael
Ġun int
con verted
local net
ib l
") '
Ġlib x
TR AN
cap able
spec s
Exec Reload
rd iff
stit ution
Ġdat etime
Ġfetch ing
Ġliteral s
TMP DIR
cover age
Ġcum bersome
T rack
c ement
m add
w eed
Ġb all
le arn
ri eve
ĠS ign
se ems
sh aring
ĠD DoS
od o
Ġadd if
Ġ' ;'
10 22
ple x
org an
Ġhard ly
AME TER
Ġ18 00
comp onent
Ġls mod
TR UE
tain ed
mk config
ĠMet a
Ġorigin ated
IM G
tin ue
/ `
H AVE
S wan
W T
w ins
Ġo vpn
Ġ- ------------------------
ĠI MPORT
Ġcon crete
ol f
ol ite
Ġch grp
Ġch romium
ĠT RIM
Ġpack ed
rw s
Ġsub tle
get time
Ġblock size
ĠPro perties
OL L
got o
clo sure
Ġlabel ed
655 34
Ġschem es
xv db
ĠUSER NAME
Ġinherit ance
cient ific
tem ps
beh ind
Ġdestro ys
Ġstum bled
/ __
4 14
P ictures
¼ âĶĢâĶĢâĶĢâĶĢâĶĢâĶĢâĶĢâĶĢâĶĢâĶĢâĶĢâĶĢâĶĢâĶĢâĶĢâĶĢâĶĢâĶĢâĶĢâĶĢâĶĢâĶĢâĶĢâĶĢâĶĢâĶĢâĶĢâĶĢâĶĢâĶĢâĶĢâĶĢ
re serve
re xit
Ġp aid
Ġp sql
ic onductor
ĠD el
ĠG e
ĠG LOB
ĠV m
Ġam biguous
ĠRA X
100 4
Ġproxy ing
AG G
Ġbin utils
******** ****
bind ing
OF FSET
ios k
Install ation
view s
ĠTest ing
Ġmeant ime
Arch itecture
Pl ug
Option al
ĠDet ails
Off set
Ġintention ally
STD OUT
icen sing
Fil ename
% -
d sp
n vm
p stree
ot a
Ġh ierarch
un icode
ĠS ample
ĠD i
ĠE AP
ĠE mask
Ġsub tree
AN SI
min ecraft
test dir
48 1
FI FO
ched ule
Ġexperi ences
ĠMac Book
SIG HUP
Ġwarn ed
Mem Free
serv ative
Comp are
Ġll addr
FE ATURE
Ġbench marks
Ġmong o
Mult i
Ġreve als
Ġaggreg ation
Ġcal endar
Ġil legal
Ġdatagram s
ĠSchedul er
ĠCHAR ACTER
Ġvert ical
" },
C lean
D ouble
b uff
c acert
l xd
Ġc b
Ġbe ware
ĠS onic
ss erver
Ġde gree
ĠP ulseAudio
Ġ< >
Ġ{ $
Ġab use
Ġsub rout
30 73
rc pt
list ed
ĠOS PF
68 5
Ġmail x
fre qu
89 5
Res et
separ ate
UST OM
Force Command
Empty Passwords
G e
G l
T urn
[ ${
f ac
{ '
Ġh ugepages
un ately
Ġst or
ĠS ure
ĠP ING
ĠR ack
ĠG ithub
ix er
mp m
wh ether
Ch ar
by addr
Re ason
IL TIN
Ġarch iving
sup p
sup ports
mc model
MI SC
ĠGo ogling
Ġ123 456
ĠLV s
Ġsynchron ous
monitor ing
Ġmill ions
Ġsysadmin s
Private Key
Ġaggreg ate
^@^@^@^@^@^@^@^@ ^@^@^@^@^@^@^@^@
cit i
ĠSem iconductor
4 16
E MS
M a
v mdk
is ement
Ġe at
ab solute
Ġ2 96
Ġpro s
pp pd
ĠO ID
ord ering
Ġhost byte
48 2
Ġph otos
100 7
Ġ./ $
97 3
67 9
az e
CT ION
Ġrecommend s
Ġreload ed
Ġdecom p
% "
O wner
T op
d im
k bit
er as
Ġd avid
ĠS te
Ġ2 21
dd dd
ĠE cho
Ġ4 07
ĠG ive
log ic
ob uf
ĠSt retch
Ġser v
ĠEx pect
Ġdriver byte
Ġpartic ip
Ġspecial ized
Ġzero es
Ġvm x
Ġte ach
iment al
Mode m
Ġdash board
Write back
Mult iple
ĠFr agment
Ġreput ation
, _
g rid
s ip
} (
en ess
Ġb b
th us
Ġde fect
ĠC E
ĠN A
ĠF ault
Ġ* ***
ĠV Box
read ed
Ġcomp osed
ph ones
AP ER
UR ATION
ĠEx cept
OT H
Host Name
[@ ]
Ġ^ [
ĠFree NAS
]* \)
aim a
]+ )
Could n
uni verse
Ġseek ing
Ġur ls
optim izations
Ġhab it
Nza C
4 18
5 99
= ~/
G raph
U pload
m queue
v net
â Ŀ¯
Ġ ul
Ġt icks
Ġs z
st e
ic ing
Ġh ybrid
ĠS HO
ĠC UR
Ġsp ending
Ġ5 001
lib gcc
Ġint ellig
full chain
TO KEN
Ġmeasure ments
Mem Total
bal ancing
Ġhardd rive
Ġstan za
digital ocean
Ġautore move
( __
* |
0 50
4 55
F M
T V
V ery
h k
on ing
or ge
Ġl ighttpd
Ġ( _
sh eet
ĠB andwidth
ous er
Ex port
UN KNOWN
Ġident ities
Ġ26 06
fl t
Up dated
att ached
quot ing
Per formance
keep ing
Ġhot plug
ĠÃ ¢
ĠComp are
Web Kit
Ġgrant ing
Ġep el
sem anage
oct o
Ġarbitr arily
5 16
C o
C SV
H EX
O D
O pt
T G
d ave
k in
n ish
p as
p ear
t urn
Ġis alpha
ĠD ER
ple t
ĠE AGAIN
Ġev ol
86 08
Ġdid nt
ĠUn used
Ġq mail
valid ate
cent ral
PRO G
Ġcd rom
[@ ]:
Ġvis ited
Ġ.. ...
Ġstri ped
Ġreflect ed
Ġarri ving
Sc enario
iw config
Ġflaw lessly
2 99
4 36
B esides
N EG
Ġ QUESTION
Ġm art
ar aid
ec ache
ĠS napshot
ĠC ipher
Ġun modified
con a
ĠE E
08 3
Ġgr ade
Ġdebug fs
Start ed
sol ution
trans action
PID File
prec ise
Ġpull s
Ġhor rible
kube let
scal ing
Ġnegoti ate
" ...
0 30
4 64
4 11
C lose
M IPS
q disc
Ġs q
or iented
Ġin activity
Ġre names
00 30
if etime
ĠL ong
ĠR andom
Ġ' :'
Ġ3 11
Ġen h
RE W
min utes
__ .
ĠIN TER
File Name
Ġpid file
Ġdr ain
lu a
wire shark
\( [^
Ġexpen se
Ġunplug ged
).* /\
GSSAPI Authentication
Ġunt ouched
Ġmsd os
8 55
b elow
Ġc nt
Ġn x
Ġ0 775
ĠR IP
Ġecho ing
56 20
Ġpar anoid
auth z
head s
sl apd
eg acy
Ġclear er
Up on
uri al
ĠExec uting
Ġ\" %
Ġplain text
Ġsql ite
Administr ators
aaaaaaaaaaaaaaaa aaaaaaaaaaaaaaaa
Ġsurround ing
C orrect
Q t
S yn
U C
V C
b ypass
h ol
m ike
m knod
Ġo paque
ar re
am ong
Ġg tk
ig ating
ch a
Ġ' "\
Ġpart ner
Ġav c
Ġad mit
rc v
Ġz en
Ġ... ).
Ġhad n
ĠServer Fault
Ġenc ounters
Ġicmp v
gen e
wait ing
Ġextract s
Ġreser v
Ġrev oke
Ġjoin ing
Ġtc sh
push d
ACT ED
Ġmong od
Ġult imate
FY I
Ġthrottl ing
Ġstre ngth
? '
D ID
L ow
_ '
p ow
Ã Ĳ
Ġc ali
le ave
st aff
Ġin itscript
ly mouth
qu ir
qu ality
ĠD ifferent
ĠP a
Ġ3 45
20 49
Ġ4 500
Ġma pper
04 1
Ġx attr
Ġ15 2
ĠNet BSD
Ġsv ctm
WOR DS
fp ic
Be gin
Part ed
/, /
Ident ity
Ġfragment ed
:+ ($
ĠPRI VATE
ĠAutom atically
ĠAAA AB
D elay
T AIL
m ke
Ġt a
ut line
un ar
Ġg ear
ĠS leep
Ġ2 77
Ġout lined
IN ATION
ĠIP A
Ġ6 60
av en
pr inters
Ġecho ed
Ġx y
my folder
ob viously
Ġ17 1
Ġlib ssl
ĠJan uary
writ er
Ġdisconnect ing
sequ ently
Ġ--------- -------
Ġdom U
ara vel
$ #
G U
] '.
i ocharset
Ġm ux
ut ure
Ġe BPF
Ġpro hibited
sh im
Ġ3 90
ĠE SMTP
ĠB inary
Ġsome user
19 18
sd l
rep odata
Ġlocal time
be ing
ĠOpen WRT
depend s
Ass ume
cur r
Ġrepro ducible
ĠComm unity
Ġgen e
Ġrad ius
prep are
ĠXF CE
ĠSUS v
5 77
M ER
g reat
l as
Ġr diff
ĠD ual
Ġmy username
ĠF UTEX
key word
ĠH UP
pro of
Ġ\ [
run ch
VM ware
max imum
$( ...)
TCP KeepAlive
DEN IED
Ġprinc ip
ĠSequ ence
Ġdiscip line
6 16
8 78
A H
c ab
n u
t ot
Ġt ack
Ġp aging
ic as
ĠS BS
ĠS uspend
Ġ2 31
Ġas h
Ġtr ough
Ġk ilobytes
ĠN UM
Ġ3 33
10 28
10 88
Ġar ise
gr q
lib nss
Ġab stract
Ġret ention
ĠAC TIVE
Ġag re
rid ged
PRO JECT
Ġcar ried
trans late
Ġbal anced
roll ing
adb and
Sl ave
ĠWAR N
ĠNU MA
LAG S
mbed ded
: **
a ug
t gt
z c
Ġp d
Ġin nodb
Ġl stat
Ġst e
ess ages
ĠP ur
10 68
ĠV D
fore ground
not ification
ĠAllow s
ĠRec ently
ĠIgn oring
he artbeat
pattern s
GG CC
ĠRPM s
VID ER
Ġfrag ments
âĸĴâĸĴâĸĴâĸĴ âĸĴâĸĴâĸĴâĸĴ
Ġparalle li
Ġposit ives
ATIB ILITY
+ .
C FLAGS
M aking
N OS
g ue
i q
v sync
Ġr sh
Ġcan ce
bin dd
SH OT
Ġversion ing
Ġevery day
Ġgroup ed
be ans
Ġform ed
Ġhard ening
over commit
Ġcr ucial
User Name
att ack
ĠJun e
Dis claimer
cgroup s
ĠCall ing
pipe fs
DEF ROUTE
ĠHEAD NAME
Ġbrief ly
umble weed
roubleshoot ing
" _
3 64
M i
R Y
Z one
k p
Ã ¶
in structions
Ġf ruit
Ġst ages
Ġpro xmox
ĠP os
Ġ4 01
ĠĠĠĠĠĠĠĠĠĠĠĠĠĠĠĠĠĠĠĠĠĠĠĠĠĠĠĠĠĠĠĠ ĠĠĠĠĠĠĠĠĠĠĠĠĠĠĠĠĠĠĠĠĠĠĠ
ĠCh anges
ĠAL SA
ĠPRE EMPT
Ġfac il
AUTHOR S
TX T
ĠBuild ing
Ġgather ed
Ġchoo ses
rq m
clam ation
Ġrever sed
9 31
B uffer
O rigin
a way
l ake
l uc
n es
s olic
Ġf etched
Ġn est
un safe
Ġde fe
Ġsh mem
Ġtr aces
Qu ick
ĠH MAC
log level
Ġpre processed
St d
57 1
DI O
Ġstructure d
fw d
ĠCom ment
Test ed
inc ipal
Ġconcern ing
ĠMin i
End Section
ĠARM v
Ġavg qu
fall through
Oper ating
Project s
remov able
ĠFX SR
, .
0 80
\ ;
j d
j e
t oc
or um
Ġw char
de ep
Ġ" ")
ip config
erm icro
ĠH ERE
Ġres il
Ġ6 83
Ġkey map
Ġsub mitted
Ġcl am
Ġu wsgi
Ġexpl ore
00000000 0000
OT I
DP ATH
pg id
Ġcap s
api Version
real path
Ġconstruct ed
ĠTrans port
ĠInstall ation
Ġpay ing
Ġxx d
Ġntp date
cyber citi
" $(
6 08
V ENDOR
p ast
t ell
y les
Ġc gi
Ġb order
Ġy ellow
Ġg edit
Ġnot ion
Ġch alleng
Ġk worker
Ġ3 389
). )
eb b
Ġx randr
Ġpl ot
pre m
pre sum
Ġ) ?
docker d
ĠZ abbix
mv is
ĠApp ly
ĠSp in
fact ory
Ġretrie ving
ÂłÂłÂłÂłÂłÂłÂłÂł ÂłÂłÂłÂłÂłÂłÂłÂł
Ġhyp oth
Ġmag n
ĠPASS WORD
Kill Mode
##*/ }
Ġscrew ed
Ġnex thop
Ġadj acent
LARGE FILE
4 33
C NT
P os
P arent
m ixed
Ġf sync
Ġb g
st on
us able
Ġh ood
Ġ1 111
ol phin
sh op
ĠP OS
Ġ3 23
ĠF ALSE
ĠO VH
Ġinter vention
gr pc
Ġspec ulative
wh itespace
user id
Ġsepar ating
mem bers
work dir
Ġshut s
sol r
nc urses
ĠUN IT
hand led
ref lect
Ġautocom plete
Ġperipher al
* ]
4 59
7 23
= +
G UI
S NAT
T ables
T itle
W aiting
u an
} }'
Ġp key
Ġcom bo
Ġas ym
ĠC ERTIFICATE
ĠR DS
ĠT V
file path
var nish
IT OR
ING S
Ġ... '
Ġpass db
Ġfirewall ing
ven v
Ġlength s
Ġwait ed
ĠWith in
ĠEC HO
ĠNOT ES
Ġtouch pad
oop s
ĠSl ackware
Le ft
Ġow ning
) =
8 56
f ro
g disk
n P
q s
Ġc ope
ec e
ĠM fr
Ġk ern
ĠF il
ĠE mit
Ġdis own
host file
Re pl
Ġ"${ #
Ġstack s
=${ #
cr aft
Ġlight dm
Gb E
tri m
BL K
???????? ?
Ġgc ov
Syslog Facility
ĠDri ves
mpt ype
6 29
A RE
j g
m call
er on
er ate
Ġm ot
am my
Ġun block
16 00
19 99
EN TS
Ġend ings
St atic
Ch oose
fre ebsd
Ġpast ing
Ġdeploy ments
vv vv
TIME FORMAT
Ġ'\ ''
sim pl
Ġevalu ating
Ġct x
Ġaccident al
ntlm ssp
Ġsummar ize
Ġvml inuz
WRON LY
2 92
6 07
B al
F ULL
H ID
O G
o il
r ac
Ġs fdisk
on na
ĠI MO
Ġl uc
Ġr ss
ĠS plit
int ro
Ġ5 13
Ġ10 49
tr unk
ĠAC C
fre er
uck ets
MI ME
Ġpk alg
Ġdrop box
Ġbound s
]* )
Path s
ĠHD A
ĠRest rict
STD IN
Ġintermit tent
Ġadequ ate
0 25
4 92
8 45
P AGE
i ans
m nd
z ram
Ġc ms
Ġb z
Ġp b
Ġm cast
Ġh ered
ve xtend
un register
Ġr rqm
op her
Ġch dir
Ġ[ {
Ġun e
Ġcont rary
ead m
Ġ9 93
local user
Ġ] [
Ġu as
UN DEF
66 5
LIN ENO
Ġview s
array s
Rem ov
NOP ASSWD
MAIN PID
Ġincrement ed
202 10
graph ics
ĠOver flow
Resol ving
Ġrer un
) }\
6 96
9 06
Q Q
h dmi
o L
s orry
v in
Ġm un
st unnel
ad ic
Ġ0 22
ch at
ĠD jango
ĠP TY
Ġli kes
Ġun recognized
ĠF MA
key map
Ġdis ag
Ġ. /.
Ġkey file
Ġab sent
Ġover ly
ml ittle
get text
Ġem its
++ -
Ġrel ate
Ġcol ons
De leg
With in
Ġut un
ĠSIG USR
DF L
Ġfs uid
Ġdr bd
Ġmicro code
autom atic
Wire less
ĠPY THON
Ġyout ube
NEG OTI
+ =$
4 23
8 30
F ast
H Z
L aptop
S ent
d uring
m us
Ġl id
Ġre open
ĠD avid
end o
Ġk s
ĠN ove
Ġ3 17
ĠO ften
int ranet
Ġ4 294967295
lic es
get attr
Ġlib stdc
fc gi
cent re
Up grade
ĠUser KnownHostsFile
ĠSh ift
ĠRem oved
Be ware
Ġreload ing
-* -*
nn n
conn limit
Ġinject ion
Des ired
ĠCRE ATED
recur sion
. ###
3 32
C ycle
K DE
K HTML
R G
T b
c we
j i
m il
in form
Ġa ufs
Ġl dd
Ġal ice
nd ns
Ġwr qm
gh dr
ĠĠĠĠĠĠĠĠĠĠĠĠĠĠĠĠĠĠĠĠĠĠĠĠĠĠĠĠĠĠĠĠ ĠĠĠĠĠĠĠĠĠĠĠĠĠĠ
Ġav grq
Ġass ets
ne on
US ED
comp oser
work group
Ġnat urally
QU AL
class es
arm hf
Ġpk t
ĠSSL Certificate
bas ically
Ġnotice able
<< -
APP END
:-- :--
6 97
L ive
P y
d ont
n bd
o dd
v fb
w ired
en es
Ġd jango
Ġp it
Ġp cap
Ġl vs
ex cluded
Ġ4 294967
-------- -----
RE START
ĠIN ST
Ġcl ash
man ually
05 1
Ex tra
Ġdec iding
exec uted
ĠUn its
cd a
Ġbehav ing
sub domain
[^ [:
Be an
resp awn
ĠPre fer
STR G
ĠLook s
Att ributes
Ġstud y
ĠPO PCNT
Ġheur istics
Trace back
pay load
" [
5 27
B K
H ence
V ault
_ *.
m ad
in ator
Ġs anit
Ġb rightness
om press
Ġe gid
Ġr ails
Ġ2 41
ch sh
ĠL ight
ĠM ed
ĠM ASTER
ant ec
Ġ' #
ple tion
Ġ4 76
Ġver batim
Ġread ers
Ġstr len
Ġover commit
Ġwe ar
set attr
ĠIt em
uct ure
test er
ĠCon s
Ġbit wise
Server AliveInterval
cap abilities
ret ries
ok ing
pub lish
ĠEX AMP
zone info
Ġ'^ ]'.
(.* )$
=(" ${
ĠApple WebKit
Ġanalog ous
iot op
Ġprotot ype
ĠEurope an
esser act
Ġquer ied
6 22
L UKS
M otd
S F
c are
p xe
v lc
Ġs ip
le ases
ec lipse
Ġ/ ,
ĠC orrect
ĠL IM
ĠM bit
Ġ8 25
Ġ\ [\
30 72
rem ember
Open SSL
PRO GRAM
verse ly
und ant
HOST S
ĠUp dating
depend ency
Ġintro duction
Str ictHostKeyChecking
track ed
dead line
prefer ably
FORM ATION
sq rt
3 18
4 28
= |
E MP
I ZE
L BA
L AMP
c ff
Ġp select
Ġm b
ab ab
th etic
pp k
ĠL aunch
ĠM obile
Ġ3 36
iz on
ĠE nsure
Ġ4 82
ass ert
Ġsol aris
Ġmult ibyte
sm ith
ĠDo S
/$ $/
Ġbl indly
ĠâĶľ âĶĢâĶĢâĶĢâĶĢâĶĢâĶĢâĶĢâĶĢâĶĢâĶĢâĶĢâĶ
format ted
Ġpop s
Man aged
rit ical
SN MP
Ġdecrypt ion
ĠFr ame
ĠPr inter
spring framework
Ġalphan umeric
Ġdecomp ression
6 05
B ar
D ynamic
f user
h ood
Ġm ime
Ġm knod
Ġn ut
un ication
Ġ" !
ĠP T
ĠM is
ĠN L
Ġ3 22
ĠO wner
pl o
Ġac ls
ĠV IP
49 1
Ġgr ad
// /
Ġphp myadmin
SIG CHLD
ĠSol ution
Ġord ers
Ġpain ful
ĠNET WORK
Ġmailbox es
Ġpred ic
ĠIndex es
Ġtraver sing
! --
0 123456789
V A
k c
in bound
Ġp fsense
ach ar
our age
Ġj ar
Ġj umbo
Ġ8 73
yn e
Wh ether
fil enames
by obu
Ġ${ _
check er
Ġq r
bind ings
pack ed
disc over
Ġdeb conf
ivid ual
SB ASE
BE FORE
ufactur ers
ĠAdministr ation
Ġxxxx xxx
................................ ................................
4 26
5 96
8 22
` )
p ak
t ul
Ġc ri
ec ycle
ri ers
ag etty
Ġdo g
ol t
Ġ3 44
con c
Ġsp ind
ĠB OO
Ġ5 36
bin put
In c
Ġ> "$
NO FILE
Ġreal ise
sub process
MA KE
Ġfre es
Enter prise
BASH PID
Ġslab data
Ġviol ation
Ġacceler ation
Ġgranular ity
nsl cd
ĠLIM IT
6 54
7 24
C ALL
G SBASE
K ind
R W
S plit
u ec
Ġb le
un able
20 200
ĠB ook
pro gnum
Ġhost key
lock file
13 1072
sp errno
Ġopen ldap
AC CT
Ġcorre ction
Ġu pt
ĠServer Admin
Ex cept
fd ay
68 9
Ġsl aves
VER Y
Ġ25 00
lv create
buf create
mo zilla
author itative
/... /
ĠVari able
ANY SOCK
ĠAutom atic
##*/ }"
ĠUl tra
4 77
5 30
5 88
: ;
; /
B etter
J SON
O g
P attern
b rightness
d q
p ause
y ash
Ġt p
in flux
re install
Ġin fect
og g
Ġun cond
Ġ3 66
abl a
host ed
Ġdri ving
Ġtw eaks
ge ometry
06 2
Ġdefin itive
Ġls usb
Ġaw aiting
max retry
Any thing
az er
dump base
Ġaddr type
rel ocs
Ġauthent icity
Ġsaf est
ĠReg ular
ĠNU MBER
Ġwip ed
Ġ2147 483
) >
- _
4 35
M F
P reparing
_ [
a ver
b ac
d ff
d ark
l ated
m align
r as
Â ²
Ġ ====
in strument
Ġis ascii
ri an
Ġch apter
ĠN M
Ġ4 46
Ġinter pol
Ġscript ed
Ġhost ent
-------- ----
ak y
ĠK eys
ĠCh ef
sub mit
Ġq w
Ġshort est
ĠAl pha
exp ansion
Ġattach ment
need s
REAL M
PACK AGE
ĠRel oad
+ ----------------
Z X
Ġf ak
Ġl ately
ro cal
Ġ" ";
ch acha
ĠM EM
ĠN ative
Ġun common
put s
ĠV lan
Ġtrans it
Ġwho is
mnt ent
rem oving
Ġind ust
Ġselect ively
PE G
off load
Ġoptim izing
ĠControl Master
ĠQu ick
xv f
GG GG
Ġ--------- -
Ġsens or
Ġap olog
ĠSy mb
Ġindent ation
REAL TIME
spl ash
Ġprogramm ers
Ġincred ibly
( <
8 001
L ater
T icket
a ired
f lock
f acing
h sync
t ac
u y
Ġb w
ĠM L
Ġopt s
bo ost
Ġpl acement
ib and
mail x
ĠY YYY
PE M
press ure
build ing
ram disk
mult icast
ident ifier
Ġutil izing
Ġerr one
dig its
ĠFS GSBASE
rece iver
Ġadapt ed
dot files
activ ation
MODE L
sens itive
mid i
8 17
d vd
h ence
r ails
w ildcard
Ġf ibre
en as
ĠI A
ic ul
al ing
ĠS ynchron
ap r
ex cerpt
... /
Ġlog ically
debug fs
=" ";
RO NT
ĠIn v
RE SH
07 3
list info
=' $
:~ >
Ġmail server
lat er
Ġins ist
Ġco inc
\) /\
Proxy Pass
Ġoct et
gc ov
interrupt s
person al
Ġgigab ytes
Ġdeduplic ation
0 32
= ~/.
d v
d iag
g em
m are
Ġ xxxxxxxx
Ġt esseract
Ġc odec
Ġm tr
Ġl icensing
Ġh iding
Ġbe aut
Ġex clamation
Ġv node
vic on
Ġ' ,'
AT OR
Ġpl ans
ser ies
man ifest
ĠCh romium
Ġro gue
Ġmat rix
ĠZ sh
ALL Y
crontab s
ĠSAS L
Mount s
pip eline
Ġconvention al
BR IDGE
ĠBit map
orth and
Gr ace
ĠPP PoE
J o
Z ONE
b onding
c atch
d ac
h ang
Ã ¾
Ġa id
Ġw ider
Ġd ram
Ġb linking
Ġm otion
pt mx
est r
ĠS m
Ġsh ips
ĠĠĠĠĠĠĠĠĠĠĠĠĠĠĠĠ ĠĠĠĠĠĠĠĠĠĠĠčĊ
ĠR outes
Ġun icode
ĠE B
Ġ4 56
Ġcont ention
ĠB er
ĠH FS
Ġno va
37 20
Ġrepl icas
(" ....----....----
ĠID S
âĢĻ .
ĠLog Level
ĠDis abling
LOG S
Ġlaunch er
Ġbond ed
Permit EmptyPasswords
Ġrenew al
ĠADD ITIONAL
....----....---- \
Ġexhaust ed
timeo fday
implement ed
ĠDri vers
ĠDRIVER S
("....----....---- ....----....----\
' |
4 31
H yper
M ega
W orld
Z IP
f red
r ases
Ġt class
Ġn u
am ma
Ġus ec
ĠS ector
up start
ĠC VE
ĠN autilus
ĠB TW
Ġno atime
iv irus
UT LS
Ġback s
Ġsub command
sp assword
val ds
07 1
db uf
fe a
sl ab
98 2
Ġ78 14
div ide
authent icator
Ġenumer ate
$ ()
I ES
N ORMAL
S use
g mt
t ec
v x
Ġw ind
Ġl ang
Ġre construct
Ġ1 999
ĠS SSD
id ential
Ġch art
Ġtr uth
Ġ[ ^
Ġback space
Ġman ufacturers
pen sive
read er
Ġover loaded
() '
Ġ\ !
ĠK ubuntu
06 1
96 00
write back
78 3
Ġsd g
Ġcustom ization
core s
medi ately
Ġachie ving
ĠRem ov
defin ition
img ur
su fficient
ĠĠĠĠĠĠĠĠĠĠĠĠĠĠĠĠĠĠĠĠĠĠĠĠĠĠĠĠĠĠĠĠĠĠĠĠĠĠĠĠĠĠĠĠĠĠĠĠĠĠĠĠĠĠĠĠĠĠĠĠĠĠĠĠĠĠĠĠĠĠĠĠĠĠĠĠĠĠĠĠĠĠĠĠĠĠĠĠĠĠĠĠĠĠĠĠĠĠĠĠĠĠĠĠĠĠĠĠĠĠĠĠĠĠĠĠĠĠĠĠĠĠĠĠĠĠĠĠ ĠĠĠĠĠĠĠĠĠĠĠĠĠĠĠĠĠĠĠĠĠĠĠĠĠĠĠĠĠĠĠĠĠĠĠĠĠĠĠĠĠĠĠĠĠĠĠĠĠĠĠĠĠĠĠĠĠĠĠĠĠĠĠĠ
ĠBe gin
select ions
Ġhack er
iet f
PRE V
deploy ment
Ġhighlight ing
ĠAttempt ing
Ġ384 00
Ġtoler ance
combin ed
Ġted ious
9 20
> $
R AND
S AM
V O
m z
ac u
ut ls
ĠS mall
id ia
Ġsh oot
Ġch attr
sh ows
Ġun affected
Ġsp ect
ĠB ar
ĠB esides
Ġport ions
rw X
EN AME
Ġcl ones
print k
ĠEx ception
sub mission
Al ways
Sh utdown
RT NETLINK
Allow TcpForwarding
Accept ed
warning s
gam ma
Ġfrustr ating
ĠAdapt ec
Ġdeliber ately
D est
R TL
c old
c ancel
r ce
v fpv
Ġb tw
Ġo be
Ġout file
12 80
cp an
Ġrem otes
RE DIRECT
dis own
olum ns
100 8
Ġkeep alived
Re quired
60 3073
OT AL
sub vol
CC C
Ġ>> /
pe ople
trans parent
mit re
Ġcluster ed
Ġclock s
Ġwatch ed
drop bear
Ġtreat ment
Ġprom ising
Att ribute
ĠVER BOSE
Ġoverl apping
AAAAAAAA AAAAAAAA
SUP PORT
Ġpred icate
Initial izing
) ".
C odename
F ALSE
J onathan
M ULT
S eg
\ *
b cd
r pi
at on
ou l
en ode
Ġin cl
Ġin verse
Ġn ics
as is
li e
ĠL B
ĠR OM
ap c
con tract
Ġi Phone
ass fish
Ġ15 4
Ġstate less
db d
Ex tract
fe f
Ġpost rotate
Ġtop ics
sum mary
led s
âĸ ł
Ġnull ok
Ġtrust y
Ġcost ly
ĠSun day
Ġrepeat s
smart montools
Ġadvert ise
Ġdemonstr ates
Ġabbrev iated
Null able
NEGOTI ATE
B urst
G REE
H K
K b
U ntil
[ --
\ ]"
i am
Ġs gid
Ġs noop
Ġo lc
ec ond
Ġg entoo
Ġor ange
ĠD P
ĠP DT
ip add
ĠT L
ĠE H
ĠH it
rep ositories
07 5
Ġel astic
Ġms gid
cont act
Ġ$( ($
67 5
work ers
struct ure
Ġbar rier
comple x
Ġrecogn ise
Ġdm idecode
Ġgoal s
lm tp
ograph ically
Ġarr ang
Ġaccur acy
Ġhighlight ed
Dist ributor
REPORT ING
ĠArm v
Ġprolog ue
( #
D java
P uppet
c ov
m os
s at
Ġa ug
Ġo ps
Ġn og
ess ment
ur bo
Ġ-- :--:--
ĠP UB
ant ime
Ġ3 80
ĠE TH
Ġconnect ors
ĠH H
Ġpr ere
Ġpre processing
ph otos
Ġweb min
Ġ14 00
Ġtrans cript
Ġrep art
ĠOpen SUSE
Ġadv isable
IG HT
Ġtmp files
Unit ed
Config uring
/^ .*
EXT EN
ĠTrans action
ĠUG H
register ed
Ġengine er
Ser v
autom atically
Ġpropag ated
xxxxxxxxxxxxxxxx xxxxxxxxxxxxxxxx
Ġsupers ed
deli ver
) ";
> ",
N either
S mart
W error
d j
l ftp
ou p
en us
ec b
Ġus bcore
Ġr fc
Ġst eal
ĠS PF
ch ef
Ġun authorized
fa uto
log stash
Ġcre dit
PT S
55 44
IT S
my command
fin ish
ĠSt at
Ġgr ants
ĠDHCP DISCOVER
output s
($ _
ĠSh aring
"' "'
nr pe
Pl us
Ġroll back
Ġss id
"| "
Ping ing
6 33
B AT
M int
[ ?
l shw
Ġs ess
Ġs ata
Ġw lo
Ġf mt
en ough
Ġre base
ch allenge
ol en
Ġ3 15
12 12
ĠW ILL
ĠE ssentially
ĠH UGE
Ġab and
ans i
rw t
get spent
For m
US AGE
Ġdec oding
47 1
68 2
IS AM
ĠNet App
jo h
accept ed
(? :\\
Ġblacklist ed
Cred ential
ĠHIST FILE
BIT S
remotes erver
4 54
6 15
6 30
6 34
G NOME
W O
n mbd
Ġt ink
in istic
es ide
Ġm angled
ac ob
ld b
ĠE g
ĠB trfs
Ġthere by
Ġback ends
Ġrequ eues
no va
ME AS
23 45
cd n
EST ATUS
Ġencrypt ing
BU FFER
trans mission
Ġ00000000 0000000
ĠUp grade
swap on
dat etime
Ġadjust ments
Gener ic
ĠComple te
Ġxen br
ĠDet ected
Ext ended
Print Motd
--+ --+
Ġencaps ulation
Ġvo ice
6 28
P ROP
P ersist
z d
Ġ uc
Ġn th
Ġst icks
id Vendor
Ġat ime
ĠW A
Ġmach in
In formation
sync d
start x
Ġsc r
ib m
ĠServer Alias
46 2
cd c
go es
ĠTo ol
ÂłÂł Âł
ĠSh utdown
ĠSome one
Ġremember ed
Ġprotect ing
Ġsegment ation
ĠAss ign
Ġfoc used
Ġprovision ed
into sh
ĠCONT ROL
Lay out
xinit rc
6 17
B uffers
D UP
P atch
r ust
re ports
ar ly
im m
ol ua
ĠC lock
ĠD ELL
ap k
ant ly
Ġ' "$
Ġ3 77
Ġj mp
ĠV olumes
SH OW
32 766
Ġnumber ing
Ġmult ith
stat ement
DE LAY
100 01
EX TERNAL
Ġrel ocations
200 5
Ġvalid ity
dm z
sol aris
nost ic
Ġstri ps
buf len
dist ro
Control Set
SEC URE
Ġdeclare s
initial ize
pair s
}_ ${
374 1824
Conf licts
Ġ524 288
Ġflav ors
bh olua
ĠWORK GROUP
Rece iver
5 132
6 25
> ...
C md
C ARD
V ersions
a file
Ġt ie
ĠI p
ut ility
im ag
ĠTh ings
ĠC lean
ĠD MI
dd b
Ġif b
err it
:// <
14 50
aut ore
ik o
Ġden ial
VER SE
67 0
67 44
face book
rupt ed
web apps
Ġinternal s
me asure
Ġprefix ing
Edit ed
lv pool
Per Child
resolv conf
ĠWeb min
ĠĠĠĠĠĠĠĠĠĠĠĠĠĠĠĠĠĠĠĠĠĠĠĠĠĠĠĠĠĠ ĠčĊ
ĠXen Server
Ġapprox imation
ĠCOMP ATIBILITY
âĢĵâĢĵ âĢĵâĢĵ
Ġdisadvant age
ĠDESC RI
supp lied
5 11
7 36
S cal
a G
d uck
d uplex
h c
h are
l am
y r
Ġa ud
le ast
ĠI ST
Ġis blank
est s
Ġ2 58
el s
ue vent
20 110
erm ount
log ged
01 12
ound ing
Ġ12 68
str ain
56 78
man pages
lan e
66 66
Open BSD
PRO VIDER
ĠApp end
ĠBy e
ĠPRE FETCH
SYST EMS
Step s
ĠPerm anently
zen ity
ĠStack Overflow
Storage Management
Standard Error
fall s
Ġscroll ing
Ġart ifact
Ġoccup ied
ĠAnal og
! ]
5 26
9 57
M issing
W missing
d ce
h omed
k init
k msg
l aim
y an
â Ĥ
Ġt context
in complete
Ġs context
Ġc ir
is y
Ġf user
Ġ- $
ĠI ptables
ri ves
im on
Ġcon servative
Ġ4 05
to kens
lib pthread
ET ARY
IP Address
Ġcomple ment
On Calendar
AG T
mem set
pec l
tain s
Ġrespon sive
met rics
dri ves
sol utions
[^ /
ĠMon it
OPT IND
Ġmicro seconds
Ġcam eras
I ptables
l ts
u ate
Ġm pm
us alan
un mount
em it
Ġ2 78
ĠĠĠĠĠĠĠĠĠĠĠĠĠĠĠĠ ĠĠĠĠčĊ
ĠR aw
Ġtr acert
Ġk l
ĠT ab
ĠT op
ĠB ST
âĶĢâĶĢâĶĢâĶĢâĶĢâĶĢâĶĢâĶĢ âĶ
per form
lib g
Ġsend file
ear n
ms im
To ken
Ġmon o
Ġtool chain
Ġhe art
89 1
Ġduplic ation
PO OL
Ġ'[ :
ĠIdent ity
Att ach
ĠPl ug
ĠEvery one
EXP OSE
Ġcolle ague
Ġautone gotiation
X FS
i en
i ber
z b
} ="
Ġc amp
an h
st ere
Ġh to
Ġg rown
Ġr pi
Ġ$ *
ĠW IFI
pl ink
ĠE p
19 00
Ġ9 60
DE P
Ġcomple ting
ms c
SE GV
87 1
Ġdisc rep
Ġshort ly
Ġattack ers
ĠSSL v
BO ARD
termin ate
number ed
MY DOMAIN
|| |
ĠSMB us
ĠAV R
Ġdash es
drwx rwsr
Par ameters
Gateway Ports
ĠSW AP
Ġhardd isk
cms m
ĠBal ancer
Ġorphan ed
âĸĦ âĸĦ
dere ference
6 58
E u
Y S
n k
s fdisk
le vant
ad get
Ġde fer
nt act
Ġ4 09
ĠB ig
99 999
ge o
back log
back ward
cc cc
Ġaut ostart
gg reg
ĠServer AliveInterval
ĠCh rom
Ġic ons
ĠSh utting
Ġmer ges
Path Exists
ĠPower shell
ĠDB US
CG ROUP
Man ual
ĠSD K
Ġconcaten ation
msd ata
Ġrecur se
ĠGPL v
Ġunderscore s
ssss ssss
usalan anda
# %
- *.
7 33
R ING
W rt
b zip
i wlwifi
s amples
z ed
Ð ²
Ġ rip
ou red
Ġf grep
Ġd ying
Ġh o
Ġis digit
Ġis upper
ro om
Ġg ained
Ġg onna
ad apt
ĠS UID
id Product
ĠC K
ĠL AST
Ġun predictable
ĠB uster
read me
Ġover flows
ĠK orn
Ġsend msg
Ġdev sel
Ġdec oder
stand alone
RI B
aut os
bc m
ĠInter faces
QU I
mt d
(' /
Ġhack y
ĠStr ict
Ġmanip ulating
ĠAuth ors
Ġamong st
sens ors
Ġnss witch
ĠWrit ing
Ġsucc es
prefetch able
ĠDESCRI PTION
0 36
8 0000
9 04
9 53
H ASH
J J
g m
ter don
ch ap
ĠN eg
ĠG LX
Ġapp le
IN TERNAL
log o
Ġpre empt
Ġim ran
lib xl
ĠĠĠĠĠĠĠĠĠĠĠĠĠĠĠĠĠĠĠĠĠĠĠĠĠĠĠĠĠĠĠĠ ĠĠĠĠĠĠĠĠĠĠĠĠĠĠĠĠĠĠĠ
Ġdif fs
Ġent ities
Ġfe get
Ġag es
Ġterm cap
Ġend less
Ġ18 3
ĠOpen GL
DI FF
ĠEx tract
check out
view topic
[^ .
Ġrecogn ised
Mod ified
Ġsig action
/^ \
Ġ59 00
âĢ¦ ]
Ġgre y
who is
Current ControlSet
ĠMult ip
Ġsubsystem s
ĠRep ository
ĠSUB SYSTEM
gluster fs
Ġanaly se
Ġmeas uring
6 64
> [
B ig
T x
X PS
a ur
s x
s To
s ectors
Ġn d
Ġn channels
Ġn oob
Ġl shw
Ġh ate
Ġ2 98
ss erv
ur y
sh ost
ist or
ĠR SYNC
Ġ3 26
ĠF lo
ĠF low
ĠU K
con da
ĠT urns
Ġen viron
Ġ5 76
fa k
ĠG DB
Ġrem ind
Ġle verage
Ġdes k
Ġ+ \%
#### #
Ġarg u
pre ter
ĠK UBE
AL RM
Ġhard link
St at
Ġdev s
Ġwho ever
Ġ) )"
Ġtun n
ĠPro cedure
ĠPro vider
block dev
ĠJun iper
Ġmaintain ers
Ġflush es
rp mbuild
More over
Back end
Ġemploy ee
sun rpc
MON ETARY
Ġconstrain t
Ġ586 05
GLOB AL
Strict Modes
8 86
8 38
; }'
F N
J DK
T iB
T ypes
n ut
s new
} }"
Ġ :/
Ġt ens
ll ib
id irect
ĠD EC
ĠP anel
Ġli bl
os ity
der ive
ov h
Ġsend size
ick start
Ġinet d
tty ACM
ins ensitive
67 3
MM V
TO OL
pk ts
ĠDis covery
ĠMod ify
Ġcollect or
Ġgrace ful
View s
ĠGnu TLS
Ġprem ature
ĠDIRECT ORY
MEAS URE
9 58
X i
j our
l tr
m A
n ested
q mail
Ġb ullseye
Ġbe llow
ter eo
qu ad
Ġk softirqd
Ġ3 25
ĠV IA
log d
Ġnetwork ed
ext glob
do ing
run k
SI BLE
tcp ip
/* /*
Ġcontin uation
rec ycle
Ġbeli e
sv r
TH AI
mt a
ĠNO ARP
Ġiniti ating
SSt atus
7 40
9 88
= ./
l ush
Ġs cri
Ġw i
it rix
Ġf ab
Ġd angling
as er
up grades
ĠR W
Ġ4 40
for cing
ĠG Parted
Ġkey type
pr agma
Ġover look
my destination
Ġpar a
dis connect
Ġoff ices
Ġmin ecraft
comp ression
ĠRe vision
Ġstandard ized
Ġden otes
Ġ26 5
ĠZ one
Use DNS
Ġnotic ing
Ġsyn thetic
ĠâĢĺ ./
ĠRes ponse
vid ing
GR ANT
PAR AMETER
164 36
mmc u
ĠBus yBox
Ġscreenshot s
symlink s
Ġnegoti ated
fus c
ĠVR RP
icular ly
Ã¾ Ã¿
0 55
6 37
7 01
7 28
8 18
9 10
< (
G INE
H R
P od
S essions
b ab
f io
i que
p ptp
v nd
Ġs bin
an alog
Ġh omes
ut t
il le
ĠS Control
ĠA BO
ĠC ur
ĠR TT
ĠO riginal
Ġ| _
Ġlike wise
Ġi x
gr ained
ond on
Ġnew file
db a
ĠPro vides
Ġ./ *
go ld
Ġ1000 21
Ġfact s
thread ing
ĠCO UNT
let on
Ġcylind er
ANG ES
REC V
Ġ419 4304
Ġanch or
anal ysis
Ġmagn itude
+ -
8 92
A UDIT
M apped
R SS
R DP
b logs
c os
c orre
g el
ou pper
it les
Ġd nssec
Ġg etw
Ġ2 68
se lection
.. "
dd rescue
ĠP ST
ĠL FS
Ġ3 37
ĠO thers
Ġ| \
Ġ4 08
Ġ4 153
ĠB rowser
EL D
UL D
Con n
Ġrel ates
Ġarch linux
af ana
Ġfigure s
Sh mem
]] ]
OK IE
ĠNOT ICE
ĠQ t
Client AliveCountMax
Ġcalc ulating
Ġmeasure ment
ĠBackup s
success fully
Ġfresh ly
activ ating
SOCK S
Ġemp has
stere o
ĠABO VE
/ \\
H AND
O cean
c ases
q f
t ecode
v ms
â İ
ĠI IRC
00 33
Ġg disk
ad vanced
ĠS VE
Ġcan cell
ce iver
ĠC or
ĠC al
ĠP rompt
Ġac comm
ĠB R
ĠG ig
Ġwr appers
Ġhow to
Ġopen at
Ġ\ *
my var
run level
Ġweb cam
Ġel asticsearch
ens ure
Ġbl ade
Ġflo oding
Ġcombin es
ĠSpec ial
lin ode
restore con
Ġscal able
LIC Y
Ġqual ifiers
avi or
! ),
% ?
4 27
H UGE
P DF
P APER
S AN
b el
m es
m ind
p ve
Ġth ermal
Ġc fset
Ġn ec
Ġh um
Ġon wards
ĠS GR
ĠA lice
ĠC op
Ġ3 99
ĠF L
Ġi pp
pr ice
ia ob
fo pt
ph ic
======== ==
the w
Ġ19 1
bl ks
WD C
cr aw
READ Y
dest ruct
IO CTL
Ġpush es
Ġstri ping
PY THON
pw ent
fetch mail
ĠHO WTO
Put ting
Method s
Ġ245 76
ĠBo yne
Ġmultil ine
Ġkeystro kes
ĠPoll ard
0 34
6 78
6 93
D AV
E asy
F ore
G RES
S everal
c ube
d ow
Ã ¦
es p
ed ip
Ġst p
and atory
Ġpro pose
ĠC at
ĠP IN
ĠL ow
ĠM ass
Ġ$ -
ĠW ine
Ġj boss
to h
Ġspecif iers
cre asing
Ġ00 10
ĠJ B
print able
35 97
Ġoff ic
DE L
Ġ${ (
Un packing
Ġfar m
Ġsymlink ed
Inter active
REP O
Ġnear by
Ġbypass ing
026 53
Under standing
Ġ808 1
Ġiw config
Def ine
sever al
Wi Fi
ĠVo IP
Ġune victable
iaob ai
_ ]
b ss
b cc
m branch
s ap
t ml
Ġc ols
Ġc uri
Ġo h
Ġn ix
Ġis space
Ġst ead
ist ically
RE AK
sp ark
md ns
ĠX EN
ĠJ o
Ġcons olid
pc ie
Ġfree ing
}' "
.* "
Ġswap on
Ġ28 1
Ġslow ing
base url
prot ot
Ġuni verse
Ġpop up
Ġpush d
Ġweek end
Restart ing
iven ess
Ġsens ors
ntp date
ĠCR L
compil ation
Ġaccur ately
authent icate
Ġmag ically
ĠRo aming
C or
E g
F un
P ur
P uTTY
[ %
] )?
b ff
m otion
y t
Ġ XXXXXXXX
Ġw ikipedia
de funct
Ġbe ep
ĠP DC
ĠL ets
ex pensive
ĠW MI
ĠT M
ĠT ree
ĠE F
PT R
Ġstr ateg
In sert
ĠK ing
Ġident ically
rem ot
SA FE
Ġocc ured
DB US
Ġ27 9
################ ############
ĠAR CH
chem a
hot mail
trust y
star let
Ġnight mare
Ġunpack ed
="% (
ĠEP EL
3744 89
5 38
? \
A AC
b on
f ruit
o ften
Ġ- (
ly nx
im pl
Ġr s
ĠS CT
ĠC MS
dd ns
Ġk malloc
Ġ3 46
ĠG EN
ĠH ad
ep ad
Ġcomp oser
que ued
Ġgit web
ĠLAN s
\" \
ĠDE BIAN
crypt tab
ĠAddress es
swap d
]\ +
vari ant
ĠDown loads
Ġ122 88
4 0000
6 14
H C
M ask
O I
S X
S UN
c vs
f ar
i ating
m el
n ore
Ġd ma
Ġm ad
ut ron
Ġsh orthand
ĠC red
ĠL abel
Ġrun ner
Ġk mod
Ġ3 35
file list
Ġrem ap
Ġmake file
Ġip c
Ġ16 3
Ġsy ntact
SER V
ĠAd v
LOG NAME
xc b
Ġbot s
Ġtre ating
Ġdot files
ĠStr ucture
Ġconv in
branch es
chr is
Ġomit ting
ĠTechn ologies
Ġig b
prom etheus
Trust ed
VOL UME
ĠâĶľâĶĢâĶĢâĶĢâĶĢâĶĢâĶĢâĶĢâĶĢâĶĢâĶĢâĶĢâĶ ¼âĶĢâĶĢâĶĢâĶĢâĶĢâĶĢâĶĢâĶĢâĶĢâĶĢâĶĢâĶĢâĶĢâĶĢâĶĢâĶĢ
' -
5 23
6 23
: ,
W pedantic
` ,
e z
f bc
t ape
or arily
Ġw l
Ġd rm
ĠI OS
pt pd
Ġg ro
em ple
ab rt
ere ad
el astic
Ġch an
od ings
Ġk afka
Ġport ed
os erver
Ġlink down
ne goti
get ting
Ġ% .
US ec
sec comp
head less
TR UNC
ins n
Start ups
spec ifier
Ġ27 0
rd p
RA VE
Ġsn ort
ĠArch Linux
ĠNAME S
Ġlight s
au fs
TLS v
Ġdiscard ing
ĠÂ »
ĠPo ssibly
ĠOption al
Ġmountpoint s
Ġexam ining
ĠSys log
OB JECT
Sl ot
cop ies
Ġflav or
ĠDevelop ment
Ġtex tual
ĠDi G
Ġhered oc
ĠPUB LIC
6 94
a que
m ate
n ce
n query
r aku
x input
y ellow
Ġf name
Ġb lo
as n
Ġg unzip
ĠN ID
Ġ3 67
Ġal ot
ĠU ntil
ĠE scape
fs progs
Wh atever
Ġext ending
Ġext ends
.* )
Ġthread ed
comple tions
Ġreject s
Ġmeaning less
non null
Ġimpro ves
gl ue
Document Root
([ {
SEC RET
Bind ing
ikes erv
extr as
6 38
B ot
M icro
S ide
e qual
g parted
on om
ac om
Ġre verted
de frag
ĠS n
ĠL ists
ĠR DR
Ġ3 32
Ġ3 08
oo fed
fa vicon
Ġar ises
Ġ8 001
ĠIP SEC
** /
ME DI
ĠAC CESS
ns cd
mount info
ms mall
aut oload
Ġawk ward
Ġsk b
ĠSup press
ĠLink sys
Ġxdr s
clo sed
Ġbenef icial
gp opt
Ġtick ets
PH ONE
remov es
ĠClo sing
ĠDr upal
Ġmarg in
Ġfidd ling
Ġful fill
P lay
f ails
h ba
p ap
w t
Ġp t
ab ic
ation ale
ĠD RD
dd y
ĠM e
ĠM achines
ĠN at
Ġ3 34
20 25
ĠB re
ĠG L
Ġpr une
mp i
ari o
17 00
Ġev il
Ġ\ \\
rid es
ru ary
ĠNetwork s
89 4
Ġconst it
Ġtag ging
Ġbound ed
ĠUp start
Ġhack s
xv df
Ġpc ie
RAN GE
ĠVER Y
ĠEDIT OR
ĠSu SE
Ġrestric ts
Ġtdb sam
Ġ3907 029
6 88
8 24
s ynchron
u o
at able
ar ith
ar ry
se bool
ĠC MSG
Ġtr aining
Ġ3 31
Ġany time
ĠE ffect
Ġ4 64
Ġj an
Ġj ails
ĠB etter
Ġ5 55
Ġuser share
eb s
AR PA
Ġfe ar
OR G
open suse
Ġ~ [
sc ache
ĠRe ason
ĠCh oose
68 1
Ġref using
sum s
export fs
post inst
Ġslow down
main tenance
Authentication s
ma illog
SHA RED
hib its
FP v
Ġter ribly
Ġicon v
ĠSocket s
fsched ule
ĠMega RAID
Ġpipel ines
$ /\
9 05
I SC
S eries
c idr
t ow
it ively
Ġis graph
ĠP D
ĠM enu
ĠF riday
Ġ4 99
cre ation
}" '
Ġ18 1
find mnt
ĠConnect Timeout
amp ol
free zer
Ġcoll ision
SR V
ĠTH AT
OPEN SSL
launch er
som ecommand
ĠFormat s
Ġgover nor
recur se
Ġeb tables
Ġfacil itate
presum ably
8 34
8 100
E o
M eta
R x
S ELINUX
f ocus
l ah
re new
Ġb ank
ot t
Ġre creating
Ġg od
ri al
Ġr ul
ld if
ĠA nt
qu iring
ĠP LT
Ġse ven
Ġtr ay
Ġ3 62
ĠO cean
ĠW idth
Ġ10 48
Ġ< ---
Ġ< "$
Ġ"$ _
": [
cd f
Ġms i
66 3
dump dir
89 3
Ġmk part
Per iod
BB B
Ġsmart d
REG ROUND
Ġ[...] ;
recover able
optim ized
MG MT
sour ced
IDEN TIFICATION
0 204
4 17
6 32
9 45
b og
c ec
f ingerprint
l stat
m ichael
~ "
Ġt shark
Ġc ategories
it o
Ġb sd
Ġn ld
ad er
ch an
Ġpro hibit
ĠP Q
Ġsu st
Ġ[ /*
ĠU B
ĠG RAVE
Ġim ple
ass assin
Ġindex ing
gener ation
ĠâĶľ âĶĢâĶĢâĶĢâĶĢâĶĢâĶĢâĶĢâĶĢâĶĢâĶĢâĶĢâĶĢâĶĢâĶĢâĶĢâĶĢâĶĢâĶĢâĶĢâĶĢâĶĢâĶĢâĶĢâĶĢâĶĢâĶĢâĶĢâĶĢâĶĢâĶĢâĶĢâĶĢâĶĢâĶĢâĶĢâĶĢâĶĢâĶĢâĶĢâĶĢâĶĢâĶĢâĶĢâĶĢâĶĢâĶĢâĶĢâĶĢâĶĢâĶĢâĶĢâĶĢâĶĢâĶĢâĶĢâĶĢâĶĢâĶĢâĶĢâĶĢâĶĢâĶĢâĶĢâĶĢ
App end
ĠICMP v
PO CH
Se qu
Process es
Ġexam ined
ĠSU CCESS
Ġnld edip
. |
6 09
> -
D V
H I
H ad
N TS
P ip
] ->
n av
t iny
Ġc lobber
Ġin lined
ĠI RC
Ġh es
Ġis print
Ġe ating
am era
Ġr tt
ĠC old
Ġfil ed
Ġ3 72
ĠF atal
Qu oting
Ġj itter
ĠH am
ud son
âĢ ĭ
Ġ... >
Ġtable t
resol ution
Ġdrop bear
virtual env
ĠLoad Module
GR P
Ġobtain ing
Ass ign
ev dev
TE LE
fish y
Image Magick
ifup down
Ġlibvirt d
Ġdere fer
Dig est
prob ability
Ġhorizont al
centre on
Ġfak eroot
/ !
6 27
A zure
H istory
M ov
U F
W implicit
_ }
c il
Ġt empt
in crement
Ġs al
Ġb oun
Ġan tic
ot erminal
Ġy yy
ss mtp
qu isite
ĠD ATE
Ġ' )
ĠT ARGET
AT S
80 42
ml an
auth priv
": ["
Ġlib xml
new file
Ġquot ation
Ġcompil es
Ġmet achar
mk sh
mk homedir
Ġalloc ator
Ġutil ized
Ġcho ke
ĠSub version
des k
ĠFILE S
ĠCD N
252 16
<< <<
ĠCL ASS
ĠPart ed
Ġrespond ed
ĠMult icast
Ġorgan ized
Off line
PROTO COL
ĠLUN s
AuthorizedKeys Command
Ġ(? @
rav bholua
ĠSIGRT MIN
Ġrevis ions
Ġintu itive
Symb ol
Ġvx lan
9 48
9 76
H KEY
S n
Y P
b ank
z mv
Ġ ================
Ġa lex
Ġis xdigit
Ġis cntrl
al arm
Ġe ls
Ġon going
Ġg em
ri pe
ĠS PA
ĠS everal
up y
and ing
.. ]
Ġch ef
Ġse ll
Ġmy service
ĠL M
Ġ3 87
ĠU AC
int l
ĠB C
ĠG bits
gr ab
lib stdc
no v
Ġiss uer
md b
pre set
ĠK Bytes
Ġu ri
Ġreason ing
deb conf
@@ @
pos ing
Ġpresent ation
Ġreplac ements
Ġorg anis
ĠEC S
smb passwd
ĠQ NAP
>> >>
Ġguide lines
Ġhook ed
ĉĉĉĉĉĉĉĉ ĠĠĠ
ĠExt ensions
Ġspare s
DIS ABLE
ĠExp ires
rout ed
ĠRC PT
Ġpolkit d
# -
4 860
8 23
b is
h uge
m min
Ġw ich
ĠI mp
ic om
Ġis lower
Ġis alnum
Ġde allocation
ol a
sh e
ock opt
ĠG igab
lib dl
", "$
Ġsub volumes
ert y
Ġent rypoint
ED IR
ĠSSH FS
ee am
${ !
UN CTION
DI MM
Ġfr ank
Ġro bot
export ed
node js
NAT URE
VI LEG
col on
ĠTr ack
Ġplay back
Ġjournal ing
keep alived
Ġbalanc ers
IR Q
Consider ing
Ġisp unct
ĠAbort ing
Spare Servers
MEASURE MENT
7 92
7 02
; ${
C ookie
D aily
F U
U K
j m
m ber
m fp
s av
Ġ Ñ
re nder
om d
al ong
Ġ( ($
im er
Ġr tc
Ġsh orewall
ĠD PM
ĠP y
Ġ' ='
Ġat op
10 11
con sum
30 30
ph oto
ask pass
Ġph il
Ġflag ged
Ġhead ache
Ġgr p
tab s
write able
Ġdisc ouraged
dm idecode
core os
Ġguess ed
iag ara
kill ed
pa ul
ĠSup pose
ĠLOG GING
machine B
Id le
Dis abling
Ġsoon er
inst ant
ĠProxy Jump
ĠPV s
Int ro
Ġbatch es
Ġrid icul
Ġalter ing
ĠBl ue
Ġretrans m
consider ing
$ !
6 26
A LE
A part
A merica
H Sync
R ATE
b andwidth
g ex
j bd
r ng
s queeze
re plic
Ġb ur
Ġp end
Ġp assthrough
Ġp lymouth
st amp
00 12
Ġus ability
and listen
Ġv dev
Ġal beit
ĠT EXT
Ġ* ********
host ent
SH ORT
Ġoutput ted
str ftime
AC C
Ġmem set
ĠJ DK
27 017
**** *
init andlisten
sc roll
Ġ-> >
pkg s
MI I
ampl ing
Ġtermin ator
Ġdeal t
INIT Y
ĠQu al
cy cle
Ġ--------- ------
Ġsupp lies
Ġnic er
ĠFast CGI
Ġinsight s
equ ivalent
Ġdrawback s
Grace Time
ĠRDR ND
# .
+ "
0 37
5 32
5 33
6 12
D ifferent
I SA
J P
c ali
f strict
r ain
or se
Ġc ow
Ġc oredump
Ġb cm
Ġb nx
Ġm ips
Ġh at
ĠS rc
ke ley
Ġne gl
ĠD iff
ĠL uck
ĠL anguage
ĠM eg
ĠR F
Ġsp ike
ĠW get
Ġcont ribut
ĠH T
fin line
group add
ĠOpen Stack
box es
ities Only
MM DD
Ġ0000 000
rec ated
79 1
Al ternative
dele ting
Res erved
Ġtty USB
dh param
Ġadjust ment
Ġestablish es
ĠOR S
ĠFeature s
tld p
bk p
Ġpag et
idirect ional
. -
. ${
G F
U DEV
b oun
Ġre entrant
Ġ1 245
ĠS ACK
ĠS ummary
ere f
ir on
Ġmy dir
ĠL OT
ap achectl
Ġget net
() );
db lock
Ex per
=' %
CO OKIE
Ġvalid ating
Ġextr action
TI FY
:\ >
Ġconc ise
ExecStart Post
iso fs
âĢ¦ )
ĠRES ULT
LA IN
Go ing
ĠCore OS
Ġinspect ing
ACH ABLE
Ġemploy ed
Ġvisit ors
Ġmisunder stood
oconfig uration
ĠDRD Y
9 12
J OB
R SYNC
Y esterday
d ts
m fpu
q n
r hosts
w f
Â ®
ar am
00 40
ri k
ill er
ĠC M
ĠR ADIUS
Ġsp ans
Ġi ot
mp ower
lib r
Ġtest er
thing s
Ġid iom
Ġcl utter
Ġdown stream
Ġacc es
NAME S
ĠEx tra
cs um
uf ir
gen sec
Ad just
Ġsupposed ly
ĠUG Sc
Ġnumer ically
Ext ension
(. +
wrap v
Ġenumer ated
PART ITION
Ġdl open
Ġthorough ly
ĠME SS
Ġundes irable
ĠMis cellaneous
" /*
/ }
4 22
4 39
7 38
8 96
C el
D ns
k df
o ber
Ġt ier
Ġa arch
Ġa pic
st o
Ġo l
Ġ- "
Ġh og
un pack
Ġg cloud
all ows
ĠS B
oc ating
Ġv ect
Ġsh uff
ĠC olumn
ĠP ORTS
ĠL ubuntu
ĠM arch
Ġ3 64
Ġ3 56
ĠT MP
... }
pro log
ond er
read s
Ġ\ *.
ob a
Ġmode ms
ĉĉĉĉ ĉĉĉĠ
Ġden ying
Ġfore ach
____ __
PI E
ĠâĶľ âĶĢâĶĢâĶĢâĶĢâĶĢâĶĢâĶĢâĶĢâĶĢâĶĢâĶĢâĶĢâĶĢâĶĢâĶĢâĶĢâĶĢâĶĢâĶĢâĶĢâĶĢâĶĢâĶĢâĶĢâĶĢâĶĢâĶĢâĶĢâĶĢâĶĢâĶĢâĶĢâĶĢâĶĢâĶĢâĶĢâĶĢâĶĢâĶĢâĶĢâĶĢâĶĢâĶĢâĶĢâĶĢâĶĢâĶĢâĶĢâĶĢâĶĢâĶĢâĶĢâĶĢâĶĢâĶĢâĶĢâĶĢâĶĢâĶĢâĶĢâĶĢâĶĢâĶĢâĶĢâĶĢâĶĢâĶĢâĶĢâĶĢâĶĢâĶĢâĶĢâĶĢâĶĢâĶĢâĶ
Connect ions
screen shot
ĠCl oudflare
Ġsuspect ed
Ġdifficult ies
Stop Sec
CG CC
ĠGet ting
Ġdiscard s
dot ool
abb rev
Ġmut ually
Ġregener ate
¼âĶĢâĶĢâĶĢâĶĢâĶĢâĶĢâĶĢâĶĢâĶĢâĶĢâĶĢâĶĢâĶĢâĶĢâĶĢâĶ¼âĶĢâĶĢâĶĢâĶĢâĶĢâĶĢâĶĢâĶĢâĶĢâĶĢâĶĢâĶĢâĶĢâĶĢâĶĢâĶĢ âĶ¤
ĠâĶľâĶĢâĶĢâĶĢâĶĢâĶĢâĶĢâĶĢâĶĢâĶĢâĶĢâĶĢâĶĢâĶĢâĶĢâĶĢâĶĢâĶĢâĶĢâĶĢâĶĢâĶĢâĶĢâĶĢâĶĢâĶĢâĶĢâĶĢâĶĢâĶĢâĶĢâĶĢâĶĢâĶĢâĶĢâĶĢâĶĢâĶĢâĶĢâĶĢâĶĢâĶĢâĶĢâĶĢâĶĢâĶĢâĶĢâĶĢâĶĢâĶĢâĶĢâĶĢâĶĢâĶĢâĶĢâĶĢâĶĢâĶĢâĶĢâĶĢâĶĢâĶĢâĶĢâĶĢâĶĢâĶĢâĶĢâĶĢâĶĢâĶĢâĶĢâĶĢâĶĢâĶĢâĶĢâĶĢâĶ ¼âĶĢâĶĢâĶĢâĶĢâĶĢâĶĢâĶĢâĶĢâĶĢâĶĢâĶĢâĶĢâĶĢâĶĢâĶĢâĶ¼âĶĢâĶĢâĶĢâĶĢâĶĢâĶĢâĶĢâĶĢâĶĢâĶĢâĶĢâĶĢâĶĢâĶĢâĶĢâĶĢâĶ¤
7 07
A Z
D SS
M ariaDB
d mask
j un
l fs
m aker
r ical
Ġt g
Ġb cd
ver sa
Ġe yes
Ġst ash
ĠS ort
Ġsh ipping
li a
Ġse at
ock pit
64 43
ast ers
Ġcre ator
13 37
ĠWh o
ru ce
Ġgr am
IL LA
Ġconsider ably
MM U
Ġimport ance
Ġ26 00
Ġins ns
met er
ĠTX T
ĠMac s
ĠCO MM
TH ER
Per form
ĠGit Lab
ĠAP s
flo ating
Ġcontact ed
Ġdel im
Ġiniti ator
Ġgl ue
Ġcirc ular
Ġsym metric
Ġkick ed
026 583
409 9
Display Offset
Ġgover n
Ban ner
-------------------------------------------------------- ----
Ġ78140 25216
ibl ings
Ġ7814 026583
TELE PHONE
5 39
B uilder
D W
D AC
F ig
G MT
H int
V Sync
w ik
ĠS i
ĠC W
ĠC OP
Ġk icks
Ġli e
Ġ5 22
Ġwhere by
ĠIN FORMATION
be a
write v
que ues
Ġrsync d
Ġq cow
Ġcommun icates
pa e
bus y
ĠEN OS
Ġcover age
mx l
ĠÂ ©
Ġspeak ers
Ġretry ing
Every one
Ġ[::]: *
ĠConfigure s
Ġprob able
Wire shark
'], ['
Ġdisadvant ages
phys dev
Ġtain ted
20100 101
Ġstrateg ies
' ))
( [[:
6 06
7 12
7 29
9 40
C li
K Hz
M sg
U V
_ $(
b astion
g fx
Ġc tl
ac a
ac r
ac li
ver ity
am biguous
pt ember
Ġ2 9200
An sible
end um
Ġ3 18
ĠE NC
Ġ5 20
11 111
... >
wh itelist
RE VERSE
opt imize
Ġz ram
ĠCon tainers
Ġ... ,
wr appers
": {"
list ing
ĠUS R
Ġlib t
Ġmissing ok
Ġmail er
tain ing
Ġcp anel
Ġshort en
Up dating
Not Found
Ġ00000000 0000
Ġstri pping
Ġunique ly
Ġ88 42
det erm
Ġassem bled
Ġ199 8
Ġoccasion al
ĠFast Ethernet
collect d
wrt n
ĠMP LS
Lay er
opend kim
Develop ment
ĠPerson ally
PIP ESTATUS
Ġinfect ed
Ġobe y
Ġantic ip
( ".
9 30
: ]'
O IP
P eople
Q A
S te
T eam
b ullseye
h ane
w idget
Ð »
Ġm esh
Ġn rcpt
and er
Ġk it
Ġk ub
Ġset env
Ġ3 42
eth eless
ĠB atch
Ġres iding
Ġ"$ *"
ĠIn tern
Ġ+ -
OR ACLE
rc file
ĠIN TO
Ġ% >
init cpio
Ch anges
ĠPro duce
Ġlib curl
MB R
medi ary
ĠFile Zilla
ĠNot es
pe ak
Ġsn printf
Ġdm setup
scan f
ĠControl Path
Ġsvc udp
AV C
Ġorigin ate
ĠRequest s
Ġfeed s
oper ating
Ġproceed s
blog spot
Ġenclo sing
+-------- -+
Context Config
Ġwan na
ĠDD OS
ĠWrit er
Ã¿ Ã¿
SAS L
kh unter
Ġancest or
hope fully
Ġconvin ced
6 13
7 86
7 44
C rypt
P in
R ob
V FS
b M
d w
e hci
f mask
m yst
p createerror
Ġt cf
Ġc eph
Ġd ated
Ġb a
Ġp em
Ġp ng
Ġan aconda
Ġ( );
de ferred
ĠS ch
Ġ2 99
ul atory
Ġmy site
ĠM ikrotik
ĠM eaning
Ġset size
Ġal g
ĠE lf
ĠĠĠĠĠĠĠĠĠĠĠĠĠĠĠĠĠĠĠĠĠĠĠĠĠĠĠĠĠĠĠĠ ĠĠĠĠĠĠĠĠĠĠĠĠĠĠĠĠĠĠĠĠ
Ġover load
Ġcall rpc
18 62
Ġeach result
Ġprint k
get args
ĠX Z
Ġoff loading
auth unix
IC K
Con tainers
ĠEx im
60 16
Ġsl ows
ĠY AML
Ġauth unix
cs r
web root
Ġins ensitive
src set
bound ary
Ġimp erson
Ġclnt udp
HIST SIZE
Copy ing
Ġtom orrow
multip ort
uzz y
Search ing
Ġdatas ets
car rier
gluster d
ĠRece ive
ĠSw arm
ISS ET
ĠIG MP
getreq set
Ġapolog ize
' /'
3 0000
7 57
D ET
M oving
d ing
h om
j n
j r
p do
Ġs adly
Ġ1 100
ad apter
Ġcom pr
el ix
ĠP GID
Ġ3 47
ĠU pload
Ġsp ar
ĠE NOT
ord inate
Ġ< -->
Ġarg ue
Ġph oto
db name
lan nel
######## ##
Ġappro ved
Ġ255 65
Ġreal ised
Ġbas eline
Ġcount ries
Ġfin ite
ah ci
Ġmd ns
âĸ Ģ
RA MP
SIG KILL
sock opt
real tek
Rec ord
Ġintro ducing
Ġiter ates
ĠTO DO
115 200
Gener ating
Ġgl ance
Sup ported
SYS LOG
jump s
Ġrunlevel s
Ġbenchmark ing
Ġsurprising ly
ĠCRE ATE
Ġcompar able
ĠRack space
Remov endo
Ġcuri osity
6 39
E OT
F ER
F RONT
S EN
W array
\ +
c ord
e ol
f ic
g edit
m aking
r dma
ed f
Ġp ulse
Ġh ci
sh uf
Ġsu bo
Ġ3 54
ĠE FAULT
Ġ5 555
Ġ* */
## *.
gh ost
tr ac
ml ess
Ġ} ')
Ġhelp ers
group name
Ġ... );
Ġcopy right
ĠServer A
IC T
old ers
68 3
Ġincre ments
Ġbl en
Ġins ane
Key File
Ġplay s
mas querade
Ġconstruct ors
Ġlab server
ĠSA HF
Ġfan otify
netns id
Ġestim ated
Ul timately
Ã¾Ã¿ Ã¾Ã¿
7 21
8 46
C alc
M ichael
T oo
g be
k f
p cp
q c
y q
Ġ utils
Ġa mp
ot ic
Ġe ap
am per
Ġdo or
op aque
od ers
Ġtr aditionally
Ġun aware
25 00
key cloak
ong son
proc mail
ib ling
On line
En abling
MM C
Ġ*/ ])
Ġsuper visord
Ġ"\ $
Files Match
SERVER S
Rec laim
rp ms
vd so
ĠBus iness
Direct ories
sur y
ĠBU ILTIN
Gn ome
respect ive
Ġaver ages
Ġrf kill
6 18
7 54
> /.
C LOCK
F n
I IS
Ġ ï
Ġf ight
Ġd rwx
ent a
ĠM ysql
ĠR J
ĠR ob
ht passwd
ĠT yp
ĠT AG
ther os
ĠG PIO
wh eezy
lib kmod
Ġexp onent
vel ope
ne go
po ols
script ion
}' |
Ġsd h
Ġ00000000 00
UE FI
Cl one
Ġinher ently
Ġwatch es
180 4
PA RENT
ĠFAT AL
NG INX
ĠForward Agent
Ġdecre ment
relay host
ĠAF TER
dash board
MON TH
ĠExit ing
Ġcum ulative
Ġshif ted
ĠBO OT
# \
7 37
8 35
A AG
L anguage
P ull
a ef
d ire
k d
Ġ QUIT
re use
et est
Ġh un
Ġe a
ĠS il
Ġnot ably
ĠĠĠĠĠĠĠĠĠĠĠĠĠĠĠĠ ĠĠĠĠĠĠĠĠĠčĊ
ĠR ails
Ġun tar
Ġ3 29
Ġsp acing
tp d
Ġapp li
55 00
Ġweb master
wr ote
LI CE
auth d
Ġexpect ation
edit ing
Ġvirtual env
Ġnet em
Ġgr and
66 2
SE P
Ġequ ation
Ġexper ts
ceed ed
ĠCan onical
ĠLog ic
Ġ<< -
gid s
Ġdecl aring
Ġnotic es
Rem oved
Ġerr ata
Ġboard s
ĠLen ny
UST ER
FUNC NAME
RED ACTED
Ġfly live
clam av
Su SE
descri bed
ĠGluster FS
Ġaccomm odate
Ġoffic ially
# {
A h
I BA
P GP
S m
_ {
c ou
g ar
i u
or Impl
Ġb on
il ies
Ġwh om
ĠC aps
Ġat oi
Ġ4 77
net logon
Ġle an
av x
pr ctl
Ġcheck er
min i
#### ###
ian a
Ġtra verses
Ġbit bucket
Ġping ed
Ġbin fmt
DR V
call er
Ġwond ered
Ġcluster ing
sn printf
cloud linux
Ġimpro per
Ġess ence
106 16
ĠPre ferred
ĠCH R
Ġgl ad
9999 9999
ĠStack Exchange
Met adata
Ġlx centreon
âĢĥ âĢĥ
Ġpret end
Ġsubrout ine
& /
9 14
? >
T ries
[ ]:
f li
h v
p store
Ġt ac
Ġc ity
Ġm icrosoft
Ġh h
al ter
if def
Ġcon clude
ĠR P
16 15
ĠU ART
ĠT w
Ġ4 444
Ġen glish
Ġen ergy
ĠG T
Ġ10 25
Ġx dotool
str ategy
not ations
Ġdes per
my test
print s
=' \[\
Ġpost er
Re ally
Ġsuccess ive
sl aves
password s
Ġexten s
Ġsync s
lv s
Ġcmd line
dat er
Ġclick ed
mat rix
>. <
ĠSp an
Ġdiscus s
Ġconv ince
high light
Ġsnap d
Ġdraw ing
Sy ntax
AUTO CONF
Ġ828 01
ĠEXAMP LE
$ *
d oubles
t ips
Ġb acula
et o
Ġo vs
Ġl seek
Ġre dir
Ġr dma
ĠM as
Ġ3 75
put c
Ġ4 095
Ġen joy
nd oe
Ġ5 44
Ġ5 54
ER N
ep oll
In deed
set opt
set affinity
ron os
config file
Ġid x
be ef
cc a
37 09
Ġbr ick
Ġenc odings
target s
Ġhead ed
Ġlib av
Ġcr t
string op
ĠAt om
Not ify
ĠSun OS
Ġdr and
sign o
REG IST
ĠDisplay s
Ġgain s
PR INT
ĠWH M
ĠMSI E
Ġthrot tle
ĠSchedul ed
leanup Credentials
APIC leanupCredentials
MOV ED
Tra ffic
9 08
D ro
L R
S elf
T OS
r ick
st ates
Ġin advert
Ġis c
Ġis nt
ac p
Ġg s
Ġde activate
ĠD K
od bc
Ġ3 96
ata stro
IN CLUDE
Ġman pages
mp y
() "
23 07
44 6744
[...]
