{"<s>":0,"<pad>":1,"</s>":2,"<unk>":3,"<mask>":4,"!":5,"\"":6,"#":7,"$":8,"%":9,"&":10,"'":11,"(":12,")":13,"*":14,"+":15,",":16,"-":17,".":18,"/":19,"0":20,"1":21,"2":22,"3":23,"4":24,"5":25,"6":26,"7":27,"8":28,"9":29,":":30,";":31,"<":32,"=":33,">":34,"?":35,"@":36,"A":37,"B":38,"C":39,"D":40,"E":41,"F":42,"G":43,"H":44,"I":45,"J":46,"K":47,"L":48,"M":49,"N":50,"O":51,"P":52,"Q":53,"R":54,"S":55,"T":56,"U":57,"V":58,"W":59,"X":60,"Y":61,"Z":62,"[":63,"\\":64,"]":65,"^":66,"_":67,"`":68,"a":69,"b":70,"c":71,"d":72,"e":73,"f":74,"g":75,"h":76,"i":77,"j":78,"k":79,"l":80,"m":81,"n":82,"o":83,"p":84,"q":85,"r":86,"s":87,"t":88,"u":89,"v":90,"w":91,"x":92,"y":93,"z":94,"{":95,"|":96,"}":97,"~":98,"¡":99,"¢":100,"£":101,"¤":102,"¥":103,"¦":104,"§":105,"¨":106,"©":107,"ª":108,"«":109,"¬":110,"®":111,"¯":112,"°":113,"±":114,"²":115,"³":116,"´":117,"µ":118,"¶":119,"·":120,"¸":121,"¹":122,"º":123,"»":124,"¼":125,"½":126,"¾":127,"¿":128,"À":129,"Á":130,"Â":131,"Ã":132,"Ä":133,"Å":134,"Æ":135,"Ç":136,"È":137,"É":138,"Ê":139,"Ë":140,"Ì":141,"Í":142,"Î":143,"Ï":144,"Ð":145,"Ñ":146,"Ò":147,"Ó":148,"Ô":149,"Õ":150,"Ö":151,"×":152,"Ø":153,"Ù":154,"Ú":155,"Û":156,"Ü":157,"Ý":158,"Þ":159,"ß":160,"à":161,"á":162,"â":163,"ã":164,"ä":165,"å":166,"æ":167,"ç":168,"è":169,"é":170,"ê":171,"ë":172,"ì":173,"í":174,"î":175,"ï":176,"ð":177,"ñ":178,"ò":179,"ó":180,"ô":181,"õ":182,"ö":183,"÷":184,"ø":185,"ù":186,"ú":187,"û":188,"ü":189,"ý":190,"þ":191,"ÿ":192,"Ā":193,"ā":194,"Ă":195,"ă":196,"Ą":197,"ą":198,"Ć":199,"ć":200,"Ĉ":201,"ĉ":202,"Ċ":203,"ċ":204,"Č":205,"č":206,"Ď":207,"ď":208,"Đ":209,"đ":210,"Ē":211,"ē":212,"Ĕ":213,"ĕ":214,"Ė":215,"ė":216,"Ę":217,"ę":218,"Ě":219,"ě":220,"Ĝ":221,"ĝ":222,"Ğ":223,"ğ":224,"Ġ":225,"ġ":226,"Ģ":227,"ģ":228,"Ĥ":229,"ĥ":230,"Ħ":231,"ħ":232,"Ĩ":233,"ĩ":234,"Ī":235,"ī":236,"Ĭ":237,"ĭ":238,"Į":239,"į":240,"İ":241,"ı":242,"Ĳ":243,"ĳ":244,"Ĵ":245,"ĵ":246,"Ķ":247,"ķ":248,"ĸ":249,"Ĺ":250,"ĺ":251,"Ļ":252,"ļ":253,"Ľ":254,"ľ":255,"Ŀ":256,"ŀ":257,"Ł":258,"ł":259,"Ń":260,"čĊ":261,"ĠĠ":262,"Ġt":263,"in":264,"Ġa":265,"er":266,"ĠĠĠĠ":267,"Ġth":268,"Ġs":269,"on":270,"re":271,"Ġthe":272,"or":273,"es":274,"at":275,"Ġc":276,"ou":277,"is":278,"Ġw":279,"it":280,"Ġf":281,"en":282,"ed":283,"ing":284,"Ġd":285,"Ġb":286,"an":287,"Ġto":288,"Ġp":289,"le":290,"Ġm":291,"st":292,"et":293,"ion":294,"ll":295,"om":296,"Ġin":297,"Ġan":298,"Ġo":299,"ĠčĊ":300,"ar":301,"Ġn":302,"Ġ-":303,"ĠI":304,"ĠĠĠĠĠĠĠĠ":305,"ic":306,"us":307,"ot":308,"Ġl":309,"ec":310,"Ġh":311,"Ġis":312,"ac":313,"Ġre":314,"as":315,"ro":316,"al":317,"00":318,"Ġand":319,"ut":320,"Ġ1":321,"ver":322,"ve":323,"Ġof":324,"Ġy":325,"Ġe":326,"ent":327,"ĠĠĠ":328,"un":329,"ow":330,"âĶ":331,"Ġyou":332,"Ġon":333,"am":334,"Ġ(":335,"de":336,"Ġus":337,"il":338,"Ġit":339,"âĶĢ":340,"pt":341,"âĶĢâĶĢ":342,"Ġg":343,"if":344,"Ġfor":345,"Ġthat":346,"em":347,"Ġbe":348,"Th":349,"--":350,"ab":351,"ri":352,"ith":353,"ad":354,"ct":355,"Ġwh":356,"Ġ0":357,"ĠĠĠĠĠĠ":358,"est":359,"ly":360,"im":361,"Ġ\"":362,"ter":363,"Ġr":364,"all":365,"Ġcon":366,"ile":367,"Ġst":368,"ĠS":369,"Ġ2":370,"ld":371,"ke":372,"Ġwith":373,"oc":374,"ss":375,"ig":376,"up":377,"Ġ/":378,"ch":379,"ay":380,"out":381,"ation":382,"ess":383,"id":384,"Ġex":385,"Ġthis":386,"ate":387,"and":388,"ag":389,"Ġcom":390,"Ġnot":391,"ĠA":392,"ul":393,"Ġha":394,"th":395,"Ġpro":396,"Ġcan":397,"ect":398,"ere":399,"ce":400,"se":401,"Ġv":402,"..":403,"um":404,"sw":405,"Ġde":406,"ame":407,"Ġdo":408,"ir":409,"ur":410,"ork":411,"erver":412,"Ġas":413,"ort":414,"ould":415,"ack":416,"Ġhave":417,"Ġor":418,"nt":419,"ol":420,"ire":421,"ost":422,"ĠTh":423,"rom":424,"Ġsh":425,"yst":426,"Ġfile":427,"ystem":428,"op":429,"âĶĢâĶĢâĶĢâĶĢ":430,"ĠĠĠĠĠĠĠĠĠĠĠĠĠĠĠĠ":431,"og":432,"ill":433,"Ġare":434,"qu":435,"art":436,"ain":437,"el":438,"Ġne":439,"Ġch":440,"sh":441,"ĠC":442,"An":443,"Ġby":444,"ine":445,"ĠD":446,"ĠĠĠĠĠ":447,"swer":448,"ach":449,"pp":450,"dd":451,"ĉĠĠ":452,"ore":453,"ome":454,"Ġfrom":455,"li":456,"ist":457,"Ġif":458,"Ġ--":459,"able":460,"ĠP":461,"Ġsu":462,"cess":463,"Ġbut":464,"'t":465,"ĠĠĠĠĠĠĠ":466,"Ġcomm":467,"ff":468,"Ġall":469,"vic":470,"ions":471,"ult":472,"Ġse":473,"Answer":474,"ail":475,"'s":476,"Ġserver":477,"Ġmy":478,"ip":479,"ĠL":480,"od":481,"ĠM":482,"end":483,"Ġyour":484,"ble":485,"ĠR":486,"----":487,"Ġuse":488,"Ġrun":489,"Ġtr":490,"ht":491,"Ġ[":492,"Ġk":493,"estion":494,"ally":495,"ĠN":496,"com":497,"ers":498,"Ġ$":499,"Ġwill":500,"==":501,"Ġadd":502,"ind":503,"ap":504,"ex":505,"ant":506,"Ġli":507,"Ġun":508,"Ġset":509,"irect":510,"Ġfil":511,"Ġ'":512,"16":513,"Ġ3":514,"Ġat":515,"Ġal":516,"10":517,"are":518,"eth":519,"Ġany":520,"ock":521,"cri":522,"age":523,"ĠF":524,"Ġcommand":525,"ich":526,"ple":527,"ory":528,"ĠU":529,"Ġ=":530,"vice":531,"Ġsystem":532,"put":533,"Ġout":534,"12":535,"con":536,"root":537,"ĠO":538,"our":539,"int":540,"ust":541,"ure":542,"fig":543,"so":544,"Ġsp":545,"Qu":546,"Ġwork":547,"Ġinst":548,"cript":549,"ĉĉ":550,"ard":551,"etw":552,"ug":553,"ode":554,"ount":555,"rou":556,"ĠW":557,"ue":558,"port":559,"ive":560,"Question":561,"abl":562,"Ġup":563,"nect":564,"Ġfiles":565,"pl":566,"ime":567,"ux":568,").":569,"Ġso":570,"ang":571,"ress":572,"Ġ|":573,"iz":574,"ell":575,"ace":576,"ash":577,"ĠThe":578,"oo":579,"Ġwhich":580,"ĠT":581,"25":582,"Ġlike":583,"Ġusing":584,"20":585,"ĠE":586,"Ġ4":587,"Ġen":588,"Ġj":589,"one":590,"inux":591,"Ġac":592,"nd":593,"ern":594,"ase":595,"key":596,"etc":597,"Ġcont":598,"ĠB":599,"err":600,"Ġdirect":601,"Ġneed":602,"tp":603,"yp":604,"ub":605,"ated":606,"Ġ5":607,"Ġget":608,"for":609,"dev":610,"Ġi":611,"Ġ*":612,"erm":613,"Ġsome":614,"Ġthen":615,"etwork":616,"to":617,"0000":618,"Ġopt":619,"ning":620,"ink":621,"Ġwould":622,"lo":623,"fa":624,"Ġma":625,"âĶĢâĶĢâĶĢâĶĢâĶĢâĶĢâĶĢâĶĢ":626,"Ġthere":627,"Ġdis":628,"ech":629,"fer":630,"Ġuser":631,"ther":632,"Ġwhen":633,"92":634,"Ġone":635,"ata":636,"The":637,"ssh":638,"64":639,"Ġconnect":640,"ĠG":641,"##":642,"Ġonly":643,"bin":644,"Ġ10":645,"ocal":646,"),":647,"Ġwant":648,"Ġinter":649,"ĠH":650,"ud":651,"ER":652,"ity":653,"Ġfo":654,"Ġdoes":655,"ord":656,":/":657,"cp":658,"fault":659,"Ġres":660,"Ġno":661,"Ġapp":662,"ys":663,"ite":664,"error":665,"11":666,"ast":667,"Ġscript":668,"IN":669,"...":670,"bug":671,"echo":672,"Ġar":673,"ment":674,"bo":675,"Ġpo":676,"Ġlog":677,"ĠV":678,"tu":679,"Ġother":680,"Ġver":681,"log":682,"Ġconfig":683,"ST":684,"sion":685,"oth":686,"Ġhas":687,"ath":688,"Ġpr":689,"01":690,"lic":691,"iv":692,"Ġ8":693,"ables":694,"Ġ<":695,"pro":696,"AT":697,"Ġme":698,"Ġqu":699,"Ġwas":700,"You":701,"Ġshould":702,"ĠIP":703,"Ġpre":704,"fs":705,"ervice":706,"Ġwhat":707,"file":708,"ype":709,"ix":710,"eb":711,"UT":712,"ook":713,"own":714,"llow":715,"Ġerror":716,"24":717,"ize":718,"Ġroot":719,"Ġcre":720,"Ġtime":721,"per":722,"cl":723,"Ġprocess":724,"Ġback":725,"ead":726,"gr":727,"Ġhost":728,"Ġnetwork":729,"Ġman":730,"ies":731,"ID":732,"net":733,"Ġ.":734,"Ġ\"$":735,"act":736,"Ġ:":737,"Ġrem":738,"ign":739,"eck":740,"Ġpack":741,"âĢ":742,"ep":743,"arg":744,"Ġle":745,"Ġwr":746,"Ġport":747,"ernel":748,"Ġspec":749,"pen":750,"Ġalso":751,"Ġdirectory":752,"name":753,"Ġread":754,"ĠThis":755,"ote":756,"Ġstart":757,"Ġinstall":758,"Ġ6":759,"mp":760,"roup":761,"Ġjust":762,"Ġ#":763,"debug":764,"Ġsame":765,"ample":766,"'m":767,"Ġam":768,"Ġgo":769,"168":770,"os":771,"Ġway":772,"gh":773,"ting":774,"tr":775,"xx":776,"aus":777,"form":778,"host":779,"ide":780,"ĉĠĠĠĠĠ":781,"ond":782,"Ġpart":783,"Ġused":784,"wh":785,"Ġnew":786,"Ġkey":787,"Ġim":788,"Ġchang":789,"ows":790,"SH":791,"Ġfollow":792,"fter":793,"Ġtry":794,"PT":795,"Ġdefault":796,"lient":797,"Ġrunning":798,"Ġval":799,"000":800,"ww":801,"yn":802,"CE":803,"uth":804,"Ġline":805,"Ġaddress":806,"ber":807,"Ġhow":808,"blem":809,"====":810,"--------":811,"ĠIf":812,"Ġmore":813,"ound":814,"ong":815,"Ġ{":816,"usr":817,"**":818,"Ġaccess":819,"ition":820,"av":821,"ass":822,"lib":823,"read":824,"atch":825,"Ġ20":826,"=\"":827,"80":828,"Ġlo":829,"Ġsee":830,"lock":831,"Ġproblem":832,"ari":833,"Ġspecif":834,"://":835,"13":836,"der":837,"ull":838,"Ġ7":839,"user":840,"Ġstr":841,"Ġoption":842,"Ġab":843,"Ġoutput":844,"pr":845,"15":846,"ry":847,"Ġssh":848,"Ġmay":849,"ĠĠĠĠĠĠĠĠĠĠĠĠĠĠĠĠĠĠĠĠĠĠĠĠĠĠĠĠĠĠĠĠ":850,"ia":851,"Ġdata":852,"Ġdif":853,"17":854,"Ġkernel":855,"irst":856,"14":857,"ans":858,"ĠLinux":859,"RO":860,"Ġcould":861,"\",":862,"ction":863,"ary":864,"22":865,"ial":866,"Ġsec":867,"ĠIn":868,"Ġlist":869,"If":870,"Ġrequ":871,"Ġmach":872,"var":873,"Wh":874,"ause":875,"Ġdon":876,"te":877,"Ġkn":878,"urn":879,"Ġlook":880,"ft":881,"ible":882,"19":883,"Ġsup":884,"In":885,"Ġper":886,"Ġinto":887,"http":888,"RE":889,"assw":890,"55":891,"ource":892,"32":893,"xt":894,"Ġname":895,"ON":896,"very":897,"tes":898,"ptables":899,"ight":900,"Ġecho":901,"Ġfail":902,"ks":903,"Ġover":904,"rw":905,"Ġdiffer":906,"no":907,"ĠĠĠĠĠĠĠĠĠĠĠ":908,"ument":909,"ie":910,"Ġfollowing":911,"Ġthem":912,"Ġcall":913,"way":914,"bash":915,"ware":916,"Ġ>":917,"system":918,"Ġshell":919,"Ġsim":920,"ied":921,"()":922,"Ġwe":923,"AR":924,"18":925,"set":926,"Ġdri":927,"sd":928,"rep":929,"Ġmount":930,"Ġcomp":931,"]:":932,"ener":933,"ME":934,"04":935,"255":936,"Ġnum":937,"ages":938,"Ġthey":939,"Ġev":940,"Ġbo":941,"Ġvari":942,"23":943,"home":944,"Ġcontain":945,"Ġexec":946,"Ġ192":947,"Ġstat":948,"ĠĠĠĠĠĠĠĠĠ":949,"ree":950,"ache":951,"86":952,"Ġcheck":953,"Ġact":954,"urre":955,"ext":956,"Ġlocal":957,"Ġexp":958,"Ġbec":959,"Ġfirst":960,"untu":961,"Ġabout":962,"This":963,"Ġsom":964,");":965,"ĠIt":966,"Ġsub":967,"Ġtw":968,"Ġmake":969,"sp":970,"Ġthan":971,"fo":972,"iss":973,"server":974,"ync":975,"assword":976,"ron":977,"ething":978,"Ġfun":979,"ĠâĶ":980,"Ġknow":981,"ance":982,"Ġx":983,"Ġret":984,"Ġopen":985,"uct":986,"fore":987,"ous":988,"Ġ\\":989,"ert":990,"Ġexample":991,"AN":992,"'ve":993,"Ġmachine":994,"ually":995,"Ġtri":996,"ever":997,"Ġafter":998,"urrent":999,"ution":1000,"Ġtest":1001,"ĠAC":1002,"/.":1003,"tern":1004,"Ġent":1005,"Ġlink":1006,"config":1007,"Ġtype":1008,"Ġ12":1009,"Ġclient":1010,"Ġmod":1011,"cre":1012,"Ġbytes":1013,"other":1014,"Ġpacket":1015,"Ġ9":1016,"Ġpl":1017,"gram":1018,"omain":1019,"uration":1020,"Ġfind":1021,"ose":1022,"OS":1023,"ject":1024,"Ġeth":1025,"local":1026,"ĉĠĠĠĠĠĠ":1027,"min":1028,"str":1029,"Ġtwo":1030,"ule":1031,"ocker":1032,"Ġperm":1033,"Ġinterf":1034,"09":1035,"Ġeach":1036,"conf":1037,"not":1038,"Ġrout":1039,"Ġsomething":1040,"âĶĢâĶĢâĶĢâĶĢâĶĢâĶĢâĶĢâĶĢâĶĢâĶĢâĶĢâĶĢâĶĢâĶĢâĶĢâĶĢ":1041,"Ġcase":1042,"ines":1043,"Ġdes":1044,"ov":1045,"Ġ+":1046,"Ġtcp":1047,"Ġdifferent":1048,"CEPT":1049,"ating":1050,"indows":1051,"ical":1052,"LE":1053,"Ġversion":1054,"30":1055,"):":1056,"IT":1057,"Ġiss":1058,"ication":1059,"ak":1060,"Ġevery":1061,"ically":1062,"udo":1063,"orre":1064,"Ġbecause":1065,"dir":1066,"Ġdevice":1067,"####":1068,"Ġthese":1069,"imit":1070,"arget":1071,"AC":1072,"uil":1073,"Ġfe":1074,"Ġwhere":1075,"Ġgroup":1076,"OR":1077,"Ġcode":1078,"Ġ]":1079,"Ġav":1080,"low":1081,"load":1082,"do":1083,"Ġprint":1084,"ml":1085,"Ġsol":1086,"inal":1087,"FS":1088,"Ġsuch":1089,"date":1090,"app":1091,"Ġ&":1092,"Ġad":1093,"Ġass":1094,"add":1095,"Ġits":1096,"enc":1097,"ames":1098,"Ġreturn":1099,"elp":1100,"vices":1101,"vel":1102,"wn":1103,"ĠWh":1104,"Ġrec":1105,"Ġag":1106,"thing":1107,"Ġ00":1108,"Ġexecut":1109,"ince":1110,"Ġnumber":1111,"Ġconfiguration":1112,"Ġservice":1113,"ian":1114,"arch":1115,"Ġchar":1116,"sudo":1117,"Ġsw":1118,"CP":1119,"Ġdisk":1120,"__":1121,"ence":1122,"Ġposs":1123,"my":1124,"Ġdoesn":1125,"44":1126,"Ġwithout":1127,"Ġprogram":1128,"Ġip":1129,"ake":1130,"ob":1131,"Ġ}":1132,"02":1133,"md":1134,"SS":1135,"Ġunder":1136,"Ġhere":1137,"Ġsupport":1138,"33":1139,"rc":1140,"sys":1141,"Ġarg":1142,"ty":1143,"Ġvalue":1144,"line":1145,"Ġvia":1146,"vir":1147,"ĠĠčĊ":1148,"Ġsystemd":1149,"Ġid":1150,"cept":1151,"par":1152,"ward":1153,"service":1154,"99":1155,"tmp":1156,"Ġcreate":1157,"ough":1158,"Ġbackup":1159,"ED":1160,"Ġ16":1161,"XX":1162,"ĠACCEPT":1163,"Ġable":1164,"::":1165,"ffic":1166,"ations":1167,"Ġ17":1168,"ph":1169,"56":1170,"=$":1171,"lder":1172,"Ġseem":1173,"ĠYou":1174,"Ġfound":1175,"Ġpri":1176,"ser":1177,"Ġatt":1178,"PUT":1179,"ge":1180,"txt":1181,"ne":1182,"ules":1183,"Ġchange":1184,"abled":1185,"ĠIN":1186,"Ġterm":1187,"Ġsize":1188,"Ġcurrent":1189,"Ġprot":1190,"Ġworks":1191,"sa":1192,"ght":1193,"sync":1194,"Ġcorre":1195,"Ġmem":1196,"Ġbash":1197,"ĠSSH":1198,"rough":1199,"comm":1200,"Ġtrying":1201,"open":1202,"Ġthing":1203,"EN":1204,"ates":1205,"50":1206,"Ġsecond":1207,"start":1208,"be":1209,"ĠâĶĤ":1210,"ask":1211,"36":1212,"Ġpar":1213,"Ġtried":1214,"Ġconnection":1215,"test":1216,"34":1217,"pre":1218,"Ġallow":1219,"Ġbeen":1220,"Ġhelp":1221,"itch":1222,"ublic":1223,"Ġend":1224,"Ġgener":1225,"run":1226,"mod":1227,"Ġmess":1228,"ĠĠĠĠĠĠĠĠĠĠĠĠ":1229,"ax":1230,"Ġreg":1231,"Ġstill":1232,"ray":1233,"Ġsc":1234,"get":1235,"ĠX":1236,"ify":1237,"ove":1238,"boot":1239,"opy":1240,"fil":1241,"tual":1242,"its":1243,"AD":1244,"ude":1245,"Ġsource":1246,"back":1247,"ual":1248,"Ġdet":1249,"dis":1250,"Ġbefore":1251,"ten":1252,"Ġinterface":1253,"Ġeven":1254,"Ġmode":1255,"Ġcl":1256,"Ġpassword":1257,"Ġown":1258,"ĠK":1259,"How":1260,"Ġ15":1261,"Ġremote":1262,"org":1263,"Ġthrough":1264,"Ġresult":1265,"Ġboth":1266,"Ġblock":1267,"Ġprov":1268,"ents":1269,"Ġfunction":1270,"Ġem":1271,"AL":1272,"Ġsure":1273,"Ġsetting":1274,"ĠĠĠĠĠĠĠĠĠĠ":1275,"Ġpath":1276,"olum":1277,"Ġpossible":1278,"ĠJ":1279,"apt":1280,"Ġmight":1281,"cc":1282,"Ġmatch":1283,"Ġboot":1284,"iptables":1285,"Ġoptions":1286,"'re":1287,"Ġpoint":1288,"Ġrequire":1289,"Ġdone":1290,"lag":1291,"ĠRA":1292,"ql":1293,"where":1294,"Ġanother":1295,"ctl":1296,"br":1297,"192":1298,"formation":1299,"clude":1300,"48":1301,"Ġsend":1302,"Ġ~":1303,"val":1304,"Ġnow":1305,"========":1306,"but":1307,"path":1308,"TP":1309,"Ġdid":1310,"27":1311,"xy":1312,"Ġaut":1313,"pend":1314,"ish":1315,"38":1316,"ues":1317,"Ġusers":1318,"print":1319,"ET":1320,"top":1321,"ee":1322,"opt":1323,"rwx":1324,"35":1325,"....":1326,"fin":1327,"28":1328,"Ġquestion":1329,"www":1330,"gin":1331,"ted":1332,"37":1333,"Ġmult":1334,"ls":1335,"21":1336,"direct":1337,"Ġinstead":1338,"Ġweb":1339,"Ġissue":1340,"It":1341,"ice":1342,"ters":1343,"ING":1344,"So":1345,"Ġform":1346,"Ġload":1347,"ailable":1348,"Ġhard":1349,"Ġ14":1350,"Ġht":1351,"Ġdown":1352,"uthent":1353,"aw":1354,"Ġz":1355,"Ġcontro":1356,"Ġconfigure":1357,"Ġinformation":1358,"po":1359,"Ġ%":1360,"ĠFor":1361,"the":1362,"ors":1363,"Ġoff":1364,"Ġanswer":1365,"Ġargument":1366,"ange":1367,"Ġwrite":1368,"ĉĉĉĉ":1369,"=/":1370,"irtual":1371,"sel":1372,"viron":1373,"Ġcommands":1374,"Ġtra":1375,"ĠĠĠĠĠĠĠĠĠĠĠĠĠĠĠ":1376,"08":1377,"buntu":1378,"Ġbeing":1379,"man":1380,"Ġstring":1381,"ump":1382,"ased":1383,"een":1384,"ise":1385,"FI":1386,"stat":1387,"Ġgiv":1388,"Ġexist":1389,"29":1390,"Ġapplic":1391,"Ġke":1392,"26":1393,"Ġthink":1394,"vironment":1395,"ns":1396,"etween":1397,"aces":1398,"IP":1399,"time":1400,"Ġworking":1401,"data":1402,"less":1403,"NS":1404,"For":1405,"ination":1406,"Ġpackets":1407,"US":1408,"ave":1409,"uc":1410,"sec":1411,"Ġvariable":1412,"DE":1413,"ĠWindows":1414,"ession":1415,"Ġbetween":1416,"07":1417,"lease":1418,"issions":1419,"Ġacc":1420,"Ġcorrect":1421,"Ġob":1422,"Ġcharac":1423,"side":1424,"Ġrequest":1425,"Ġwhile":1426,"03":1427,"Ġlong":1428,"ither":1429,"ably":1430,"aid":1431,"Ġhttp":1432,"ear":1433,"Ġtheir":1434,"Ġhand":1435,"ick":1436,"Ġstate":1437,"Ġfilesystem":1438,"Ġloc":1439,"06":1440,"ĠCon":1441,"Ġph":1442,"ĠĠĠĠĠĠĠĠĠĠĠĠĠĠ":1443,"LO":1444,"Ġgu":1445,"ility":1446,"05":1447,"estination":1448,"Ġgrep":1449,"group":1450,"uff":1451,"Ġinstalled":1452,"Ġ...":1453,"wr":1454,"inter":1455,"Ġmemory":1456,"ingle":1457,"Ġtrans":1458,"Ġshare":1459,"Ġsy":1460,"mount":1461,"uild":1462,"Ġvery":1463,"Ġswitch":1464,"Ġoper":1465,"right":1466,"ĠSt":1467,"fix":1468,"bove":1469,"Ġservers":1470,"Ġtraffic":1471,"AP":1472,"Ġel":1473,"uch":1474,"77":1475,"proc":1476,"round":1477,"St":1478,"Ġbr":1479,"****":1480,"wall":1481,"https":1482,"gg":1483,"Ġabove":1484,"Âł":1485,"Ġser":1486,"Ġthose":1487,"Ġpermissions":1488,"init":1489,"Ġwrit":1490,"Ġcomple":1491,"ful":1492,"ories":1493,"Ġhapp":1494,"Ġavailable":1495,"Ġsolution":1496,"ib":1497,"Ġmost":1498,"systemd":1499,"olic":1500,"Ġdrive":1501,"ative":1502,"96":1503,"ready":1504,"Ġint":1505,"Ġwell":1506,"mb":1507,"ĠHow":1508,"Ġ?":1509,"Ġsay":1510,"Ġexit":1511,"Ġagain":1512,"LI":1513,"Ġtim":1514,"Ġsince":1515,"Ġhad":1516,"----------------":1517,"sed":1518,"54":1519,"Ġpartition":1520,"100":1521,"Ġpass":1522,"Ch":1523,"ways":1524,"Ġsudo":1525,"res":1526,"cat":1527,"ular":1528,"rid":1529,"io":1530,"lect":1531,"ĠVM":1532,"'d":1533,"self":1534,"Ġarray":1535,"ms":1536,"What":1537,"88":1538,"AME":1539,"Ġsetup":1540,"irewall":1541,"EC":1542,"}\"":1543,"Ġu":1544,"Ġenvironment":1545,"Ġalready":1546,"Ġnames":1547,"Ġsingle":1548,"SI":1549,"Ġcopy":1550,"Ġseems":1551,"ĠâĢ":1552,"31":1553,"db":1554,"ĠSo":1555,"ts":1556,"auth":1557,"\":":1558,"rypt":1559,"nel":1560,"Ġcons":1561,"Ġshow":1562,"Ġperform":1563,"Ġiptables":1564,"AB":1565,"Ġdev":1566,"ĠUbuntu":1567,"Ġ100":1568,"MP":1569,"type":1570,"ving":1571,"Ġsect":1572,"urity":1573,"Ġ22":1574,"Ġ19":1575,"Ġ201":1576,"ious":1577,"Ġinit":1578,"ĠRAID":1579,"andard":1580,"Ġcreated":1581,"Ġmultip":1582,"Ġhappen":1583,"39":1584,"Ġlimit":1585,"76":1586,"EL":1587,"Ġcannot":1588,"ason":1589,"Ġnon":1590,"nal":1591,"Ġinput":1592,"uthentication":1593,"Ġmin":1594,"UL":1595,"amet":1596,"orm":1597,"Ġspace":1598,"ĠServer":1599,"ized":1600,"ature":1601,"ower":1602,"My":1603,"40":1604,"${":1605,"ffect":1606,"stall":1607,"ope":1608,"Ġput":1609,"AS":1610,"Ġ11":1611,"lob":1612,"ves":1613,"ocument":1614,"Is":1615,"Ġterminal":1616,"ccess":1617,"ether":1618,"SO":1619,"ps":1620,"Ġmain":1621,"Ġ&&":1622,"IC":1623,"Ex":1624,"Ġdoing":1625,"Con":1626,"ftware":1627,"outer":1628,"Ġstatus":1629,"Ġ;":1630,"59":1631,"Ġ18":1632,"ols":1633,"Ġtarget":1634,"bl":1635,"âĢĲ":1636,"Ġcomput":1637,"over":1638,"UP":1639,"ubuntu":1640,"Ġmuch":1641,"256":1642,"Ġwhy":1643,"Ġreally":1644,"domain":1645,"NO":1646,"Ġfailed":1647,"Ġeas":1648,"Ġpublic":1649,"ider":1650,"ĉĠ":1651,"clud":1652,"ĠBut":1653,"Ġrepl":1654,"row":1655,"Ġrep":1656,"PU":1657,"Ġetc":1658,"Ġdec":1659,"red":1660,"oid":1661,"UN":1662,"bably":1663,"list":1664,"Ġfolder":1665,"Ġtable":1666,"exec":1667,"Ġtoo":1668,"46":1669,"Ġeither":1670,"Ġspecified":1671,"Ġsign":1672,"ĠDe":1673,"Ġprev":1674,"ocket":1675,"='":1676,"Ġenc":1677,"Ġrece":1678,"Ġright":1679,"Ġide":1680,"Ġreason":1681,"Ġmust":1682,"Ġdepend":1683,"linux":1684,"\".":1685,"vm":1686,"eng":1687,"Ġlast":1688,"play":1689,"Ġspecific":1690,"58":1691,"fe":1692,"ĠUn":1693,"Ġbeh":1694,"Ġloop":1695,"To":1696,"sda":1697,"ict":1698,"When":1699,"'ll":1700,"Ġdele":1701,"Ġrules":1702,"Ġorder":1703,"Ġext":1704,"Ġflag":1705,"Ġlogin":1706,"ba":1707,"Ġdist":1708,"Ġroute":1709,"Ġcron":1710,"Ġelse":1711,"Ġexpl":1712,"sha":1713,"Ġlines":1714,"ebian":1715,"ethod":1716,"Ġexpect":1717,"ribut":1718,"html":1719,"map":1720,"ci":1721,"cd":1722,"Ġlinux":1723,"Ġpriv":1724,"Ġmany":1725,"emon":1726,"Ġdomain":1727,"PN":1728,"ktop":1729,"++":1730,"ginx":1731,"Ġcert":1732,"EX":1733,"Ġfix":1734,"Ġmessage":1735,"Ġapplication":1736,"Ġfine":1737,"Ġerrors":1738,"empt":1739,"script":1740,"ION":1741,"ĠINPUT":1742,"ces":1743,"Ġwho":1744,"Ġpost":1745,"edit":1746,"45":1747,"pri":1748,"Ġpackage":1749,"Ġident":1750,"Ġbit":1751,"ved":1752,"Ġgood":1753,"ĠOpen":1754,"ĠOS":1755,"NAME":1756,"Ġfull":1757,"Ġsm":1758,"Ġresp":1759,"igh":1760,"Ġautom":1761,"Ġformat":1762,"ffff":1763,"ilar":1764,"ait":1765,"Ġmultiple":1766,"Ġvirtual":1767,"ager":1768,"ator":1769,"sc":1770,"47":1771,"Ġthings":1772,"ission":1773,"Ġparamet":1774,"ark":1775,"Ġanything":1776,"ases":1777,"ES":1778,"Ġprobably":1779,"Ġenabled":1780,"Ġbelow":1781,"ternal":1782,"43":1783,"Ġ)":1784,"Ġdocker":1785,"med":1786,"Ġrestart":1787,"53":1788,"ĠWhen":1789,"atab":1790,"Ġkeep":1791,"ĠDNS":1792,"Ġstop":1793,"comp":1794,"bit":1795,"ield":1796,"lan":1797,"Ġnet":1798,"aemon":1799,"tcp":1800,"Ġalways":1801,"Ġrel":1802,"igned":1803,"target":1804,"Ġyes":1805,"########":1806,"uid":1807,"But":1808,"57":1809,"fd":1810,"ific":1811,"#!":1812,"Ġanywhere":1813,"00000000":1814,"Ġstruct":1815,"thon":1816,"with":1817,"ored":1818,"Ġlat":1819,"ror":1820,"share":1821,"Ġbet":1822,"by":1823,"Ġwere":1824,"info":1825,"stand":1826,"(\"":1827,"ython":1828,"size":1829,"php":1830,"ĠNo":1831,"CO":1832,"200":1833,"mnt":1834,"ename":1835,"Ġrouter":1836,"olicy":1837,"Ġ13":1838,"foo":1839,"lso":1840,"UR":1841,"Ġforward":1842,"Ġjob":1843,"ged":1844,"Ġpage":1845,"Ġmeans":1846,"Ġfirewall":1847,"Ġdirectories":1848,"Ġdefin":1849,"ĠCPU":1850,"On":1851,"128":1852,"default":1853,"ĠUS":1854,"49":1855,"files":1856,"As":1857,"ily":1858,"network":1859,"ateway":1860,"Ġactually":1861,"Ġgoing":1862,"Ġms":1863,"\")":1864,"Ġdestination":1865,"Ġcle":1866,"find":1867,"Ġcontainer":1868,"Ġmon":1869,"Ġrule":1870,"Ġdro":1871,"sbin":1872,"Ġsepar":1873,"Ġmak":1874,"ength":1875,"Ġuses":1876,"Ġ${":1877,"Ġgot":1878,"Ġ!":1879,"Ġ64":1880,"mail":1881,"ĠRe":1882,"HO":1883,"plement":1884,"Ġaccount":1885,"DI":1886,"mys":1887,"ru":1888,"pache":1889,"mac":1890,"Ġtun":1891,"creen":1892,"RI":1893,"Ġsoftware":1894,"pn":1895,"cont":1896,".)":1897,"rem":1898,"Ġhead":1899,"client":1900,"ement":1901,"ging":1902,"Re":1903,"sing":1904,"dex":1905,"ernet":1906,"Ġsimilar":1907,"Ġsugg":1908,"Ġsystems":1909,"example":1910,"ctions":1911,"Ġgr":1912,"Ġ200":1913,"Ġstandard":1914,"Ġbetter":1915,"ĠDebian":1916,"#!/":1917,"ĠĠĠĠĠĠĠĠĠĠĠĠĠĠĠĠĠĠĠĠĠĠĠĠĠĠĠĠĠĠĠĠĠĠĠĠĠĠĠĠĠĠĠĠĠĠĠĠĠĠĠĠĠĠĠĠĠĠĠĠĠĠĠĠ":1918,"IX":1919,"olume":1920,"uring":1921,"ftp":1922,"ĠPro":1923,"ername":1924,"Ġsession":1925,"ĠOn":1926,"ocol":1927,"Ġold":1928,"Ġinv":1929,"Ġtake":1930,"NU":1931,"ails":1932,"ĠID":1933,"Ġinet":1934,"arning":1935,"ier":1936,"orage":1937,"Ġunderstand":1938,"=$(":1939,"Ġremove":1940,"Ġ80":1941,"Ġlib":1942,"Ġfew":1943,"Ġsuccess":1944,"Ġgiven":1945,"->":1946,"openssh":1947,"Ġtyp":1948,"kn":1949,"ero":1950,"eed":1951,"Ġtext":1952,"There":1953,"Ġconfigured":1954,"Ġinstance":1955,"Ġtell":1956,"ĠĠĠĠĠĠĠĠĠĠĠĠĠ":1957,"Ġhaving":1958,"Ġind":1959,"ATH":1960,"âĶĢâĶĢâĶĢâĶĢâĶĢâĶĢâĶĢâĶĢâĶĢâĶĢâĶĢâĶĢâĶĢâĶĢâĶĢâĶĢâĶĢâĶĢâĶĢâĶĢâĶĢâĶĢâĶĢâĶĢâĶĢâĶĢâĶĢâĶĢâĶĢâĶĢâĶĢâĶĢ":1961,"Here":1962,"Ġ\"${":1963,"iB":1964,"Ġdebug":1965,"66":1966,"dport":1967,"Ġour":1968,"Ġsimple":1969,"Ġprocesses":1970,"Ġnorm":1971,"Ġeverything":1972,"full":1973,"Ġwrong":1974,"Ġappro":1975,"grep":1976,"ately":1977,"Ġclo":1978,"atabase":1979,"Ġadded":1980,"42":1981,"52":1982,"Ġprovid":1983,"âĢĻ":1984,"Ġimplement":1985,"Ġping":1986,"Ġgive":1987,"Ġimage":1988,"Ġlot":1989,"xxx":1990,"Ġcalled":1991,"Un":1992,"Ġmethod":1993,"docker":1994,"Ġlevel":1995,"arent":1996,"Pro":1997,"And":1998,"SD":1999,"Ġinclud":2000,"Ġrefer":2001,"tab":2002,"connect":2003,"aut":2004,"pped":2005,"Ġ\"/":2006,"Ġmiss":2007,"pc":2008,"Ġproper":2009,"Ġ255":2010,"Ġhome":2011,"ĠEx":2012,"ĠCh":2013,"Ġsearch":2014,"IL":2015,"udp":2016,"ched":2017,"new":2018,"tty":2019,"anks":2020,"gn":2021,"itional":2022,"ced":2023,"Ġ./":2024,"ridge":2025,"Ġreboot":2026,"which":2027,"\";":2028,"Ġday":2029,"ply":2030,"Ġconf":2031,"AM":2032,"60":2033,"done":2034,"sent":2035,"Ġedit":2036,"Ġ->":2037,"only":2038,"Ġconnected":2039,"Ġdriver":2040,"write":2041,"Ġconnections":2042,"ARD":2043,"Ġsys":2044,"Ġbased":2045,"emp":2046,"ĉĉĠĠ":2047,"Ġchanges":2048,"ven":2049,"*.":2050,"Ġresol":2051,"Ġls":2052,"Ġdevices":2053,"Ġremov":2054,"Ġupdate":2055,"nap":2056,"head":2057,"Ġ`":2058,"Ġisn":2059,"Ġlooking":2060,"ĠHowever":2061,"amba":2062,"go":2063,"Ġfree":2064,"ended":2065,"que":2066,"link":2067,"Ġtak":2068,"Ġsuggest":2069,"Ġassum":2070,"url":2071,"SC":2072,"Ġ@":2073,"OUT":2074,"pid":2075,"Ġinside":2076,"Ġthough":2077,"Ġports":2078,"Ġcat":2079,"du":2080,"78":2081,"ream":2082,"deb":2083,"ĠAn":2084,"hing":2085,"Ġ512":2086,"ention":2087,"ysical":2088,"Ġproxy":2089,"Ġrsync":2090,"Ġbuild":2091,"],":2092,"Ġaw":2093,"Ġaddresses":2094,"active":2095,"Ġvalues":2096,"Linux":2097,"096":2098,"AST":2099,"))":2100,"sions":2101,":~":2102,"Ġitself":2103,"Ġbehav":2104,"ather":2105,"aa":2106,"ified":2107,"(),":2108,"ĠMy":2109,"Ġsecurity":2110,"OT":2111,"Ġautomat":2112,"uilt":2113,"Ġcomputer":2114,"pm":2115,"ĠTCP":2116,"disk":2117,"Ġorig":2118,"ef":2119,"Ġvalid":2120,"amed":2121,"Ġhigh":2122,"Ġattempt":2123,"Ġreal":2124,"SSH":2125,"Ġexecute":2126,"null":2127,"SA":2128,"ustom":2129,"Ġ21":2130,"backup":2131,"Ġmax":2132,"Ġcharacter":2133,"attern":2134,"ently":2135,"Ġdocument":2136,"---":2137,"ĠEn":2138,"Ġcontrol":2139,"down":2140,"ik":2141,"this":2142,"AG":2143,"Ġden":2144,"ller":2145,"Ġwithin":2146,"itor":2147,"Ġexact":2148,"Ġcomplete":2149,"check":2150,"Ġdisplay":2151,"Ġchanged":2152,"Ġbox":2153,"addr":2154,"Ġnext":2155,"rsync":2156,"Ġneeds":2157,"ĠThere":2158,"Ġlibr":2159,"ogle":2160,"Ġlooks":2161,"known":2162,"Ġpip":2163,"Ġsshd":2164,"Ġgetting":2165,"Ġleast":2166,"Ġfield":2167,"limit":2168,"Ġlength":2169,"Ġdirectly":2170,"Ġaround":2171,"ouble":2172,"Ġask":2173,"Ġarch":2174,"Ġlarg":2175,"Host":2176,"Ġrest":2177,"QL":2178,"ĠIs":2179,"util":2180,"cron":2181,"wise":2182,"Ġ==":2183,"Ġappear":2184,"install":2185,"ĠPC":2186,"Ġeffect":2187,"of":2188,"state":2189,"pace":2190,"ites":2191,"box":2192,"Ġwon":2193,"VM":2194,"Ġfeature":2195,"ild":2196,"source":2197,"ute":2198,"sl":2199,"ĠCent":2200,"ruct":2201,"ĠIPv":2202,"Ġobject":2203,"Ġstarted":2204,"Ġidea":2205,"Ġprintf":2206,"Ġreceiv":2207,"itions":2208,"ava":2209,"Ġspecify":2210,"Ġmean":2211,"Ġfunctions":2212,"ries":2213,"Ġentry":2214,"Ġnothing":2215,"TTP":2216,"old":2217,"Ġlet":2218,"Ġvariables":2219,"================":2220,"leep":2221,"ĠAdd":2222,"lay":2223,"command":2224,"68":2225,"sub":2226,"isk":2227,"Ġmissing":2228,"Ġbehavi":2229,"Ġsocket":2230,"ale":2231,"Ġauthentication":2232,"Ġlogs":2233,"esktop":2234,"til":2235,"max":2236,"ics":2237,"Ġhardware":2238,"Ġmachines":2239,"Ġbas":2240,"use":2241,"ssl":2242,"Now":2243,"Ġruns":2244,"SE":2245,"Ġbest":2246,"51":2247,"Ġshows":2248,"97":2249,"Ġcharacters":2250,"Ġdatabase":2251,"TR":2252,"98":2253,"ROP":2254,"Ġic":2255,"Ġreturns":2256,"Ġdescript":2257,"FILE":2258,"Ġsettings":2259,"cf":2260,"pty":2261,"Ġtimes":2262,"@@":2263,"Ġcol":2264,"aster":2265,"ially":2266,"Ġstatic":2267,"Ġsort":2268,"rompt":2269,"dr":2270,"Note":2271,"num":2272,"Ġ$(":2273,"sole":2274,"quest":2275,"include":2276,"Ġwor":2277,"Ġcontains":2278,"Ġmail":2279,"Ġsmall":2280,"Ġsent":2281,"ments":2282,"Ġdrives":2283,"After":2284,"df":2285,"EST":2286,"ĠUSB":2287,"Ġactive":2288,"Ġ30":2289,"ency":2290,"reat":2291,"any":2292,"TER":2293,"Ġword":2294,"ached":2295,"sql":2296,"Ġneeded":2297,"PS":2298,"fully":2299,"GB":2300,"rsa":2301,"Ġquot":2302,"Ġprefer":2303,"ade":2304,"Ġadmin":2305,"Ġsl":2306,"Ġupd":2307,"imum":2308,"ĠNFS":2309,"Ġprivate":2310,"Ġ23":2311,"omm":2312,"De":2313,"MA":2314,"HCP":2315,"MB":2316,"point":2317,"ush":2318,"Ġconsider":2319,"part":2320,"Ġes":2321,"41":2322,"Ġgit":2323,"DP":2324,"mem":2325,"Ġ127":2326,"UID":2327,"oot":2328,"ĠY":2329,"rror":2330,"Ġsever":2331,"Ġmounted":2332,"Ġlocalhost":2333,"WARD":2334,"Ġcaus":2335,"File":2336,"Ġawk":2337,"ences":2338,"Ġprotocol":2339,"PC":2340,"Ġservices":2341,"ORWARD":2342,"site":2343,"Ġ_":2344,"ĠVPN":2345,"ATE":2346,"Ġonce":2347,"Ġscripts":2348,"Ġfar":2349,"cert":2350,"',":2351,"Ġkeys":2352,"git":2353,"version":2354,"Ġinternet":2355,"Ġmanag":2356,"Ġmodule":2357,"However":2358,"Ġaccept":2359,"air":2360,"Ġocc":2361,"ali":2362,"Ġexcept":2363,"ins":2364,"VER":2365,"Ġsimply":2366,"Name":2367,"Ġenter":2368,"Ġdir":2369,"Ġtool":2370,"block":2371,"Ġglob":2372,"Ġlit":2373,"Any":2374,"Ġ172":2375,"ournal":2376,"Ġautomatically":2377,"SP":2378,"pos":2379,"Ġcompil":2380,"shot":2381,"iew":2382,"ities":2383,"Ġenable":2384,"Ġudp":2385,"bc":2386,"Ġstep":2387,"Ġfilter":2388,"ailed":2389,"Ġequ":2390,"Start":2391,"./":2392,"Ġnever":2393,"AA":2394,"pect":2395,"printf":2396,"std":2397,"ĠOUT":2398,"Ġcount":2399,"Ġpe":2400,"hosts":2401,"Ġarguments":2402,"Ġreport":2403,"Ġfi":2404,"pec":2405,"Ġfr":2406,"PATH":2407,"Ġ4096":2408,"Ġdaemon":2409,"ĠThat":2410,"SY":2411,"Ġauth":2412,"Ġredirect":2413,"Ġexternal":2414,"fre":2415,"Ġscope":2416,"Ġcurrently":2417,"//":2418,"Ġmade":2419,"Ġcache":2420,"Ġinfo":2421,"Ġdisks":2422,"CK":2423,"ression":2424,"90":2425,"Ġvolume":2426,"Ġrequired":2427,"bers":2428,"ĠAnd":2429,"libc":2430,"Add":2431,"Ġrather":2432,"uffer":2433,"}'":2434,"ization":2435,"ese":2436,"Ġproblems":2437,"Ġwhether":2438,"keys":2439,"FO":2440,"xxxx":2441,"Ġ32":2442,"Ġcr":2443,"cs":2444,"Ġseveral":2445,"Ġrecord":2446,"Ġpartic":2447,"CC":2448,"Ġhe":2449,"mask":2450,"pg":2451,"tain":2452,"sdb":2453,"Ġextr":2454,"Ġseconds":2455,"Ġdidn":2456,"urs":2457,"mode":2458,"eg":2459,"OSIX":2460,"Ġselect":2461,"ĠTo":2462,"Ġuntil":2463,"Ġrecomm":2464,"used":2465,"ecess":2466,"Ġplace":2467,"Ġmet":2468,"ery":2469,"Ġtrue":2470,"rot":2471,"Ġscreen":2472,"\\\\":2473,"Ġbin":2474,"Thanks":2475,"Ġgateway":2476,"ipv":2477,"ĠInter":2478,"Ġali":2479,"MS":2480,"board":2481,"Ġsd":2482,"ĠGNU":2483,"Ġkill":2484,"ĠAL":2485,"Ġuseful":2486,"reg":2487,"Ġlisten":2488,"Ġturn":2489,"$(":2490,"Ġempty":2491,"oun":2492,"Server":2493,"ULT":2494,"Ġshared":2495,"ĠWhat":2496,"Ġenough":2497,"Ġinterfaces":2498,"Ġbuilt":2499,"Ġsubnet":2500,"Ġparticular":2501,"/*":2502,"DB":2503,"odes":2504,"Ġperformance":2505,"Then":2506,"code":2507,"EW":2508,"Ġcap":2509,"Ġfore":2510,"aph":2511,"Ġ25":2512,"Ġ1000":2513,"sshd":2514,"uf":2515,"cap":2516,"irm":2517,"67":2518,"work":2519,"fun":2520,"Ġ24":2521,"annel":2522,"87":2523,"awk":2524,"En":2525,"ĠSee":2526,"Ġhowever":2527,"az":2528,"Ġparameter":2529,"tar":2530,"MM":2531,"Ġresults":2532,"ential":2533,"Ġinstruct":2534,"ense":2535,"how":2536,"CH":2537,"Ġless":2538,"Ġ||":2539,"KE":2540,"Ġicmp":2541,"Ġgets":2542,"tle":2543,"istory":2544,"gz":2545,"Ġ'/":2546,"Ġign":2547,"Ġdetails":2548,"indow":2549,"ient":2550,"ister":2551,"Ġ*/":2552,"ey":2553,"Ġavoid":2554,"Ġside":2555,"Ġtot":2556,"Ġwait":2557,"Ġphysical":2558,"Us":2559,"ĠDHCP":2560,"fi":2561,"Ġmakes":2562,"Ġlocation":2563,"Ġtop":2564,"Ġprovide":2565,"Ġprompt":2566,"SSL":2567,"Ġpattern":2568,"Ġpackages":2569,"ification":2570,"Ġbridge":2571,"1000":2572,"Ġowner":2573,"____":2574,"Ġsection":2575,"âĶĢâĶ":2576,"bar":2577,"tl":2578,"Ġallows":2579,"********":2580,"Ġadv":2581,"uster":2582,"rm":2583,"bed":2584,"spec":2585,"Ġ27":2586,"Ġmessages":2587,"Ġrouting":2588,"Ġdelete":2589,"Ġfoo":2590,"Ġmanually":2591,"Ġimport":2592,"Ġstructure":2593,"Ġinclude":2594,"Ġseparate":2595,"andom":2596,"Ġstd":2597,"admin":2598,"ĠĠĠĠĠĠĠĠĠĠĠĠĠĠĠĠĠĠĠ":2599,"ources":2600,"127":2601,"FA":2602,"icit":2603,"ĉĠĠĠ":2604,"Ġcertain":2605,"dump":2606,"OST":2607,"We":2608,"cache":2609,"Ġcp":2610,"Ġq":2611,"Ġnat":2612,"face":2613,"arn":2614,"Ġentries":2615,"Ġpermission":2616,"ĠCentOS":2617,"Ġanyone":2618,"Ġstorage":2619,"ĠHTTP":2620,"rwxrwx":2621,"Ġnormal":2622,"icated":2623,"Ġ]]":2624,"Ġhosts":2625,"Ġincre":2626,"Ġprevious":2627,"password":2628,"Ġinitial":2629,"pass":2630,"public":2631,"adm":2632,"Do":2633,"CT":2634,"ric":2635,"sm":2636,"rupt":2637,"alse":2638,"localhost":2639,"Ġissues":2640,"Ġsupported":2641,"py":2642,"cast":2643,"Ġ26":2644,"Ġrespon":2645,"??":2646,".*":2647,"Ġkind":2648,"Ġdescri":2649,"Ġexper":2650,"Ġcontin":2651,"hell":2652,"input":2653,"Ġ0000":2654,"Ġunit":2655,"Ġcause":2656,"bind":2657,"ĠFORWARD":2658,"Ġwarning":2659,"ĠDROP":2660,"Ġref":2661,"Ġdisc":2662,"strict":2663,"napshot":2664,"ĠNetwork":2665,"kernel":2666,"ired":2667,"pack":2668,"Ġexecuted":2669,"Ġoriginal":2670,"LAN":2671,"Ġsignal":2672,"PE":2673,"sum":2674,"oy":2675,"web":2676,"Ġsed":2677,"Ġinternal":2678,"mysql":2679,"Ġ[[":2680,"Ġusually":2681,"Ġwritten":2682,"hcp":2683,"aps":2684,"env":2685,"Ġfl":2686,"create":2687,"Ġcustom":2688,"TO":2689,"Ġclients":2690,"Ġsomeone":2691,"af":2692,"ceed":2693,"from":2694,"Ġmention":2695,"Ġcomment":2696,"some":2697,"Ġspecial":2698,"Ġflags":2699,"Ġro":2700,"ĠUse":2701,"ntax":2702,"access":2703,"89":2704,"Ġnode":2705,"QU":2706,"Ġbad":2707,"Ġadding":2708,"unch":2709,"Ġdisable":2710,"args":2711,"dm":2712,"Ġhandl":2713,"Ġduring":2714,"pk":2715,"Ġ09":2716,"tro":2717,"like":2718,"</":2719,"Ġdownload":2720,"ĠDo":2721,"Ġcorrectly":2722,"ished":2723,"ground":2724,"84":2725,"oute":2726,"valid":2727,"ens":2728,"uck":2729,"]#":2730,"CON":2731,"apper":2732,"IST":2733,"Ġhandle":2734,"70":2735,"Ġshort":2736,"Ġcontents":2737,"address":2738,"auto":2739,"Ġlikely":2740,"Ġnone":2741,"export":2742,"Ġmonitor":2743,"Ġthread":2744,"icate":2745,"ĠMAC":2746,"Ġdefined":2747,"post":2748,"DR":2749,"ody":2750,"Ġspeed":2751,"Ġpers":2752,"Ġnecess":2753,"ĠLAN":2754,"SQL":2755,"ĠST":2756,"SL":2757,"IG":2758,"Ġdate":2759,"USER":2760,"Ġinstructions":2761,"mary":2762,"thernet":2763,"Ġens":2764,"ĠSet":2765,"mk":2766,"Ġfailure":2767,"shell":2768,"nginx":2769,"ĉĉĠĠĠĠ":2770,"hmac":2771,"Ġwindows":2772,"exit":2773,"velop":2774,"Ġtools":2775,"Ġnamed":2776,"rec":2777,"oud":2778,"Ġraid":2779,"Ġgreat":2780,"process":2781,"icro":2782,"Ġdenied":2783,"change":2784,"Ġlibrary":2785,"ret":2786,"Ġexten":2787,"otal":2788,"istr":2789,"osit":2790,"Ġreceived":2791,"Ġstarting":2792,"node":2793,"Ġreading":2794,"ÂłÂł":2795,"Ġmac":2796,"72":2797,"Ġdropped":2798,"Ġfails":2799,"MD":2800,"ĠConnect":2801,"imes":2802,"Also":2803,"Ġlock":2804,"Ġcontroller":2805,"her":2806,"DO":2807,"Ġlarge":2808,"profile":2809,"ourse":2810,"atever":2811,"Ġ];":2812,"../":2813,"Ġ~/.":2814,"Ġsite":2815,"Ġexpected":2816,"By":2817,"Ġusage":2818,"Ġwhole":2819,"ner":2820,"Ġele":2821,"Ġbro":2822,"imal":2823,"Ġexactly":2824,"Ġ>>":2825,"/$":2826,"ision":2827,"sup":2828,"TL":2829,"........":2830,"ĠOUTPUT":2831,"ability":2832,"ĠAs":2833,"aptop":2834,"anager":2835,"Ġpresent":2836,"vent":2837,"string":2838,"Ġtotal":2839,"ok":2840,"Ġcard":2841,"Ġapt":2842,"Ġzero":2843,"Ġfig":2844,"With":2845,"Ġupgr":2846,"Ġfin":2847,")\"":2848,"ĠAny":2849,"lags":2850,"ĠStart":2851,"Ġexisting":2852,"Ġbind":2853,"cmd":2854,"ross":2855,"From":2856,"Ġbre":2857,"yes":2858,"Ġregular":2859,"Ġpur":2860,"Ġcourse":2861,"Ġswap":2862,"output":2863,"Ġ/*":2864,"xr":2865,"Ġtunnel":2866,"ocation":2867,"DIR":2868,"ynam":2869,"Ġpower":2870,"off":2871,"Ġdisabled":2872,"Ġcop":2873,"No":2874,"512":2875,"fr":2876,"Ġbl":2877,"Ġbehavior":2878,"Ġhappens":2879,"That":2880,"oad":2881,"âķ":2882,"see":2883,"dsa":2884,"call":2885,"Ġclear":2886,"while":2887,"core":2888,"Ġfact":2889,"Ġrange":2890,"Ġpam":2891,"ĠGB":2892,"Ġcalls":2893,"ploy":2894,"NAT":2895,"asswd":2896,"Ġsyntax":2897,"Ġ,":2898,"ĠSystem":2899,"idth":2900,"Ġadditional":2901,"Ġfilename":2902,"Ġattribut":2903,"Ġsit":2904,"ĠkB":2905,"Ġstore":2906,"Ġhour":2907,"Ġentire":2908,"Ġrequests":2909,"filter":2910,"Ġsays":2911,"ommand":2912,"Ġcontent":2913,"Ġblocks":2914,"medi":2915,"pose":2916,"Ġapache":2917,"Ġcore":2918,"Ġlittle":2919,"ping":2920,"press":2921,"Ġplug":2922,"Ġdetect":2923,"94":2924,"ger":2925,"TI":2926,"VI":2927,"debian":2928,"ĠPOSIX":2929,"rt":2930,"ority":2931,"Ġsymb":2932,"ought":2933,"aes":2934,"directory":2935,"ively":2936,"ording":2937,"bashrc":2938,"count":2939,"Ġversions":2940,"ora":2941,"Ġhostname":2942,"lat":2943,"PTION":2944,"orized":2945,"ULL":2946,"Ġgives":2947,"fc":2948,"Ġmodify":2949,"Ġfigure":2950,"Ġ28":2951,"75":2952,"session":2953,"priv":2954,"Ġphp":2955,"Ġguess":2956,"SER":2957,"ĠOr":2958,"Ġaddr":2959,"dit":2960,"HP":2961,"kB":2962,"Ġwww":2963,"ird":2964,"ĠRE":2965,"vpn":2966,"ank":2967,"Ġclass":2968,"LISH":2969,"Ġindex":2970,"=(":2971,"here":2972,"iff":2973,"HOME":2974,"ĠFile":2975,"ABLISH":2976,"Ġprograms":2977,"Ġreplac":2978,"ĠNote":2979,"Ġbackups":2980,"Ġactual":2981,"Ġunless":2982,"doc":2983,"ABLISHED":2984,"abel":2985,"Ġins":2986,"Ġdeterm":2987,"co":2988,"Exec":2989,"Ġ08":2990,"Ġchain":2991,"Ġparameters":2992,"eve":2993,"Ġbus":2994,"Ġtemp":2995,"vious":2996,"ĠMB":2997,"Ġslow":2998,"Ġmove":2999,"Ġquite":3000,"policy":3001,"level":3002,"Ġ'{":3003,"base":3004,"RC":3005,"Ġmysql":3006,"Ġnginx":3007,"Ġeasy":3008,"struct":3009,"duc":3010,"ACK":3011,"gener":3012,"Ġlater":3013,"000000":3014,"Ġforever":3015,"Or":3016,"ĉĠĠĠĠ":3017,"Ġstack":3018,"Ġusername":3019,"AND":3020,"ECT":3021,"Ġprevent":3022,"ster":3023,"ared":3024,"vert":3025,"Chain":3026,"Ġ[-":3027,"Ġexists":3028,"ets":3029,"Ġworked":3030,"65":3031,"Ġtakes":3032,"Ġinte":3033,"forward":3034,"lft":3035,"Ġinstallation":3036,"signed":3037,"js":3038,"Ġcreating":3039,"fl":3040,"Ġbegin":3041,"Ġdouble":3042,"ĠAll":3043,"Ġencrypt":3044,"ĠHost":3045,"onding":3046,"123":3047,"Ġremoved":3048,"Ġmat":3049,"Ġallowed":3050,"achine":3051,"Ġtransfer":3052,"Ġotherwise":3053,"aries":3054,"Ġ01":3055,"Ġapproach":3056,"zip":3057,"stab":3058,"Log":3059,"Ġdifference":3060,"Ġoperation":3061,"me":3062,"ĠThen":3063,"Ġreplace":3064,"irectory":3065,"Ġmanual":3066,"build":3067,"Ġthree":3068,"Ġrequires":3069,"MSG":3070,"ople":3071,"Ġsleep":3072,"Ġleft":3073,"body":3074,"main":3075,"Ġevent":3076,"ĠDocker":3077,"Ġwriting":3078,"Can":3079,"rd":3080,"long":3081,"Ġrelated":3082,"pping":3083,"ah":3084,"soft":3085,"Ġsrc":3086,"ool":3087,"TY":3088,"ĠZ":3089,"ouch":3090,"95":3091,"($":3092,"Ġsched":3093,"Ġparent":3094,"media":3095,"ken":3096,"edora":3097,"prot":3098,"ending":3099,"Ġdocumentation":3100,"Ġhttps":3101,"rwxr":3102,"Ġprovided":3103,"Ġpretty":3104,"Ġmd":3105,"cent":3106,"apache":3107,"Ġexpand":3108,"ĠPID":3109,"ĠAr":3110,"Ġloaded":3111,"Ġpos":3112,"XXXX":3113,"254":3114,"urther":3115,"Ġdue":3116,"fine":3117,"Ġexport":3118,"Ġcommon":3119,"TS":3120,"OF":3121,"93":3122,"Ġpipe":3123,"Ġut":3124,"Ġwhatever":3125,"remote":3126,"Ġsync":3127,"dc":3128,"Ġwindow":3129,"ĠNAT":3130,"Ġspl":3131,"################":3132,"utes":3133,"ram":3134,"Ġfre":3135,"device":3136,"itted":3137,"rib":3138,"Ġsequ":3139,"Ġsectors":3140,"Ġbug":3141,"lders":3142,"Ġconsole":3143,"loop":3144,"KEY":3145,"most":3146,"col":3147,"Ġbig":3148,"though":3149,"Open":3150,"systemctl":3151,"Ġdays":3152,"ifi":3153,"ternative":3154,"Ġstream":3155,"Ġpid":3156,"Ġreposit":3157,"day":3158,"cle":3159,"escript":3160,"User":3161,"Ġtimeout":3162,"Ġ=>":3163,"Ġrele":3164,"Ġmark":3165,"Ġbuffer":3166,"ificate":3167,"~/.":3168,"len":3169,"ĠRAM":3170,"Ġproperly":3171,"ĠAt":3172,"HE":3173,"172":3174,"afe":3175,"--------------------------------":3176,"met":3177,"search":3178,"usb":3179,"Ġnumbers":3180,"Ġbrow":3181,"EDIT":3182,"âķĲ":3183,"Up":3184,"Ġpolicy":3185,"OP":3186,"oci":3187,"RER":3188,"Ġlaptop":3189,"\"$":3190,"unix":3191,"ĠInt":3192,"based":3193,"Ġnecessary":3194,"Ġrecommend":3195,"UB":3196,"DD":3197,"74":3198,"ibility":3199,"Ġdevelop":3200,"Ġconst":3201,"Ġcolum":3202,"Ġcases":3203,"Ġauto":3204,"asp":3205,"OUTING":3206,"cpu":3207,"ĠApache":3208,"src":3209,"olog":3210,"action":3211,"proxy":3212,"Ġsave":3213,"REROUTING":3214,"PRO":3215,"Ġstarts":3216,"Ġcorresp":3217,"Ġplease":3218,"Ġcd":3219,"Ġfast":3220,"ĠRX":3221,"folder":3222,"uation":3223,"Ġchannel":3224,"Ġforwarding":3225,"Ġlay":3226,"Ġpeople":3227,"den":3228,"mon":3229,"fw":3230,"thers":3231,"names":3232,"rv":3233,"verse":3234,"Use":3235,"Ġoutside":3236,"dri":3237,"Ġguest":3238,"send":3239,"username":3240,"Ġclean":3241,"ATA":3242,"79":3243,"python":3244,"Ġprefix":3245,"word":3246,"anc":3247,"vers":3248,"ĠThese":3249,"anch":3250,"ALL":3251,"Ġsuccessfully":3252,"ĠCom":3253,"ĠTX":3254,"ansion":3255,"URCE":3256,"Ġapplications":3257,"edia":3258,"etimes":3259,"Users":3260,"Edit":3261,"Ġreturned":3262,">&":3263,"[@":3264,"ĠSize":3265,"ival":3266,".,":3267,"Ġexecutable":3268,"ROUT":3269,"ĠAlso":3270,"ances":3271,"ĠLO":3272,"Ġubuntu":3273,"Ġgoes":3274,"PI":3275,"Ġchild":3276,"Ġknown":3277,"vant":3278,"Ġpartitions":3279,"Ġach":3280,"ĠWe":3281,"ĠCan":3282,"Ġreach":3283,"Ġdiff":3284,"mlink":3285,"Ġstuff":3286,"gi":3287,"Ġyet":3288,"ives":3289,"da":3290,"ering":3291,"Ġstored":3292,"Ġexplain":3293,"alias":3294,"ĠNIC":3295,"Ġcomes":3296,"allow":3297,"âķĲâķĲ":3298,"69":3299,"73":3300,"Sec":3301,"Ġmaybe":3302,"und":3303,"Ġbinary":3304,"Ġest":3305,"Ġyear":3306,"iles":3307,"mv":3308,"Ġglobal":3309,"Ġpython":3310,"]}\"":3311,"value":3312,"Ġclose":3313,"Ġresponse":3314,"pi":3315,"Ġhistory":3316,"Ġassign":3317,"AY":3318,"Ġexplicit":3319,"mc":3320,"Ġothers":3321,"Ġminutes":3322,"Ġshut":3323,"istent":3324,"ew":3325,"ĠOK":3326,"Ġque":3327,"disc":3328,"Ġalias":3329,"Ġthought":3330,"ctr":3331,"Ġbreak":3332,"Ġachie":3333,"index":3334,"ĠAl":3335,"May":3336,"Ġmov":3337,"Ġappears":3338,"Ġlonger":3339,"Ġsuper":3340,"amp":3341,"udit":3342,"Ġcrontab":3343,"Ġglibc":3344,"ĠâĶľ":3345,"Ġseen":3346,"Ġvarious":3347,"Error":3348,"Ġaffect":3349,"Ġ29":3350,"Ġcommun":3351,"Ġincluding":3352,"')":3353,"Type":3354,"lied":3355,"Ġimportant":3356,"text":3357,"ounter":3358,"Ġdump":3359,"BU":3360,"Ġproto":3361,"led":3362,"63":3363,"ĠWith":3364,"Ġ07":3365,"Ġemail":3366,"pkg":3367,"java":3368,"ĠMT":3369,"Ġnfs":3370,"Ġcome":3371,"Ġmaster":3372,"stit":3373,"runs":3374,"reci":3375,"SOURCE":3376,"endor":3377,"Ġcompat":3378,"Ġsaid":3379,"uplic":3380,"Ġpassed":3381,"Ġgeneral":3382,"ĠAd":3383,"001":3384,"Ġnote":3385,"ĠĠĠĠĠĠĠĠĠĠĠĠĠĠĠĠĠĠ":3386,"hostname":3387,"alloc":3388,"Ġchanging":3389,"Ġregister":3390,"Ġremain":3391,"iag":3392,"Ġcare":3393,"ĠMay":3394,"':":3395,"mno":3396,"NING":3397,"Ġ50":3398,"nfs":3399,"alk":3400,"kill":3401,"gu":3402,"Ġmatches":3403,"Ġdesktop":3404,"âĢĿ":3405,"Al":3406,"Ġpages":3407,"Ġframe":3408,"Ġbits":3409,"Ġsplit":3410,"ox":3411,"Ġcontinue":3412,"Ġgenerate":3413,"LIN":3414,"ĠApp":3415,"Ġtask":3416,"Ġflo":3417,"Ġgenerated":3418,"Ġlogging":3419,"Manager":3420,"Ġmaking":3421,"85":3422,"ĠĠĠĠĠĠĠĠĠĠĠĠĠĠĠĠĠ":3423,"tion":3424,"pth":3425,"ios":3426,"Ġquotes":3427,"Ġcond":3428,"ĠContro":3429,"Ġwire":3430,"ped":3431,"Set":3432,"Ġappreci":3433,"Ġrestore":3434,"ĠNEW":3435,"ĠTr":3436,"Ġpreferred":3437,"Ġkex":3438,"using":3439,"dele":3440,"Ġmk":3441,"LOW":3442,"ermission":3443,"ynamic":3444,"Ġsus":3445,"Run":3446,"VPN":3447,"Ġidentity":3448,"Ġamount":3449,"Ġrandom":3450,"amd":3451,"Ġassoci":3452,"glob":3453,"bb":3454,"status":3455,"Ġoften":3456,"Your":3457,"HEL":3458,"Ġenv":3459,"ivalent":3460,"Ġff":3461,"aunch":3462,"ĠUDP":3463,"duce":3464,"\\\"":3465,"gor":3466,"syslog":3467,"ersion":3468,"EM":3469,"ilities":3470,"ĠAfter":3471,"lies":3472,"can":3473,"Ġassume":3474,"ĠHere":3475,"Ġran":3476,"Ġoverruns":3477,"Ġreceive":3478,"kex":3479,"83":3480,"âĶĢâĶĢâĶĢâĶ":3481,"VE":3482,"fort":3483,"Ġexperi":3484,"ĠMan":3485,"pa":3486,"Ġco":3487,"char":3488,"ĠDevice":3489,"IS":3490,"BSD":3491,"duct":3492,"ĠGener":3493,"Ġ60":3494,">]":3495,"Ġfurther":3496,"Ġexpansion":3497,"Ġago":3498,"you":3499,"Ġalloc":3500,"ane":3501,"Ġfollows":3502,"Ġgroups":3503,"Ġprivile":3504,"Ġmatching":3505,"Ġensure":3506,"stack":3507,"Ġmentioned":3508,"~~":3509,"Ġsnapshot":3510,"Ġdeb":3511,"ART":3512,"ctive":3513,"81":3514,"then":3515,"Ġbackground":3516,"Sh":3517,"Ġsupports":3518,"]}":3519,"Ġsets":3520,"resol":3521,"Disk":3522,"FF":3523,"sol":3524,"Ġcontext":3525,"iki":3526,"][":3527,"Ġlinks":3528,"ĠĠĠĠčĊ":3529,"Ġextra":3530,"Ġcombin":3531,"gorith":3532,"Ġrm":3533,"Ġapply":3534,"ban":3535,"Ġtesting":3536,"Ġusb":3537,"ICAST":3538,"Ġcompletely":3539,"Ġdpt":3540,"Ġappropri":3541,"Ġfolders":3542,"olumes":3543,"yz":3544,"aving":3545,"ROUTING":3546,"mult":3547,"reate":3548,"ULTICAST":3549,"quire":3550,"Ġquick":3551,"Ġinterest":3552,"CAST":3553,"ector":3554,"none":3555,"Ġacross":3556,"Res":3557,"edesktop":3558,"Key":3559,"chmod":3560,"irmware":3561,"agent":3562,"flow":3563,"Ġbeli":3564,"Ġheader":3565,"Why":3566,"ĠUser":3567,"Using":3568,"ĠPOST":3569,"Ġfd":3570,"ENT":3571,"ackup":3572,"class":3573,"sv":3574,"Ġsystemctl":3575,"ĠLog":3576,"Ġtempor":3577,"ym":3578,"ĠĠĠĠĠĠĠĠĠĠĠĠĠĠĠĠĠĠĠĠĠĠĠ":3579,"82":3580,"LY":3581,"seq":3582,"Ġregard":3583,"update":3584,"Ġ<<":3585,"ROAD":3586,"Ġsymlink":3587,"Check":3588,"MI":3589,"62":3590,"nc":3591,"ROADCAST":3592,"cbc":3593,"api":3594,"RT":3595,"Ġ^":3596,"âĶĢâĶĢâĶĢâĶĢâĶĢâĶĢâĶĢâĶĢâĶĢâĶĢâĶĢâĶĢ":3597,"Ġlogged":3598,"ampl":3599,"Ġones":3600,"ection":3601,"ĠConnection":3602,"ithub":3603,"Ġcent":3604,"ifier":3605,"Ġsk":3606,"Ġagainst":3607,"Ġchecked":3608,"function":3609,"Ġsubstit":3610,"NT":3611,"ĠMac":3612,"Ġways":3613,"ĠIntel":3614,"Ġcar":3615,"freedesktop":3616,"First":3617,"Ġinterpre":3618,"ĠNot":3619,"Ġtermin":3620,"width":3621,"Ġhash":3622,"echn":3623,"enu":3624,"ĠPRO":3625,"ĠInternet":3626,"ĠBash":3627,"Ġbase":3628,"Ġmtu":3629,"angu":3630,"Ġtree":3631,"Ġimmedi":3632,"ĠUN":3633,"ised":3634,"Ġactiv":3635,"ribution":3636,"Mar":3637,"abling":3638,"passwd":3639,"Install":3640,"ĠSh":3641,"Ġ---":3642,"ĠDE":3643,"Ġconnecting":3644,"ĠPREROUTING":3645,"route":3646,"ACCEPT":3647,"LS":3648,"diff":3649,"Jan":3650,"pe":3651,".\"":3652,"Ġcontaining":3653,"journal":3654,"Ġfollowed":3655,"WD":3656,"AIL":3657,"Ġequivalent":3658,"=\"$":3659,"rack":3660,"att":3661,"Ġsolve":3662,"ROR":3663,"tun":3664,"bus":3665,"gen":3666,"MO":3667,"Ġsituation":3668,"ined":3669,"Ġoptim":3670,"ings":3671,"Ġred":3672,"Ġsecure":3673,"ĠPHP":3674,"escription":3675,"Ġdistro":3676,"Ġtag":3677,"Ġ;;":3678,"adcast":3679,"Ġmanager":3680,"Ġtypes":3681,"]]":3682,"Connect":3683,"irror":3684,"Ġpast":3685,"ecdsa":3686,"Ġwond":3687,"At":3688,"101":3689,"Ġlow":3690,"login":3691,"gid":3692,"Ġlisted":3693,"master":3694,"Ġorg":3695,"ĠName":3696,"ĠDis":3697,"Ġscan":3698,"Ġbelieve":3699,"ĠThey":3700,"Ġmodules":3701,"thread":3702,"ĠâĢľ":3703,"Ġview":3704,"@@@@":3705,"Ġunsigned":3706,"space":3707,"just":3708,"Ġmaximum":3709,"ĠUUID":3710,"\",\"":3711,"Ġestabl":3712,"Ġdepends":3713,"Ġfixed":3714,"Ġ06":3715,"ĠPer":3716,"ĠAR":3717,"ges":3718,"ck":3719,"ĠSIG":3720,"ident":3721,"Ġdefaults":3722,"Ġproject":3723,"ĉĉĠ":3724,"ift":3725,"estions":3726,"gres":3727,"'.":3728,"Ġeasily":3729,"LAT":3730,"Ġsending":3731,"Ġtmp":3732,":~$":3733,"Ġtty":3734,"Ġcor":3735,"TB":3736,"Not":3737,"Ġoffs":3738,"ĠVLAN":3739,"ĠOpt":3740,"Ġchecking":3741,"ĠNULL":3742,"Ġclosed":3743,"[[":3744,"Ġok":3745,"attr":3746,"All":3747,"haps":3748,"=${":3749,"ĠRead":3750,"Ġenp":3751,"NET":3752,"Ġ02":3753,"Ġvoid":3754,"enable":3755,"Ġroutine":3756,"itect":3757,"ecause":3758,"ASS":3759,"ember":3760,"VICE":3761,"make":3762,"store":3763,"Ġuni":3764,"arm":3765,"Ġvm":3766,"apter":3767,"Ġcut":3768,";;":3769,"pub":3770,"request":3771,"ĠRem":3772,"ĠEC":3773,"Ġrepository":3774,"==\"":3775,"Ġforce":3776,"nop":3777,"sftp":3778,"trans":3779,"Ġescap":3780,"Ġpointer":3781,"Ġpk":3782,"ĠFailed":3783,"format":3784,"defin":3785,"Ġ31":3786,"ĠJan":3787,"security":3788,"mapper":3789,"Ġdig":3790,"Ġextension":3791,"ibly":3792,"Ġtar":3793,"Feb":3794,"Ġupdated":3795,"utions":3796,"BA":3797,"unk":3798,"amples":3799,"daemon":3800,"stream":3801,"udio":3802,"ideo":3803,"fficient":3804,"icrosoft":3805,"XXX":3806,"Ġbasic":3807,"Ġappropriate":3808,"pem":3809,"ORT":3810,"ports":3811,"Ġnormally":3812,"Ġsimpl":3813,"âĸ":3814,"module":3815,"OL":3816,"page":3817,"Try":3818,"alle":3819,"Ġ\"%":3820,"cr":3821,"asks":3822,"ca":3823,"Ġmatter":3824,"bound":3825,"Ġdescribed":3826,"dec":3827,"ND":3828,"zsh":3829,"zero":3830,"ĠSince":3831,"Ġwanted":3832,"tim":3833,":\\":3834,"expect":3835,"Ġvis":3836,"ĠUR":3837,"aspb":3838,"si":3839,"fstab":3840,"utput":3841,"Ġmanagement":3842,"wd":3843,"Ġachieve":3844,"more":3845,"entials":3846,"ality":3847,"ship":3848,"itecture":3849,"pam":3850,"arily":3851,"Ġnetworks":3852,"Ġ//":3853,"ĠAD":3854,"Ġdrop":3855,"Ġlead":3856,"mit":3857,"vg":3858,"ĠGo":3859,"71":3860,")?":3861,"Ġattack":3862,"Ġideas":3863,"oose":3864,"mark":3865,"Ġprimary":3866,"destination":3867,"coming":3868,"Ġufw":3869,"plug":3870,"ĠLVM":3871,"trl":3872,"Ġqueue":3873,"Authentication":3874,"ivid":3875,">/":3876,"Inter":3877,"umber":3878,"Ġcluster":3879,"Ġdecl":3880,"Ġsteps":3881,"msg":3882,"Ġcorresponding":3883,"PID":3884,"443":3885,"Ġmask":3886,"ĠIC":3887,"FIG":3888,"uming":3889,"fortun":3890,"ĠSup":3891,"lick":3892,"Ġcalling":3893,"Ġmodified":3894,"parse":3895,"ĠUP":3896,"Ġbar":3897,"Ġdhcp":3898,"Ġaction":3899,"ĠMySQL":3900,"One":3901,"Ġwebsite":3902,"bd":3903,"Aug":3904,"adata":3905,"match":3906,"Ġpress":3907,"/\\":3908,"Ġadministr":3909,"Ġoperating":3910,"comple":3911,"Ġ{}":3912,"Ġupgrade":3913,"aris":3914,"ĠVirtual":3915,"sdc":3916,"Ġstartup":3917,"Ġeasier":3918,"Ġresolve":3919,"Ġdescriptor":3920,"INT":3921,"free":3922,"Ġhours":3923,"Ġcapt":3924,"Ġobvious":3925,"ĠâĶĶ":3926,"Ġ04":3927,"Ġassigned":3928,"Ġ~/":3929,"ĠĠĠĠĠĠĠĠĠčĊ":3930,"ĠSpec":3931,"Ġwee":3932,"array":3933,"Ġ03":3934,"smb":3935,"acl":3936,"ĠBy":3937,"Ġplay":3938,"Ġdistribution":3939,"Ġreference":3940,"empl":3941,"Ġsafe":3942,"Ġmonth":3943,"ĠSSL":3944,"ĠDO":3945,"Ġcontainers":3946,"sk":3947,"Ġ1500":3948,"Ġprovides":3949,"ABLE":3950,"xml":3951,"duction":3952,"raid":3953,"ĠUnix":3954,"oring":3955,"Ġinteractive":3956,"Ġindic":3957,"ĠError":3958,"Ġeval":3959,"91":3960,"wait":3961,"Since":3962,"LOG":3963,"ĠNet":3964,"writ":3965,"drwxr":3966,"utils":3967,"gress":3968,"Service":3969,"ĠâĢ¢":3970,"]$":3971,"HOST":3972,"Ġaddition":3973,"Ġpoints":3974,"Ġrelevant":3975,"00000":3976,"nist":3977,"ĠRun":3978,"Ġdelay":3979,"ĠRed":3980,"RA":3981,"------":3982,"smtp":3983,"Jul":3984,"ĠĠĠčĊ":3985,"Ġcolumn":3986,"Ġ\"-":3987,"RUN":3988,"img":3989,"Ġ\"\\":3990,"Ġbrd":3991,"Ubuntu":3992,"Ġ1024":3993,"crypt":3994,"\");":3995,"Ġdistribut":3996,"Ġpract":3997,"Ġfalse":3998,"Ġnamespace":3999,"ĠIPs":4000,"OK":4001,"ĠUT":4002,"SCRI":4003,"Ġshown":4004,"ĠSY":4005,"Ġ'%":4006,"Ġaccording":4007,"ogn":4008,"Ġ(/":4009,"Command":4010,"II":4011,"httpd":4012,"contain":4013,"fail":4014,"su":4015,"111":4016,"ĠJul":4017,"nistp":4018,"Ġ00000000":4019,"Ġjournal":4020,"Ġdeploy":4021,"Ġcou":4022,"Ġmanage":4023,"Ġqdisc":4024,"Ġschedul":4025,"Ġquery":4026,"scripts":4027,"Ġrepre":4028,"Ġunable":4029,"Ġalgorith":4030,"=\"/":4031,"Ġ[<":4032,"YPE":4033,"orrect":4034,"Ġcopied":4035,"after":4036,"socket":4037,"ĠPOSTROUTING":4038,"delete":4039,"Ġlangu":4040,"See":4041,"Ġwin":4042,"ons":4043,"Ġopenssl":4044,"}/":4045,"ĠLink":4046,"Ġsv":4047,"omething":4048,"ĠAT":4049,"ĠSamba":4050,"Ġcreates":4051,"Ġcertificate":4052,"stead":4053,"Some":4054,"25519":4055,"384":4056,"Ġtrack":4057,"Ġsense":4058,"IOS":4059,"-----":4060,"ĠFlags":4061,"Ġconc":4062,"Ġreset":4063,"ides":4064,"Hz":4065,"qld":4066,"ILE":4067,"anted":4068,"Ġdns":4069,"Ġimmediately":4070,"what":4071,"yle":4072,"Ġrestrict":4073,"Ġtap":4074,"ĠCheck":4075,"fortunately":4076,"ĠSM":4077,"WN":4078,"Ġpatch":4079,"alyz":4080,"etm":4081,"61":4082,"WS":4083,"Ġchmod":4084,"const":4085,"elf":4086,"Ġlookup":4087,"queue":4088,"IFS":4089,"Ġnice":4090,"rier":4091,"ntrack":4092,"Ġlogical":4093,"Ġsometimes":4094,"iod":4095,"App":4096,"UI":4097,"Ġlistening":4098,"authorized":4099,"xc":4100,"vis":4101,"Ġwords":4102,"Ġdetermine":4103,"help":4104,"win":4105,"Ġ__":4106,"Ġexpression":4107,"Ġdepending":4108,"setup":4109,"cgi":4110,"Network":4111,"that":4112,"ĠSSD":4113,"Ġutil":4114,"Ġoperations":4115,"posed":4116,"ra":4117,"500":4118,"Ġinstalling":4119,"Ġfeatures":4120,"abilities":4121,"ML":4122,"Ġhaven":4123,"prec":4124,"Ġitem":4125,"rel":4126,"Ġpaths":4127,"Ġdeleted":4128,"ĠCO":4129,"google":4130,"contro":4131,"job":4132,"Ġtab":4133,"Oct":4134,"ault":4135,"Ġuid":4136,"Ġjobs":4137,"Ġquestions":4138,"Jun":4139,"Ethernet":4140,"temp":4141,"ffffffff":4142,"ĠGCC":4143,"param":4144,"ride":4145,"devices":4146,"Sep":4147,"true":4148,"case":4149,"your":4150,"ĠICMP":4151,"PM":4152,"Please":4153,"Ġ((":4154,"exp":4155,"iface":4156,"Ġupload":4157,"Ġnetworking":4158,"Ġappreciated":4159,"ĠLIST":4160,"andwidth":4161,"Dec":4162,"ma":4163,"'\\":4164,"copy":4165,"Ġexplicitly":4166,"ĠOpenSSH":4167,"option":4168,"ips":4169,"cfg":4170,"Ġbyte":4171,"ĠNOT":4172,"Ġexecution":4173,"ESTABLISHED":4174,"Ġnull":4175,"Ġassociated":4176,"Ġreads":4177,"Ġimplementation":4178,"ĠRPC":4179,"let":4180,"ront":4181,"Ġspaces":4182,"fect":4183,"Ġrespect":4184,"Ġcompl":4185,"Ġinvalid":4186,"chem":4187,"gnu":4188,"ĠLOG":4189,"Ġupdates":4190,"DAP":4191,"ARG":4192,"Ġanswers":4193,"ulate":4194,"ĠMar":4195,"Ġfut":4196,"Apr":4197,"ĠNow":4198,"ĠIO":4199,"overy":4200,"Ġignore":4201,"Ġutility":4202,"Ġ123":4203,"ĠFree":4204,"Ġbound":4205,"Ġ128":4206,"lex":4207,"Ġtog":4208,"Ġ500":4209,"Ġdebian":4210,"perl":4211,"Ġtogether":4212,"Ġdest":4213,"Com":4214,"les":4215,"entially":4216,"ĠAug":4217,"Ġdiag":4218,"Ġsuc":4219,"Ġattributes":4220,"âĶĢâĶĢâĶĢâĶĢâĶĢâĶĢâĶĢâĶĢâĶĢâĶĢâĶĢâĶĢâĶĢâĶĢâĶĢâĶ":4221,"Ġcouple":4222,"tmpfs":4223,"filename":4224,"ĠUp":4225,"enari":4226,"image":4227,"Ġ~]#":4228,"Directory":4229,"BUG":4230,"Ġ40":4231,"Ġtrigg":4232,"encies":4233,"Ġprocessing":4234,"users":4235,"live":4236,"Ġwlan":4237,"Ġear":4238,"configure":4239,"dns":4240,"Ġswitches":4241,"ĠSome":4242,"Ġttl":4243,"ĠRHEL":4244,"Ġec":4245,"force":4246,"================================":4247,"Ġpriority":4248,"Ġnotic":4249,"chron":4250,"ĠSep":4251,"Ġcpu":4252,"screen":4253,"tic":4254,"Ġlive":4255,"view":4256,"aring":4257,"Ġcred":4258,"ĠJun":4259,"Ġvar":4260,"Ġgraph":4261,"Ġworld":4262,"Ġgoogle":4263,"ĠTry":4264,"Ġreferences":4265,"Ġdescription":4266,"ĠĠĠĠĠĠĠĠĠĠĠĠĠĠĠĠĠĠĠĠ":4267,"Ġimp":4268,"grub":4269,"vv":4270,"yy":4271,"aily":4272,"Ġoffset":4273,"options":4274,"timeout":4275,"Rem":4276,"Ġthus":4277,"machine":4278,"Ġalmost":4279,"Does":4280,"Ġtx":4281,"Ġunix":4282,"SIG":4283,"Ġresources":4284,"=`":4285,"ĠTime":4286,"Time":4287,"ĠEX":4288,"srv":4289,"ZE":4290,"ĠOct":4291,"else":4292,"ling":4293,"Ġcauses":4294,"mess":4295,"Ġolder":4296,"ĠSe":4297,"Ġrecently":4298,"Ġtail":4299,"github":4300,"Ġshells":4301,"TH":4302,"we":4303,"Ġyears":4304,"Ġcapture":4305,"modules":4306,"onds":4307,"Ġpi":4308,"etch":4309,"ĠĠĠĠĠĠĠĠĠĠĠĠĠĠĠĠĠĠĠĠĠĠ":4310,"Ġwrites":4311,"Ġerr":4312,"Ġxdr":4313,"Ġmanaged":4314,"total":4315,"Ġperl":4316,"blk":4317,"Ġmap":4318,"Ġjo":4319,"ĠEthernet":4320,"Ġperson":4321,"Ġarchive":4322,"WOR":4323,"Ġmis":4324,"depend":4325,"interface":4326,"nf":4327,"System":4328,"FTP":4329,"correct":4330,"Ġreply":4331,"Ġsucceed":4332,"Ġ../":4333,"Ġsav":4334,"Ġcy":4335,"Ġinvol":4336,"ators":4337,"Ġfloating":4338,"Update":4339,"Ġcho":4340,"Ġverify":4341,"esh":4342,"160":4343,"fast":4344,"ExecStart":4345,"Ġlimited":4346,"Ġdeal":4347,"Ġrelative":4348,"Ġinvok":4349,"uri":4350,"atform":4351,"Ġsamba":4352,"ello":4353,"aspberr":4354,"Ġfields":4355,"Ġduplic":4356,"Ġalternative":4357,"AGE":4358,"csv":4359,"JECT":4360,"Ġsyslog":4361,"ĠGiB":4362,"udev":4363,"solute":4364,"Ġhold":4365,"Ġstrings":4366,"-------":4367,"Nov":4368,":~#":4369,"=<":4370,"Ġsound":4371,"Ġrecent":4372,"Ġreasons":4373,"jpg":4374,"atus":4375,"ĠDec":4376,"MMAND":4377,"ĠAddress":4378,"Ġbrowser":4379,"ĠMet":4380,"Ġseq":4381,"Unit":4382,"rb":4383,"TCP":4384,"bose":4385,"Ġchecks":4386,"Ġ]];":4387,"rev":4388,"Ġunknown":4389,"pool":4390,"ants":4391,"prefix":4392,"Device":4393,"mux":4394,"achable":4395,"Ġsyn":4396,"Ġsomewhere":4397,"alc":4398,"common":4399,"Ġnetmask":4400,"Ġdynamic":4401,"anced":4402,"Ġimages":4403,"Ġrw":4404,"Port":4405,"QUER":4406,"ldap":4407,"hand":4408,"Ġtalk":4409,"Tr":4410,"Ġ443":4411,"header":4412,"ĠOne":4413,"mt":4414,"Ġlocale":4415,"UE":4416,"Ġanyway":4417,"allel":4418,"Ġsequence":4419,"Ġcompiler":4420,"ĉĉĠĠĠĠĠĠ":4421,"ĠActive":4422,"mdadm":4423,"DATE":4424,"[^":4425,"Ġkeyboard":4426,"Ġbranch":4427,"Group":4428,"amily":4429,"INIT":4430,"Ġexecuting":4431,"sock":4432,"release":4433,"Ġpair":4434,"rop":4435,"Ġum":4436,"raw":4437,"ĠFedora":4438,"Ġ!=":4439,"110":4440,"ium":4441,"stop":4442,"Ġarchitecture":4443,"rint":4444,"table":4445,"Ad":4446,"Ġinsert":4447,"mkdir":4448,"omes":4449,"Ġmaintain":4450,"oding":4451,"defined":4452,"Ġlayer":4453,"Ġtouch":4454,"Ġhappening":4455,"Ġreverse":4456,"EE":4457,"curl":4458,"Ġ2023":4459,"Ġpublickey":4460,"Ġhit":4461,"azon":4462,"Ġpurpose":4463,"Ġ\"$(":4464,"Ġfilesystems":4465,"estamp":4466,"Ġbeginning":4467,"Ġlost":4468,"1024":4469,"Ġextract":4470,"Ġethernet":4471,"Ar":4472,"Ġsolutions":4473,"term":4474,"fb":4475,"orp":4476,"Ġincoming":4477,"lying":4478,"exclude":4479,"look":4480,"sleep":4481,"Ġbroadcast":4482,"Ġscenari":4483,"reachable":4484,"ĠAllow":4485,"Ġ53":4486,"Ġincluded":4487,"Ġcoll":4488,"Ġtechn":4489,"LOCK":4490,"ike":4491,"Ġcomputers":4492,"ĠISO":4493,"izes":4494,"place":4495,"Ġignored":4496,"DESCRI":4497,"itle":4498,"Ġreject":4499,"named":4500,"Ġlaunch":4501,"Ġmeaning":4502,"got":4503,"zone":4504,"utor":4505,"Ġexperience":4506,"Ġfuture":4507,"Ġincludes":4508,"****************":4509,"Cl":4510,"Ġgenerally":4511,"Ġinstances":4512,"ĠPermission":4513,"ĠNov":4514,"ĠFTP":4515,"[@]}\"":4516,"DESCRIPTION":4517,"DNS":4518,"rary":4519,"ends":4520,"Ġcomments":4521,"Ġaren":4522,"inally":4523,"quot":4524,"ĠURL":4525,"Ġsum":4526,"]*":4527,"ĠDefault":4528,"ĠFeb":4529,"lv":4530,"anation":4531,"Ġindivid":4532,"\"'":4533,"###":4534,"anged":4535,"SIS":4536,"MULTICAST":4537,"Ġlower":4538,"Ġlocally":4539,"acle":4540,"ipe":4541,"Ġadvance":4542,"Ġbandwidth":4543,"docs":4544,"Ġrecogn":4545,"YY":4546,"card":4547,"last":4548,"uge":4549,"NOT":4550,"Ġnoticed":4551,"Ġcompress":4552,"tom":4553,"Ġfaster":4554,"Ġserial":4555,"NOP":4556,"Ġmer":4557,"Ġded":4558,"Ġcommit":4559,"VAL":4560,"BROADCAST":4561,"Ġmsg":4562,"samba":4563,"Windows":4564,"ĠPack":4565,"ĠPort":4566,"Ġopened":4567,"ĠQ":4568,"perm":4569,"222":4570,"Ġvolumes":4571,"ĠDNAT":4572,"Ġauthent":4573,"Ġbasically":4574,"swap":4575,"Ġrelease":4576,"ology":4577,"Ġpop":4578,"Ġ*.":4579,"[$":4580,"Ġ05":4581,"TIME":4582,"Ġclock":4583,"Ġ..":4584,"Ġben":4585,"Ġps":4586,"Ġlibraries":4587,"ĠOther":4588,"âĶĢâĶĢâĶĢâĶĢâĶĢâĶĢâĶĢâĶĢâĶĢâĶĢâĶĢâĶĢâĶĢâĶĢâĶĢâĶĢâĶĢâĶĢâĶĢâĶĢâĶĢâĶĢâĶĢâĶĢâĶĢâĶĢâĶĢâĶĢâĶĢâĶĢâĶĢâĶĢâĶĢâĶĢâĶĢâĶĢâĶĢâĶĢâĶĢâĶĢâĶĢâĶĢâĶĢâĶĢâĶĢâĶĢâĶĢâĶĢâĶĢâĶĢâĶĢâĶĢâĶĢâĶĢâĶĢâĶĢâĶĢâĶĢâĶĢâĶĢâĶĢâĶĢâĶĢâĶĢ":4589,"BO":4590,"Ġinode":4591,"Ġrate":4592,"anis":4593,"dhcp":4594,"ĠProcess":4595,"ĠVersion":4596,"lication":4597,"Ġpull":4598,"Ġrecords":4599,"ĠGUI":4600,"\"/":4601,"Ġprovider":4602,"ĠVPS":4603,"Ġpostfix":4604,"dh":4605,"LIB":4606,"itive":4607,"Address":4608,"Ġ256":4609,"Ġelement":4610,"Ġ2019":4611,"READ":4612,"Files":4613,"Ġdisconnect":4614,"ĠVMs":4615,"abc":4616,"Ġld":4617,"...]":4618,"ĠRec":4619,"tw":4620,"dig":4621,"Ġperiod":4622,"alf":4623,"Ġalong":4624,"adow":4625,"________":4626,"ĠUsing":4627,"Ġseg":4628,"real":4629,"Ġloss":4630,"tree":4631,"Ġtrust":4632,":*":4633,"Ġcomplex":4634,"UTH":4635,"ĠType":4636,"Ġhigher":4637,"Ġmacro":4638,"itespace":4639,"Ġresource":4640,"ĠĠĠĠĠĠĠĠĠĠĠĠĠĠĠĠĠĠĠĠĠĠĠĠ":4641,"Ġsubstitution":4642,"ĠSH":4643,"Ġnodes":4644,"non":4645,"ler":4646,"])":4647,"Ġaway":4648,"Ġ'\\":4649,"fp":4650,"ĠApr":4651,"ĠOpenVPN":4652,"urrently":4653,"Be":4654,"witch":4655,"gt":4656,"ĉĉĠĠĠĠĠ":4657,"first":4658,"isions":4659,"122":4660,"faces":4661,"rase":4662,"try":4663,"Ġdrivers":4664,"cedure":4665,">>":4666,"Ġcable":4667,"ĠPAM":4668,"Ġcontroll":4669,"DF":4670,"Ġmember":4671,"ĠACL":4672,"rite":4673,"Box":4674,"Im":4675,"Ġabsolute":4676,"Ġmech":4677,"pdf":4678,"Ġbehaviour":4679,"sn":4680,"Ġtemporary":4681,"uccess":4682,"Ġbehind":4683,"Ġvendor":4684,"igr":4685,"EG":4686,"rwxrwxrwx":4687,"Ġpool":4688,"Ġcrash":4689,"emplate":4690,"private":4691,"Ġwireless":4692,"Ġever":4693,"dest":4694,"ĠISP":4695,"virtual":4696,"âĶĤ":4697,"going":4698,"ouse":4699,"Mod":4700,"Ġ36":4701,"(\"/":4702,"SV":4703,"Read":4704,"Ġshutdown":4705,"idden":4706,"Ġmounting":4707,"crontab":4708,"Ġsn":4709,"Ġtables":4710,"Ġvir":4711,"END":4712,"Ġmkdir":4713,"Max":4714,"ĠCl":4715,"Ġdefine":4716,"yum":4717,"ERROR":4718,"Ġcurl":4719,"2017":4720,"Ġcausing":4721,"wiki":4722,"ont":4723,"NC":4724,"Ġaccessible":4725,"Ġinteger":4726,"-%":4727,"save":4728,"ĠCON":4729,"elnet":4730,"Ġtested":4731,"Ġcompression":4732,"Ġcorrupt":4733,"Ġleave":4734,"*/":4735,"Ġstdout":4736,"Ġperfect":4737,"Virtual":4738,"sy":4739,"Ġ};":4740,"URE":4741,"ĠEST":4742,"IF":4743,"ng":4744,"Ġstopped":4745,"Ġwouldn":4746,"ĠMTU":4747,"istics":4748,"Description":4749,"Ġchoose":4750,"Ġlatest":4751,"Ġhope":4752,"ited":4753,"sequ":4754,"Ġfirmware":4755,"ĠLoad":4756,"Ġrepresent":4757,"Ġhop":4758,"enames":4759,"ifs":4760,"inet":4761,"Ġsur":4762,"AILQ":4763,"Ġmind":4764,"ifconfig":4765,"patch":4766,"NEW":4767,"termin":4768,"acing":4769,"rpm":4770,"ĠHDD":4771,"ĠSub":4772,"1234":4773,"fox":4774,"fff":4775,"aim":4776,"IO":4777,"ĠId":4778,"Another":4779,"Ġxargs":4780,"ruction":4781,"ĠâĢĺ":4782,"wards":4783,"Ġzone":4784,"mer":4785,"pages":4786,"rules":4787,"pci":4788,"utorial":4789,"erber":4790,"Ġasking":4791,"Ġmapping":4792,"object":4793,"ĠLISTEN":4794,"nost":4795,"Ġaware":4796,"rr":4797,"aged":4798,"Ġconsidered":4799,"project":4800,"bytes":4801,"Path":4802,"Ġrepe":4803,"ĠTYPE":4804,"Config":4805,"yper":4806,"essions":4807,"\\.":4808,"nos":4809,"Ġsmb":4810,"ĠFrom":4811,"pet":4812,",$":4813,"around":4814,"ignal":4815,"Example":4816,"ded":4817,"sim":4818,"Ġpush":4819,"Id":4820,"SEE":4821,"ĠMiB":4822,"json":4823,"Ġthird":4824,"Ġstatement":4825,"emory":4826,"AMP":4827,"generic":4828,"Ġmirror":4829,"ONE":4830,"lp":4831,"DC":4832,"SET":4833,"tools":4834,"cloud":4835,"Ġreser":4836,"Ġ2018":4837,"Ġattribute":4838,"ĠALSO":4839,"Ġ2017":4840,"Ġcmd":4841,"ĠĠĠĠĠĠĠĠĠĠĠĠĠĠĠĠĠĠĠĠĠ":4842,"REP":4843,"Ġterms":4844,"Output":4845,"clo":4846,"ADE":4847,"Ġsig":4848,"Ġproduction":4849,"false":4850,"Ġ::":4851,"Ġmodel":4852,"Ġonline":4853,"ĠPATH":4854,"Ġprivileges":4855,"Ġreplaced":4856,"comment":4857,"120":4858,"Ġmv":4859,"Ġinher":4860,"ived":4861,"png":4862,"Ġsuff":4863,"Ġprocedure":4864,"Ġcredentials":4865,"};":4866,"Ġ48":4867,"Ġwhitespace":4868,"Ġplan":4869,"prise":4870,"Ġevents":4871,"shared":4872,"RD":4873,"ĠALL":4874,"INPUT":4875,"?)":4876,"awn":4877,"Ġsomehow":4878,"Ġtells":4879,"Client":4880,"Forward":4881,"tables":4882,"ĠPower":4883,"izing":4884,"Ġnor":4885,"vol":4886,"ube":4887,"NOPSIS":4888,"Ġdm":4889,"tra":4890,"Ġwondering":4891,"Ġweek":4892,"des":4893,"Ġmechanis":4894,"Test":4895,"Yes":4896,"ĠUs":4897,"Ġlinked":4898,"number":4899,"ATED":4900,"Dis":4901,",\"":4902,"ssible":4903,"ITH":4904,"Ġlabel":4905,"ĠRes":4906,"irefox":4907,"FC":4908,"lt":4909,"Ġdb":4910,"logs":4911,"ĠArch":4912,"Ġmetric":4913,"Ġ655":4914,"static":4915,"erberos":4916,"MY":4917,"Ġfully":4918,"Ġchroot":4919,"Ġpossibly":4920,"ĠPCI":4921,"ood":4922,"Ġprints":4923,"rive":4924,"CONFIG":4925,"bps":4926,"uel":4927,"cgroup":4928,"Ġpkts":4929,"Ġimpro":4930,"Ġestablished":4931,"ĠSO":4932,"Ġshowing":4933,"vid":4934,"eries":4935,"@\"":4936,"Ġwhose":4937,"ered":4938,"book":4939,"Ġattempts":4940,"Ġcoming":4941,"Ġremember":4942,"ĠâĢĶ":4943,"250":4944,"Ġtries":4945,"Ġtypically":4946,"aced":4947,"!!":4948,"bing":4949,"ĠTLS":4950,"Ġupgrad":4951,"arently":4952,"Ġprotect":4953,"Ġmetadata":4954,"('":4955,"postfix":4956,"SYNOPSIS":4957,"color":4958,"pts":4959,"Ġattached":4960,"ĠNetworkManager":4961,"verage":4962,"Ġassuming":4963,"sort":4964,"esg":4965,"loc":4966,"Ġnewline":4967,"Ġ2012":4968,"ASQUER":4969,"Ġbal":4970,"secure":4971,"LC":4972,"ists":4973,"URN":4974,"Ġobjects":4975,"lab":4976,"SERVER":4977,"ĠĠĠĠĠĠĠĠĠĠĠĠĠĠĠĠĠĠĠĠĠĠĠĠĠĠĠĠĠĠĠĠĠĠĠĠĠĠĠĠĠĠĠĠĠĠĠĠĠĠĠĠĠĠĠĠĠĠĠĠĠĠĠĠĠĠĠĠĠĠĠĠĠĠĠĠĠĠĠĠĠĠĠĠĠĠĠĠĠĠĠĠĠĠĠĠĠĠĠĠĠĠĠĠĠĠĠĠĠĠĠĠĠĠĠĠĠĠĠĠĠĠĠĠĠĠĠĠ":4978,"Ġlocated":4979,"ĠExec":4980,"Ġdesired":4981,"SU":4982,"hat":4983,"Ġinstruction":4984,"dat":4985,"ASQUERADE":4986,"Ġreli":4987,"Ġartic":4988,"Ġhttpd":4989,"Ġunits":4990,"Ġoutputs":4991,"specific":4992,"Ġtransl":4993,"Mon":4994,"Ġftp":4995,"Ġyum":4996,"ĠRSA":4997,"Ġsupposed":4998,"Ġcarrier":4999,"Ġlarger":5000,"2015":5001,"Ġcouldn":5002,"Ġmenu":5003,"ivity":5004,"ARY":5005,"kexinit":5006,"Ġwish":5007,"';":5008,"Ġsymbolic":5009,"Ġbot":5010,"Ġ2016":5011,"ĠConfig":5012,"since":5013,"Ġlists":5014,"pecially":5015,"NR":5016,"Ġcopying":5017,"ĠNT":5018,"ĠHP":5019,"âĶĢâĶĢâĶ":5020,"jo":5021,"ĠBIOS":5022,"Ġprofile":5023,"rf":5024,"Ġcompon":5025,"Ġrecommended":5026,"Ġmulti":5027,"bridge":5028,"depth":5029,"Create":5030,"ĠFILE":5031,"Ġ</":5032,"Ġroutes":5033,"ses":5034,"Ġinterrupt":5035,"bject":5036,"interactive":5037,"lines":5038,"ĠPlease":5039,"alt":5040,"Ġmonitoring":5041,"Ġspecifies":5042,"riv":5043,"Ġownership":5044,"Ġextended":5045,"169":5046,"CESS":5047,"Ġalgorithm":5048,"Ġstri":5049,"WR":5050,"sites":5051,"Ġwatch":5052,"show":5053,"Ġasked":5054,"MAP":5055,"centos":5056,"Ġconver":5057,"Ġ<(":5058,"Ġagent":5059,"relat":5060,"386":5061,"jor":5062,"acy":5063,"Ġ(\"":5064,"ĠSec":5065,"rant":5066,"Ġexamples":5067,"serve":5068,"interfaces":5069,"Ġseeing":5070,"relatime":5071,"Ġmethods":5072,"cut":5073,"lection":5074,"Ġtaken":5075,"Cent":5076,"enabled":5077,"aming":5078,"ipher":5079,"PO":5080,"Ġtrick":5081,"LIST":5082,"Ġsuggestions":5083,"Ġ56":5084,"Ġcompiled":5085,"restrict":5086,"Ġcame":5087,"Ġfunctionality":5088,"ĠAm":5089,"Ġexplanation":5090,"ring":5091,"compl":5092,"Ġadapter":5093,"jar":5094,"ITE":5095,"hel":5096,"ĠER":5097,"archive":5098,"Ġremoving":5099,"/\"":5100,"Se":5101,"inc":5102,"Ġsends":5103,"List":5104,"Ġcaused":5105,"ton":5106,"Ġfilenames":5107,"Ġbecome":5108,"ĠBe":5109,"trfs":5110,"Ġcgroup":5111,"ume":5112,"gl":5113,"Ġtests":5114,"CPU":5115,"''":5116,"Ġencrypted":5117,"SION":5118,"Ġcost":5119,"ĠIgn":5120,"ĠSC":5121,"ĠMetric":5122,"container":5123,"Ġsuccessful":5124,"Ġconcern":5125,"Ġproduc":5126,"Ġsem":5127,"Ġcompany":5128,"virt":5129,"Ġowned":5130,"def":5131,"alyzer":5132,"/^":5133,"Ġupon":5134,"angle":5135,"Ġscenario":5136,"Ġfinal":5137,"void":5138,"Ġshouldn":5139,"GR":5140,"/'":5141,"Ġself":5142,"Ġclnt":5143,"Ġrecover":5144,"Ġprec":5145,"RON":5146,"directories":5147,"FAULT":5148,"Ġdebugging":5149,"cm":5150,"rpc":5151,"agic":5152,"Ġhelps":5153,"Ġsaved":5154,"scan":5155,"Ġpot":5156,"Ġte":5157,"ĠLET":5158,"ĠAPI":5159,"Ġthinking":5160,"typ":5161,"illa":5162,"Ġ34":5163,"Ġconfirm":5164,"lice":5165,"isco":5166,"storage":5167,"ĠLDAP":5168,"Ġclick":5169,"Ġoptional":5170,"phrase":5171,"Ġalthough":5172,"Ġchoice":5173,"ignore":5174,"Ġindividual":5175,"mm":5176,"when":5177,"Pre":5178,"estart":5179,"drive":5180,"Ġspecifically":5181,"ĠDI":5182,"ĠGoogle":5183,"oubl":5184,"Ġaudit":5185,"Ġ99":5186,"Ġequal":5187,"Ġwaiting":5188,"Ġobtain":5189,"Ġrequested":5190,"ĠUID":5191,"ĠSQL":5192,"Ġthreads":5193,"Ġhang":5194,"ĠControl":5195,"inters":5196,"Ġprinted":5197,"ELinux":5198,"Ġyourself":5199,"2016":5200,"Ġ2014":5201,"ĠLETTER":5202,"Link":5203,"tls":5204,"ĠESTABLISHED":5205,"Ġlearn":5206,"ĠLV":5207,"ĠAtt":5208,"ĠSATA":5209,"Ġintended":5210,"Ġgrub":5211,"current":5212,"Ġincrease":5213,"Of":5214,"Ġtasks":5215,"Ġ2015":5216,"Ġperhaps":5217,"Ġworth":5218,"ĠIFS":5219,"SHA":5220,"ightly":5221,"gine":5222,"EXT":5223,"800":5224,"Ġloopback":5225,"300":5226,"Ġdd":5227,"station":5228,"ĠFound":5229,"Ġcollisions":5230,":\"":5231,"Ġraw":5232,"033":5233,"MAC":5234,"Ġipv":5235,"ifies":5236,"Ġmyself":5237,"ĠĠĠĠĠĠĠĠĠĠĠĠĠĠĠĠĠĠĠĠĠĠĠĠĠĠĠĠĠĠĠ":5238,"ASE":5239,"zz":5240,"Ġescape":5241,"ĠService":5242,"eak":5243,"Ġpasswords":5244,"CL":5245,"VP":5246,"Ġcalc":5247,"program":5248,"ĠData":5249,"]+":5250,"Ġturned":5251,"ĠLC":5252,"Ġgiving":5253,"Ġdependencies":5254,"ĠDevices":5255,"Ġimplemented":5256,"Ġparts":5257,"flags":5258,"Ġsites":5259,"ĠNAS":5260,"104":5261,"eq":5262,"Ġmedia":5263,"ĠRUN":5264,"EOF":5265,"ĠDep":5266,"Ġapplied":5267,"probe":5268,"eral":5269,"KEX":5270,"Ġ\"\"":5271,"BACK":5272,"DS":5273,"history":5274,"\">":5275,"label":5276,"hello":5277,"ribute":5278,"Ġlatency":5279,"Ġssl":5280,"aaaa":5281,"ĠEnable":5282,"Acc":5283,"Ġfour":5284,"chroot":5285,"Ġsuspect":5286,"Ġtherefore":5287,"=\"${":5288,"Data":5289,"Ġproc":5290,"ety":5291,"Ġsftp":5292,"gent":5293,"2019":5294,"he":5295,"Ġwent":5296,"before":5297,"Ġnewer":5298,"Per":5299,"Ġarrays":5300,"ties":5301,"Ġfront":5302,"multi":5303,"211":5304,"tag":5305,"Ġ39":5306,"resolv":5307,"uppet":5308,"ĠUTC":5309,"ĠAuthentication":5310,"ifo":5311,"Ġlooked":5312,"ference":5313,"oop":5314,"Ġdat":5315,"].":5316,"Ġrou":5317,"mat":5318,"openvpn":5319,"GET":5320,"icast":5321,"ĠMon":5322,"result":5323,"Ġunique":5324,"Ġjava":5325,"uffers":5326,"ĠINFO":5327,"ĠEach":5328,"2020":5329,"240":5330,"Ġaccounts":5331,"oke":5332,"Thank":5333,"2018":5334,"bas":5335,"Ġzsh":5336,">.":5337,"GNU":5338,"uelen":5339,"lier":5340,"queuelen":5341,"encrypt":5342,"Ġfs":5343,"Ġ000":5344,"HEAD":5345,"hellman":5346,"define":5347,"asure":5348,"Ġrename":5349,"Ġnotice":5350,"Ġ($":5351,"fsck":5352,"Just":5353,"ption":5354,"Ġsoon":5355,"Ġed":5356,"eval":5357,"ĠAdded":5358,"Ġtxqueuelen":5359,"ĠOpenSSL":5360,"})":5361,"inst":5362,"MAIN":5363,"Debian":5364,"Ġ33":5365,"Ġdedicated":5366,"mas":5367,"ĠUsed":5368,"vme":5369,"Ġsuggested":5370,"Ġincrement":5371,"anel":5372,"Rec":5373,"Ġbecomes":5374,"ĠState":5375,"lare":5376,"ĠAWS":5377,"ĠGit":5378,"Ġrev":5379,"gcc":5380,"ĠCD":5381,"Allow":5382,"nat":5383,"Ġir":5384,"Ġ2013":5385,"Ġguide":5386,"scp":5387,"PORT":5388,"Ġfeel":5389,"ĠCould":5390,"LAY":5391,"icult":5392,"Ass":5393,"ĠQu":5394,"Ġunderstanding":5395,"Wno":5396,"ĠManual":5397,"Ġbroken":5398,"event":5399,"exe":5400,"Ġvpn":5401,"oded":5402,"Enter":5403,"Ġhis":5404,"Ġbelong":5405,"OpenSSH":5406,"switch":5407,"Ġcompile":5408,"().":5409,"LOWER":5410,"8080":5411,"ĠKey":5412,"sysctl":5413,"Ġidentical":5414,"ateg":5415,"ĠAP":5416,"IME":5417,"ĠOff":5418,"Ġoccurre":5419,"Ġnear":5420,"ĠOptions":5421,"ĠLocal":5422,"ĠMASQUERADE":5423,"ĠDB":5424,"OUTPUT":5425,"plicit":5426,"306":5427,"[\\":5428,"ands":5429,"iness":5430,"mydomain":5431,"Backup":5432,"aching":5433,"112":5434,"Ġfair":5435,"entry":5436,"Ġql":5437,"Ġstrange":5438,"light":5439,"upd":5440,"âķĲâķĲâķĲâķĲ":5441,"Ġ+%":5442,"Ġluck":5443,"Ġidentify":5444,"Ġstick":5445,"Ġcolor":5446,"Ġsvc":5447,"................":5448,"Ġdefinition":5449,"Ġlinker":5450,"Ġconvert":5451,"Ġ2020":5452,"Connection":5453,"Ġaccompl":5454,"||":5455,"Ġvi":5456,"Sub":5457,"import":5458,"LOC":5459,"control":5460,"compat":5461,"Ġonto":5462,"Ġ300":5463,"ĠVal":5464,"nl":5465,"Ġsuffix":5466,"now":5467,"Ġ'$":5468,"ĠRet":5469,"Ġdifficult":5470,"audit":5471,"102":5472,"apping":5473,"Password":5474,"ĠNO":5475,"UUID":5476,"ae":5477,"CKER":5478,"itable":5479,"tc":5480,"Ġoccur":5481,"cluding":5482,"LINE":5483,"ili":5484,"Ġtaking":5485,"Ġindicate":5486,"Ġ2008":5487,"isc":5488,"enced":5489,"support":5490,"Ġextensions":5491,"Ġintegr":5492,"Ġfault":5493,"Ġpick":5494,"internal":5495,"orpor":5496,"query":5497,"pers":5498,"400":5499,"Ġ:)":5500,"Ġoccurs":5501,"Ġrouters":5502,"quid":5503,"Ġjump":5504,"Ġmigr":5505,"ĠEnter":5506,"ev":5507,"Ġpractice":5508,"dk":5509,"Ġadvice":5510,"Ġelements":5511,"expected":5512,"Ġ88":5513,"Ġcompatibility":5514,"iso":5515,"ĠClient":5516,"ĠSol":5517,"Ġunmount":5518,"ARNING":5519,"oment":5520,"ole":5521,"Ġvlan":5522,"ĠThanks":5523,"running":5524,"PTIONS":5525,"Ġfill":5526,"Stop":5527,"Ġembed":5528,"Ġquote":5529,"ĠWin":5530,"Ġindicates":5531,"lin":5532,"loads":5533,"ramfs":5534,"SM":5535,"Ġsignific":5536,"Ġconflic":5537,"Ġcondition":5538,"ĠEnd":5539,"Ġselected":5540,"eep":5541,")(":5542,"Ġ2021":5543,"Ġblocked":5544,"Ġhosting":5545,"raph":5546,"plit":5547,"ROM":5548,"atic":5549,"LD":5550,"ying":5551,"Ġcompare":5552,"Ġudev":5553,"ĠAB":5554,"Ġplatform":5555,"Ġespecially":5556,"Ġqlen":5557,"hd":5558,"Ġgn":5559,"select":5560,"reboot":5561,"vim":5562,"Ġtrouble":5563,"Ġ()":5564,"Document":5565,"ĠYour":5566,"Ġposition":5567,"ĠSI":5568,"ref":5569,"Ġusual":5570,"Ġhappened":5571,"ĠARP":5572,"ming":5573,"ĉĉĉĉĠĠĠĠĠ":5574,"idd":5575,"ĠCommand":5576,"107":5577,"Ġends":5578,"Ġseparated":5579,"Ġcrypt":5580,"Ġgoal":5581,"Make":5582,"Ġanymore":5583,"Ġ**":5584,"USE":5585,"anges":5586,"Ġtimer":5587,"snapshot":5588,"Ġcapabilities":5589,"Ġclone":5590,"memory":5591,"Ġadjust":5592,"Ġlanguage":5593,"Ġdoc":5594,"ĠREL":5595,"itely":5596,"aging":5597,"Which":5598,"ooth":5599,"unc":5600,"ĠInterface":5601,"Ġworkaround":5602,"]\\":5603,"Ġminute":5604,"GE":5605,"hard":5606,"Ġsolved":5607,"Ġrebuild":5608,"ATION":5609,"ĠWhy":5610,"Ġcloud":5611,"Local":5612,"ued":5613,"INFO":5614,"^@":5615,"Ġlimits":5616,"ĠKernel":5617,"Ġ>&":5618,"ORY":5619,"Ġdisplayed":5620,"MT":5621,"ren":5622,"rotate":5623,"urning":5624,"stric":5625,"2014":5626,"power":5627,"Ġop":5628,"Ġrecovery":5629,"Ġallowing":5630,"buffer":5631,"manager":5632,"Ġidentifier":5633,"Ġsda":5634,"655":5635,"usion":5636,"ocols":5637,"Ġready":5638,"Ġmdadm":5639,"Work":5640,"Ġproduct":5641,"UTF":5642,"snap":5643,"},":5644,"lean":5645,"ĠTTL":5646,"HIST":5647,"ĠDirectory":5648,"Ġmechanism":5649,"pattern":5650,"Ġpostgres":5651,"Ġwebserver":5652,"byte":5653,"Ġtre":5654,"Ġdetected":5655,"sysconfig":5656,"Ġediting":5657,"Ġvideo":5658,"mysqld":5659,"Ġdistributions":5660,"Ġrot":5661,"2023":5662,"Ġplugin":5663,"Ctrl":5664,"UPDATE":5665,"ĠDoes":5666,"precated":5667,"Ġwasn":5668,"Ġsector":5669,"GP":5670,"uous":5671,"Ġdirective":5672,"hash":5673,"oint":5674,"Ġsock":5675,"acer":5676,"det":5677,"Ġwhenever":5678,"firewall":5679,"Ġschem":5680,"tings":5681,"Contro":5682,"AV":5683,"ĠSMB":5684,"Ġfrequ":5685,"Ġparse":5686,"Ġarbit":5687,"Ġtutorial":5688,"144":5689,"Root":5690,"Ġcopies":5691,"ĠPython":5692,"ĠPRE":5693,"Ġreserved":5694,"));":5695,"Ġoutgoing":5696,"xxxxxxxx":5697,"Ġsymbol":5698,"Ġoffer":5699,"Ġ\\;":5700,"Ġwrote":5701,"2021":5702,"Ġtcpdump":5703,"eric":5704,"125":5705,"Ġexception":5706,"ones":5707,"...)":5708,"hib":5709,"Ġdot":5710,"Ġ$?":5711,"Ġparallel":5712,"diffie":5713,"600":5714,"MIN":5715,"Ġhook":5716,"}==\"":5717,"Ġexpecting":5718,"Ġsmaller":5719,"kit":5720,"Ġwifi":5721,"arant":5722,"TT":5723,"aste":5724,"Ġpreviously":5725,"Ġaccessing":5726,"Ġmounts":5727,"201":5728,"These":5729,"ĠRaid":5730,"ĠSYN":5731,"ĠRELATED":5732,"ĠJust":5733,"Load":5734,"âĶľ":5735,"Get":5736,"older":5737,"come":5738,"ĠGenerate":5739,"gre":5740,"disable":5741,"Ġarticle":5742,"Ġcounter":5743,"Ġ\\\"":5744,"ĠĠĠĠĠĠĠĠĠĠĠčĊ":5745,"Ġâ":5746,"igab":5747,"Ġoverride":5748,"Ġperformed":5749,"ulation":5750,"HTTP":5751,"watch":5752,"Ġsources":5753,"ĠWAN":5754,"Ġcrit":5755,"Ġhack":5756,"grade":5757,"194":5758,"Ġoperator":5759,"Ġmoment":5760,"Ġround":5761,"ĠMode":5762,"Ġencryption":5763,"iet":5764,"252":5765,"tail":5766,"Ġ35":5767,"129":5768,"FL":5769,"Ġtroubl":5770,"flo":5771,"eline":5772,"xv":5773,"Ġmostly":5774,"Ġsubshell":5775,"Ġintro":5776,"Are":5777,"cb":5778,"Ġreload":5779,"desktop":5780,"arr":5781,"perty":5782,"AUTH":5783,"iment":5784,"SYST":5785,"trace":5786,"buf":5787,"Other":5788,"parent":5789,"Ġstuck":5790,"limited":5791,"Ġdesign":5792,"agios":5793,"Ġconstant":5794,"Ġperfectly":5795,"Ġstay":5796,"ze":5797,"locked":5798,"Default":5799,"Ġpts":5800,"Match":5801,"Ġinterval":5802,"Ġwc":5803,"ĠPost":5804,"Ġfinished":5805,"Ġfinally":5806,"Ġ65":5807,"Ġrecurs":5808,"Ġbuiltin":5809,":$":5810,"umac":5811,"Ġexpress":5812,"Ġdef":5813,"âĶĢâĶĢâĶĢâĶĢâĶĢâĶĢâĶĢâĶĢâĶĢâĶ":5814,"Ġconstruct":5815,"asically":5816,"220":5817,"lc":5818,"ĠYes":5819,"Ġmoved":5820,"sdd":5821,"verything":5822,"DH":5823,"ĠON":5824,"Ġenables":5825,"Ġassem":5826,"style":5827,"Ġunset":5828,"Ġsignificant":5829,"Ġrepo":5830,"Ġdeny":5831,"~~~~":5832,"ĠHW":5833,"Ġretri":5834,"GG":5835,"Ġinterested":5836,"eshoot":5837,"poses":5838,"return":5839,"ĠWITH":5840,"Ġfork":5841,"Ġallocated":5842,"Ġreports":5843,"Ġflush":5844,"Ġ37":5845,"Ġhelpful":5846,"aspberry":5847,"sible":5848,"Ġ600":5849,"Ġfailing":5850,"Ġbuilding":5851,"Ġsessions":5852,"antedBy":5853,"ĉĉĉĠĠ":5854,"Ġmeasure":5855,"Ġbackend":5856,"questions":5857,"FW":5858,"}.":5859,"repo":5860,"evel":5861,"gateway":5862,"req":5863,"ĠNAME":5864,"ormal":5865,"Ġcombination":5866,"keep":5867,"Ġer":5868,"ADDR":5869,"ĠPerl":5870,"available":5871,"Ġ}'":5872,"ĠMicrosoft":5873,":%":5874,"ĠSp":5875,"ĠGateway":5876,":]]":5877,"Access":5878,"Ġmodification":5879,"etime":5880,"/*.":5881,"chown":5882,"preauth":5883,"Ġobviously":5884,"686":5885,"Ġpathname":5886,"ĠOnly":5887,"roll":5888,"except":5889,"safe":5890,"Ġattempting":5891,"UX":5892,"fpm":5893,"Ġiter":5894,"Ġtimed":5895,"ĠUNIX":5896,"ĠStarting":5897,"PRE":5898,"Ġconntrack":5899,"ĠSELinux":5900,"chain":5901,"^@^@":5902,"slash":5903,"Running":5904,"Ġ59":5905,"resp":5906,"connection":5907,"lm":5908,"Ġrisk":5909,"Ġadvant":5910,"compose":5911,"Ġlots":5912,"Ġbunch":5913,"analyzer":5914,"Ġstdin":5915,"Ġinvoked":5916,"roid":5917,"Ġaltern":5918,"Look":5919,"ĠUSER":5920,"Ġdiscover":5921,"RECT":5922,"ĠCAP":5923,"ĠBoot":5924,"ĠVG":5925,"RAID":5926,"Where":5927,"gs":5928,"Ġresulting":5929,"without":5930,"nodev":5931,"clean":5932,"Part":5933,"Ġom":5934,"Ġshares":5935,"ÂłčĊ":5936,"^^":5937,"ailing":5938,"aws":5939,"Ġdevelopment":5940,"ĠGroup":5941,"=\"$(":5942,"Ġ90":5943,"physical":5944,"Ġhot":5945,"Ġdeli":5946,"Ġos":5947,"empty":5948,"Ġappend":5949,"Ġifconfig":5950,"ĠArray":5951,"224":5952,"ĠKiB":5953,"vari":5954,"Ġencounter":5955,"Ġ\"__":5956,"Ġredund":5957,"Ġlvm":5958,"Ġencap":5959,"emu":5960,"tos":5961,"ĠHat":5962,")/":5963,"deed":5964,"remove":5965,"~/":5966,"Process":5967,"comput":5968,"Ġ\"$@\"":5969,"Ġhandling":5970,"Ġpointed":5971,"Ġpeer":5972,"atabases":5973,"Ġ2048":5974,"content":5975,"Ġbenef":5976,"ĠTest":5977,"Ġdependency":5978,"ĠWeb":5979,"USB":5980,"Ġio":5981,"Ġearlier":5982,"Ġguarant":5983,")'":5984,"ĠSer":5985,"volume":5986,"Ġ:::":5987,"guard":5988,"agement":5989,"Ġrights":5990,"Ġflow":5991,"Ġcommunication":5992,"ATUS":5993,"999":5994,"document":5995,"Ġ38":5996,"Ġremaining":5997,"Ġtmpfs":5998,"plic":5999,"ĠAV":6000,"Ġcompatible":6001,"close":6002,"bot":6003,"Ġfall":6004,"509":6005,"Mode":6006,"method":6007,"Ġreported":6008,"Ġ>/":6009,"quires":6010,"dpkg":6011,"Ġembedded":6012,"bt":6013,"Ġweird":6014,"VERSION":6015,"Ġbusy":6016,"Ġsaf":6017,"103":6018,"gp":6019,"????":6020,"aff":6021,"ĠĠĠĠĠĠĠĠĠĠĠĠčĊ":6022,"Ġcompletion":6023,"Number":6024,"wap":6025,"ibr":6026,"la":6027,"Ġ67":6028,"130":6029,"cli":6030,"ral":6031,"onse":6032,"Ġprocessor":6033,"AAAA":6034,"Ġpassphrase":6035,"ĠREJECT":6036,"bf":6037,"ancy":6038,"ĠIm":6039,"Ġ120":6040,"Ġaccessed":6041,"ĠZFS":6042,"Ġregex":6043,"Ġrequirements":6044,"eap":6045,"ĠMake":6046,"Ġstatistics":6047,"hn":6048,"ĠAccess":6049,"WantedBy":6050,"ĠStandard":6051,"rotocol":6052,"Ġaccomplish":6053,"RARY":6054,"dden":6055,"icense":6056,"ices":6057,"ĠMount":6058,"nosuid":6059,"Ġhalf":6060,"Ġskip":6061,"@@@@@@@@":6062,"Ġeffective":6063,"FAIL":6064,"ĠController":6065,"=-":6066,"Ġblan":6067,"Ġexpanded":6068,"While":6069,"Ġtimestamp":6070,"overflow":6071,"fork":6072,"EGIN":6073,"140":6074,"ln":6075,"built":6076,"sig":6077,"ĠBackup":6078,"Ġdesigned":6079,"Ġ(-":6080,"Ġ-->":6081,"Ġaliases":6082,"KB":6083,"onym":6084,"enk":6085,"Ġincorrect":6086,"Ġsockets":6087,"Fi":6088,"ĠBlock":6089,"Ġ))":6090,"TERM":6091,"Ġneg":6092,"Ġfairly":6093,"enter":6094,"PASS":6095,"touch":6096,"ĠĠĠĠĠĠĠĠĠĠĠĠĠĠĠĠĠĠĠĠĠĠĠĠĠĠĠĠĠĠĠĠĠĠĠĠĠĠĠĠĠĠĠĠĠĠĠĠ":6097,"Ġsearching":6098,"ĠAv":6099,"ĠEN":6100,"2013":6101,"ccept":6102,"105":6103,"Once":6104,"Ġcreation":6105,"Ġtrace":6106,"ĠWire":6107,"Ġstderr":6108,"Ġcover":6109,"Ġrefused":6110,"LIBRARY":6111,"Free":6112,"ĠÃ":6113,"ĠPrint":6114,"Net":6115,"NF":6116,"Red":6117,"Ġlight":6118,"RSA":6119,"ĠSun":6120,"Ġnative":6121,"Ġbooting":6122,"Ġoffice":6123,"Ġfinish":6124,"150":6125,"VAR":6126,"Ġspecifying":6127,"Str":6128,"sive":6129,"Ġlif":6130,"ĠTrans":6131,"Ġmangle":6132,"Ġreinstall":6133,"Ġquickly":6134,"Ġexits":6135,"Ġexited":6136,"################################":6137,"Ġevalu":6138,"Ġsounds":6139,"POSIX":6140,"ided":6141,"ĉĉĉ":6142,"Ġess":6143,"ĠâĢĵ":6144,"Ġentirely":6145,"Ġarbitrary":6146,"account":6147,"Ġadministrator":6148,"shark":6149,"106":6150,"SIZE":6151,"Ġmoving":6152,"packages":6153,"acity":6154,"âĢ¦":6155,"ĠOper":6156,"Ġpurposes":6157,"Ġregardless":6158,"osed":6159,"cue":6160,"sched":6161,"Ġppp":6162,"Ġrc":6163,"ĠMask":6164,"Ġ44":6165,"Ġeditor":6166,"isters":6167,"Ġhuge":6168,"ea":6169,"Ġ45":6170,"RET":6171,"Ġwild":6172,"ano":6173,"Ġsynchron":6174,"Ġaverage":6175,"terminal":6176,"Ġtoday":6177,"ĠEVP":6178,"ÂłÂłÂłÂł":6179,"pd":6180,"track":6181,"zilla":6182,"Ġdr":6183,"Ġ54":6184,"Ġsample":6185,"Ġconfigurations":6186,"ternatively":6187,"Ġaccepted":6188,"Ġorigin":6189,"2022":6190,"Ġauthor":6191,"Restart":6192,"Ġrow":6193,"Ġknows":6194,"LATIN":6195,"Ġability":6196,"Ġscp":6197,"Ġ63":6198,"facl":6199,"Ġresolution":6200,"stdout":6201,"Let":6202,"something":6203,"Ġ~]$":6204,"Ġsdb":6205,"Ġminimum":6206,"ĠSAS":6207,"Ġsegment":6208,"lu":6209,"ummy":6210,"PAR":6211,"Dir":6212,"CentOS":6213,"tcpdump":6214,"ĠATTR":6215,"orporation":6216,"002":6217,"ĠMin":6218,"Ġhex":6219,"ned":6220,"Ġneither":6221,"Could":6222,"Ġblocking":6223,"PRI":6224,"Ġgid":6225,"Ġgeneric":6226,"ĠâĶĶâĶĢ":6227,"Ġopp":6228,"ĠRemote":6229,"WA":6230,"Ġconnects":6231,"Ġmeant":6232,"Ġmodern":6233,"ĠSupport":6234,"ems":6235,"Ġpc":6236,"Ġheaders":6237,"109":6238,"exited":6239,"Ġsuitable":6240,"Ġrestarted":6241,"Ġcentos":6242,"2008":6243,"Ġ\".":6244,"ificates":6245,"=[":6246,"Ġcached":6247,"orld":6248,"644":6249,"smtpd":6250,"Ġmist":6251,">,":6252,"ital":6253,"rome":6254,"ĠES":6255,"complete":6256,"Ġ2011":6257,"AF":6258,"108":6259,"ĠCreate":6260,"Ġ2022":6261,"Ġkeeps":6262,"ĠReg":6263,"ursor":6264,"Ġtee":6265,"ried":6266,"fno":6267,"services":6268,"DEV":6269,"Ġtemplate":6270,"order":6271,"ibrary":6272,",,":6273,"Ġwide":6274,"COMMAND":6275,"cy":6276,"fifo":6277,"Ġlen":6278,"RESS":6279,"Ġloading":6280,"\"]":6281,"Ġapplies":6282,"orig":6283,"ĠCorporation":6284,"tool":6285,"Ġpassing":6286,"Ġdiscus":6287,"0000000":6288,"Ġentered":6289,"([":6290,"ĠGR":6291,"ĠEven":6292,"Ġimprove":6293,"logical":6294,"range":6295,"apped":6296,"DBus":6297,"Ġprior":6298,"Ġisol":6299,"ups":6300,"*)":6301,"<<":6302,"Ġ---------":6303,"global":6304,"paces":6305,"Ġpreced":6306,"Ġslightly":6307,"EXEC":6308,"deny":6309,"Total":6310,"ĠPi":6311,"ONLY":6312,"enkins":6313,"ufw":6314,"Ġtargets":6315,"ĠKB":6316,"Ġaes":6317,"Ġns":6318,"declare":6319,"ĠMemory":6320,"console":6321,"Ġ52":6322,"Ġ>=":6323,"ĠAss":6324,"Ġdifferences":6325,"rub":6326,"Ġspecification":6327,"Ġrpc":6328,"gpg":6329,"irc":6330,"possible":6331,"Ġbuffers":6332,"ĠNew":6333,"Ġputting":6334,"Script":6335,"124":6336,"Ġbring":6337,"Bus":6338,"ĠPre":6339,"latest":6340,"Ġstable":6341,"Ġperman":6342,"krb":6343,"2001":6344,"istry":6345,"dist":6346,"ledge":6347,"ĠFiles":6348,"Ġanal":6349,"unit":6350,"Ġunexpected":6351,"masq":6352,"roy":6353,"OPT":6354,"ĠSER":6355,"Ġrespectively":6356,"ĠMO":6357,"Kernel":6358,"Ġ78":6359,"Ġblack":6360,"ecot":6361,"written":6362,"Ġslot":6363,"Ġ92":6364,"OO":6365,"ĠSc":6366,"Last":6367,"success":6368,"Ġarea":6369,"Ġpermitted":6370,"Ġsaying":6371,"Ġentering":6372,"xd":6373,"Ġremotely":6374,":-":6375,"nvme":6376,"ĠSHA":6377,"IRC":6378,"ĠOnce":6379,"TYPE":6380,"Ġchown":6381,"ĠInstall":6382,"âĶĢâĶĢâĶĢâĶĢâĶĢâĶĢâĶĢâĶĢâĶĢâĶĢâĶĢâĶĢâĶĢâĶĢâĶĢâĶĢâĶĢâĶĢâĶĢâĶĢâĶĢâĶĢâĶĢâĶĢâĶĢâĶĢâĶĢâĶĢâĶĢâĶĢâĶĢâĶĢâĶĢâĶĢâĶĢâĶĢâĶĢâĶĢâĶĢâĶĢâĶĢâĶĢâĶĢâĶĢâĶĢâĶĢâĶĢâĶĢâĶĢâĶĢâĶĢâĶĢâĶĢâĶĢâĶĢâĶĢâĶĢâĶĢâĶĢâĶĢâĶĢâĶĢâĶĢâĶĢâĶĢâĶĢâĶĢâĶĢâĶĢâĶĢâĶĢâĶĢâĶĢâĶĢâĶĢâĶĢâĶĢâĶĢâĶĢâĶĢ":6383,"New":6384,"BB":6385,"Ġmajor":6386,"iven":6387,"servers":6388,"WORD":6389,"asing":6390,"Ġplain":6391,"bes":6392,"\":\"":6393,"argv":6394,"Ġtransport":6395,"Ġgreater":6396,"xm":6397,"Limit":6398,"ĠNext":6399,"ĠMod":6400,"Ġdirection":6401,"ĠLTS":6402,"iddle":6403,"180":6404,"drop":6405,"Ġdst":6406,"agrant":6407,"Ġexecutes":6408,"pad":6409,"atal":6410,"ness":6411,"ĠManager":6412,"Ġnc":6413,"enp":6414,"Ġbond":6415,"ĠMax":6416,"proto":6417,"Ġinteresting":6418,"aceroute":6419,"ĠFS":6420,"Ġsufficient":6421,"iph":6422,"*\"":6423,"Ġram":6424,"202":6425,"Ġlatter":6426,"/%":6427,"ĠSSE":6428,"Ġ49":6429,"Ġtwice":6430,"Ġ8080":6431,"ĠHD":6432,"Ġ66":6433,"TML":6434,"ARK":6435,"does":6436,"Ġforwarded":6437,"126":6438,"updates":6439,"ĠĠĠĠĠĠĠĠĠĠĠĠĠĠĠĠĠĠĠĠĠĠĠĠĠĠĠ":6440,"shm":6441,"ĠFun":6442,"nder":6443,"Ġwrapper":6444,"Module":6445,"ĠIgnored":6446,"td":6447,"Ġpasswd":6448,"ĠNumber":6449,"Ġata":6450,"ĉĉĉĉĉĉĉĉ":6451,"Ġcollect":6452,"ĠĠĠĠĠčĊ":6453,"576":6454,"Ġbrid":6455,"super":6456,"Ġduplicate":6457,"Ġqueries":6458,"ĠBSD":6459,"177":6460,"Ġmarked":6461,"BASH":6462,"Ġsignature":6463,"Ġpatterns":6464,"dependent":6465,"stricted":6466,"ĠRUNNING":6467,"Ġgrow":6468,"ega":6469,"Ġmerge":6470,"second":6471,"Sector":6472,"akes":6473,"Ġtelnet":6474,"message":6475,"ĠCH":6476,"Ġchecksum":6477,"\").":6478,"AES":6479,"river":6480,"Ġattach":6481,"otify":6482,"LES":6483,"Ġproduce":6484,"Ġshift":6485,"stderr":6486,"sider":6487,"wlan":6488,"Ġvers":6489,"Ġ74":6490,"ADD":6491,"Ġtape":6492,"Ġvs":6493,"Ġredirection":6494,"Ġturns":6495,"Ġhandled":6496,"ĠOtherwise":6497,"Ġresearch":6498,"ITY":6499,"ĠProxy":6500,"Ġcomplicated":6501,"Ġbalanc":6502,"Ġconnectivity":6503,"mpeg":6504,"SERVICE":6505,"Ġplaced":6506,"ENV":6507,"ĠRequest":6508,"Down":6509,"Ġreadable":6510,"MAX":6511,"/>":6512,"Ġeveryone":6513,"ĠAre":6514,"Ġsizes":6515,"Ġxxx":6516,"ĠStatus":6517,"ĠCall":6518,"152":6519,"Ġsmtp":6520,"efi":6521,"SB":6522,"wget":6523,"CA":6524,"PA":6525,"lrwxrwxrwx":6526,"Ġvg":6527,"294":6528,"ĠFreeBSD":6529,"will":6530,"stable":6531,"Ġ46":6532,"CG":6533,"ulated":6534,"Ġblank":6535,"Ġadds":6536,"Ġregistered":6537,"Ġfetch":6538,"Ġodd":6539,"itionally":6540,"0001":6541,"Ġ42":6542,"Ġtroubleshoot":6543,"Ġack":6544,"Ġsafety":6545,"ĠNone":6546,"ROUP":6547,"IM":6548,"Ġsupp":6549,"IPT":6550,"Size":6551,"Admin":6552,"Ġcompleted":6553,"Man":6554,"uk":6555,"Ġcommunicate":6556,"::/":6557,"Ġmix":6558,"Ġtook":6559,"Ġsecondary":6560,"Control":6561,"NULL":6562,"ĠRunning":6563,"Ġmapped":6564,"Ġstops":6565,"];":6566,"Ġldap":6567,"utdown":6568,"ĠCL":6569,"[[:":6570,"cur":6571,"aneous":6572,"TTY":6573,"atives":6574,"ssapi":6575,"orry":6576,"Ġ70":6577,"Ġleading":6578,"ĠThread":6579,"grad":6580,"reme":6581,"download":6582,"SPLAY":6583,"Ġwarnings":6584,"bro":6585,"]'":6586,"2012":6587,"accept":6588,"align":6589,"Ġforget":6590,"fresh":6591,"ĠAdmin":6592,"Ġsubject":6593,"OPTIONS":6594,"164":6595,"ĠMost":6596,"Ġconfiguring":6597,"Ġopenvpn":6598,"ĠLEN":6599,"Ġresolved":6600,"Ġindeed":6601,"selves":6602,"Ġsaw":6603,"Ġautomatic":6604,"length":6605,"Ġveth":6606,"Ġtyping":6607,"Ġ##":6608,"ectl":6609,"1500":6610,"ements":6611,"Ġreceiving":6612,"Ġcapability":6613,"PF":6614,"ĠSFTP":6615,"Ġhint":6616,"Ġpiec":6617,"ĠInstead":6618,"Ġopening":6619,"openssl":6620,"Ġsuperblock":6621,"Ġ=~":6622,"netstat":6623,"EXIT":6624,"ĠTrying":6625,"Ġreduce":6626,"136":6627,"Ġauthorized":6628,"Ġvisible":6629,"pipe":6630,"Ġruntime":6631,"hi":6632,"restore":6633,"Ġfam":6634,"vs":6635,"Ġdaily":6636,"KEYS":6637,"mar":6638,"ape":6639,"types":6640,"Perm":6641,"QUEST":6642,"ĠMint":6643,"Ġdecided":6644,"Ġsens":6645,"lookup":6646,"postgres":6647,"keygen":6648,"Ġlose":6649,"mo":6650,"inger":6651,"PY":6652,"etooth":6653,"Ġexclude":6654,"hw":6655,"Ġpay":6656,"quash":6657,"compress":6658,"Ġinvest":6659,"Ġregisters":6660,"SEC":6661,"mx":6662,"Ġdiagnost":6663,"field":6664,"custom":6665,"wl":6666,"ĠWi":6667,"/<":6668,"ds":6669,"Ġtoken":6670,"178":6671,"ws":6672,"ĠSolaris":6673,"resh":6674,"ĠGet":6675,"ĠâĶľâĶĢ":6676,"IPv":6677,"Ġnetns":6678,"rp":6679,"atter":6680,"Ġjoin":6681,"nss":6682,"âĶĢâĶĢâĶĢâĶĢâĶĢâĶĢâĶĢâĶĢâĶĢâĶĢâĶĢâĶĢâĶĢâĶĢâĶĢâĶĢâĶĢâĶĢâĶĢâĶĢâĶĢâĶĢâĶĢâĶĢâĶĢâĶĢâĶĢâĶĢâĶĢâĶĢâĶĢâĶĢâĶĢâĶĢâĶĢâĶĢâĶĢâĶĢâĶĢâĶĢâĶĢâĶĢâĶĢâĶĢâĶĢâĶĢâĶĢâĶĢâĶĢâĶĢâĶĢâĶĢâĶĢâĶĢâĶĢâĶĢâĶĢâĶĢâĶĢâĶĢâĶĢâĶĢâĶĢâĶĢâĶĢâĶĢâĶĢâĶĢâĶĢâĶĢâĶĢâĶĢâĶĢâĶĢâĶĢâĶĢâĶĢâĶĢâĶĢâĶĢâĶĢâĶĢâĶ":6683,"DROP":6684,"Ġdomains":6685,"Ġbackslash":6686,"Ġfstab":6687,"pf":6688,"ini":6689,"ĠPM":6690,"ĠCopy":6691,"Alive":6692,"ĠThu":6693,"standard":6694,"igate":6695,"tent":6696,"hci":6697,"gnome":6698,"ĠĠĠĠĠĠĠĠĠĠĠĠĠĠĠĠĠĠĠĠĠĠĠĠĠĠ":6699,"display":6700,"iliar":6701,"Ġamd":6702,"Ġmatched":6703,"CMD":6704,"Version":6705,"Ġ2000":6706,"vanced":6707,"Ġflash":6708,"TE":6709,"cing":6710,"ĠAM":6711,"Class":6712,"under":6713,"Ġeno":6714,"Ġcur":6715,"Ġinsp":6716,"random":6717,"ĠDisk":6718,"float":6719,"ĠTB":6720,"Ġstand":6721,"iver":6722,"-->":6723,"icture":6724,"ĠDell":6725,"Ġtrigger":6726,"Em":6727,"isting":6728,"Ġtc":6729,"ĠStr":6730,"Ġverbose":6731,"Ġgre":6732,"ĠUG":6733,"trap":6734,"Ġbs":6735,"ĠTotal":6736,"Desktop":6737,"ĠWed":6738,"FAILURE":6739,"iest":6740,"ĠDon":6741,"graph":6742,"ĠWrite":6743,"Ġdatabases":6744,"Ġrpm":6745,"ĠObject":6746,"ĠDOCKER":6747,"Ġconv":6748,"Ġsubnets":6749,"igabit":6750,"bits":6751,"Auth":6752,"Ġmodes":6753,"MAT":6754,"BS":6755,"shadow":6756,"248":6757,"Ġgzip":6758,"Ġdead":6759,"duced":6760,"ipped":6761,"LEQ":6762,"URL":6763,"Ġgave":6764,"Ġdpkg":6765,"ĠMY":6766,"Ġstrong":6767,"%%":6768,"More":6769,"]\"":6770,"ams":6771,"Ġexceed":6772,"hup":6773,"ĠSD":6774,"ĠMS":6775,"ĠBoth":6776,"ĉĉĉĠ":6777,"including":6778,"WRITE":6779,"ĠSE":6780,"ĠCre":6781,"CD":6782,"ubernet":6783,"UNT":6784,"Ġwarn":6785,"VirtualHost":6786,"Ġunderlying":6787,"Ġlack":6788,"loader":6789,"DOMAIN":6790,"Ġreplacement":6791,"'\"":6792,"Ġtransm":6793,"elow":6794,"ĠDST":6795,"ubernetes":6796,"goti":6797,"Ġ65536":6798,"conntrack":6799,"Ġcolumns":6800,"company":6801,"sas":6802,"ĠĠĠĠĠĠĠĠĠĠĠĠĠĠĠĠĠĠĠĠĠĠĠĠĠ":6803,"Ġprotocols":6804,"Ġdeprecated":6805,"ĠSim":6806,"ĠSNAT":6807,"Ġrequirement":6808,"leg":6809,"COL":6810,"ĠWhile":6811,"Ġ111":6812,"Ġnewly":6813,"Ġlisting":6814,"iple":6815,"aml":6816,"Ġthrow":6817,"Ġreadonly":6818,"Ġsmart":6819,"Ġplus":6820,"zure":6821,"Ġapps":6822,"Ġ68":6823,"Ġknowledge":6824,"vd":6825,"outing":6826,"ĠRES":6827,"Ġsubsequ":6828,"Ġwidth":6829,"ĠPart":6830,"***":6831,"Ġfinding":6832,"Ġexperiment":6833,"Failed":6834,"ĠTIME":6835,"svn":6836,"Ġleg":6837,"restart":6838,"Ġnobody":6839,"ĠVAL":6840,"Ġrestarting":6841,"aight":6842,"Ġxx":6843,"Ġinactive":6844,"XXXXXXXX":6845,"completion":6846,"Ġra":6847,"Ġprocessed":6848,"Ġdefinitely":6849,"132":6850,"Reg":6851,"Ġsuspend":6852,"hot":6853,"KS":6854,"ĠCisco":6855,"reject":6856,"listen":6857,"location":6858,"push":6859,"fdisk":6860,"xe":6861,"Ġscal":6862,"may":6863,"Ġsymlinks":6864,"plicant":6865,"next":6866,"split":6867,"Ġ10000":6868,"Ġfeed":6869,"such":6870,"Ġhidden":6871,"ĠPS":6872,"ĉĉĉĉĠĠĠĠĠĠ":6873,"Ġntp":6874,"OM":6875,"adb":6876,"Ġ<=":6877,"Ġthemselves":6878,"Ġoptimization":6879,"sr":6880,"Ġgcc":6881,"IND":6882,"Ġinterpreted":6883,"Ġdescriptors":6884,"xargs":6885,"Ġimplementations":6886,"Ġbu":6887,"NEWKEYS":6888,"ĠComp":6889,"Ġmys":6890,"tract":6891,"Count":6892,"errors":6893,"Ġlocations":6894,"=$((":6895,"Ġstraight":6896,"aks":6897,"Ġwget":6898,"Ġlets":6899,"Ġconfused":6900,"Ġkilled":6901,"Ġinvolved":6902,"ĠDocument":6903,"Ġ<<<":6904,"noexec":6905,"967":6906,"Ġ''":6907,"]/":6908,"Ġmodem":6909,"fish":6910,"Only":6911,"Ġsnapshots":6912,"ithmet":6913,"ĠPV":6914,"Ġ98":6915,"pha":6916,"viously":6917,"Ġtalking":6918,"Ġvim":6919,"Ġpermit":6920,"ometimes":6921,"there":6922,"ormally":6923,"Ġcores":6924,"ĠEND":6925,"Ġoccurred":6926,"Ġrouted":6927,"ĠAlways":6928,"Have":6929,"ĠList":6930,"Tue":6931,"software":6932,"ĠEOF":6933,"visor":6934,"locale":6935,"Ġincremental":6936,"umb":6937,"Ġgeneration":6938,"tt":6939,"ierarch":6940,"Ġscheduling":6941,"IB":6942,"Ġhandler":6943,"Ġnotification":6944,"also":6945,"ĠPROT":6946,"Ġdistros":6947,"Ġadvantage":6948,"au":6949,"aves":6950,"Ġhmac":6951,"Ġpersistent":6952,"Ġgone":6953,"LA":6954,"Ġcompressed":6955,"Go":6956,"Ġestablish":6957,"Sim":6958,"ĠNTFS":6959,"Ġtrailing":6960,"():":6961,"wifi":6962,"Ġlanguages":6963,"crt":6964,"Ġcaching":6965,"Pack":6966,"Ġreached":6967,"Ġsuppress":6968,"branch":6969,"iphers":6970,"verify":6971,"ugg":6972,"Ġupstream":6973,"Ġ[--":6974,"uuid":6975,"Filesystem":6976,"ynamically":6977,"RDONLY":6978,"Ġ'.":6979,"188":6980,"Ġminimal":6981,"scale":6982,"Ġreplacing":6983,"ĠSRC":6984,"trust":6985,"Result":6986,"urst":6987,"ROOT":6988,"email":6989,"Ġlevels":6990,"ĠBecause":6991,"channel":6992,"253":6993,"CONT":6994,"Mem":6995,"zlib":6996,"rit":6997,"erring":6998,"Ġmembers":6999,"son":7000,"Assuming":7001,"Ġconsum":7002,"riend":7003,"Ġwildcard":7004,"Ġ58":7005,"Ġsuggestion":7006,"ollow":7007,"sport":7008,"unity":7009,"Ġserve":7010,"eel":7011,"vi":7012,"iny":7013,"Ġwants":7014,"ulner":7015,"dog":7016,"Ġprogress":7017,"Ġkeyword":7018,"ĠESX":7019,"EFI":7020,"cnt":7021,"ĠDomain":7022,"ĠCentos":7023,"/{":7024,"Ġhandles":7025,"ISO":7026,"cfour":7027,"Ġapparently":7028,"ĠStop":7029,"Ġreliable":7030,"Ġ253":7031,"Ġfit":7032,"land":7033,"opts":7034,"DEBUG":7035,"ĠAmazon":7036,"Ġmonths":7037,"FOR":7038,"verbose":7039,"Ġdisabling":7040,"daily":7041,"application":7042,"VATE":7043,"sure":7044,"Ġconcept":7045,"ĠCLI":7046,"Ġprinting":7047,"ocat":7048,"();":7049,"Ġfamily":7050,"147":7051,"PER":7052,"rece":7053,"uto":7054,"vidia":7055,"âĶĶ":7056,"append":7057,"Ġ....":7058,"exchange":7059,"timer":7060,"eless":7061,"Ġworkstation":7062,"ĠMaybe":7063,"Ġefficient":7064,"report":7065,"abi":7066,"ĠCMD":7067,"Ġsomewhat":7068,"Ġdownloaded":7069,"messages":7070,"FORWARD":7071,"wire":7072,"\\)":7073,"CS":7074,"anit":7075,"Ġstyle":7076,"Ġrespond":7077,"Ġregarding":7078,"ithmetic":7079,"UU":7080,"commit":7081,"Ġadapt":7082,"Ġquoted":7083,"Ġaux":7084,"119":7085,"Ġauthenticate":7086,"Ġallocation":7087,"Copy":7088,"Ġtrap":7089,"Ġsymbols":7090,"nr":7091,"Ġcontact":7092,"arge":7093,"PG":7094,"CCESS":7095,"ops":7096,"Ġcertainly":7097,"aches":7098,"208":7099,".:":7100,"Ġpse":7101,"ai":7102,"nam":7103,"ĠKVM":7104,"icial":7105,"Ġkeeping":7106,"who":7107,"slice":7108,"Ġimpossible":7109,"Ġdecide":7110,"Ġplaces":7111,"Ġsoft":7112,"Ġtyped":7113,"gb":7114,"Ġmed":7115,"Dep":7116,"ctstate":7117,"ĠGRUB":7118,"ĠLike":7119,"odb":7120,"xf":7121,"...\"":7122,"owner":7123,"POST":7124,"ising":7125,"Ġsequences":7126,"8000":7127,"ksh":7128,"Ġ'[":7129,"ĠWork":7130,"note":7131,"ĠCOMMAND":7132,"134":7133,"Ġsubdirectories":7134,"Ġpaste":7135,"ĠIdent":7136,"Finally":7137,"Ġdeleting":7138,"Ġmysqld":7139,"has":7140,"295":7141,"Ġencoding":7142,"-*":7143,"pwd":7144,"always":7145,"Ġdel":7146,"Ġworker":7147,"found":7148,"Ġnetstat":7149,"ptions":7150,"COM":7151,"Ġdf":7152,"omed":7153,"Ġstates":7154,"Ġidle":7155,"ipp":7156,"Ġtom":7157,"ĠCore":7158,"Ġ'^":7159,"Ġ47":7160,"Ġrelay":7161,"LF":7162,"NECT":7163,"Web":7164,"ĠMain":7165,"199":7166,"Ġerrno":7167,"Docker":7168,"prov":7169,"139":7170,"Ġcomparis":7171,"localdomain":7172,"Ġargs":7173,"[@]}":7174,"204":7175,"onymous":7176,"exten":7177,"ĠSMP":7178,"Ġsharing":7179,"Ġoverhead":7180,"âĶĢâĶĢâĶĢâĶĢâĶĢâĶĢâĶĢâĶĢâĶĢâĶĢâĶĢâĶĢâĶĢâĶĢâĶĢâĶ¼":7181,"ĠHWaddr":7182,"separ":7183,"TLS":7184,"scsi":7185,"Ġhello":7186,"erminal":7187,"groups":7188,"Mount":7189,"bre":7190,"elcome":7191,"Ġdetail":7192,"Ġliteral":7193,"ested":7194,"Source":7195,"ĠTO":7196,"Ġcards":7197,"ĠValue":7198,"Ġcatch":7199,"blocks":7200,"Ġ*:":7201,"Ġca":7202,"izations":7203,"checking":7204,"ctx":7205,"BUT":7206,"ĠMULTICAST":7207,"Int":7208,"dst":7209,"agment":7210,"backups":7211,"Ġexpressions":7212,"ĠJava":7213,"Ġitems":7214,"EXAMP":7215,"ĠStarted":7216,"stats":7217,"Ġphone":7218,"dn":7219,"Ġsearched":7220,"Ġinfin":7221,"Proxy":7222,"ĠALLOW":7223,"Ġcapacity":7224,"Ġ83":7225,"Ġavail":7226,"COMM":7227,"ĠSpecify":7228,"Ġsucceeds":7229,"REPLY":7230,"=,":7231,"137":7232,"sudoers":7233,"Ġeasiest":7234,"context":7235,"Ġdisplays":7236,"ulse":7237,"ĠExt":7238,"API":7239,"oper":7240,"163":7241,"child":7242,"Ġchance":7243,"model":7244,"even":7245,"ikip":7246,"ĠPROTO":7247,"115":7248,"pic":7249,"ĠTOS":7250,"Ġ55":7251,"privile":7252,"Back":7253,"minimum":7254,"maps":7255,"itial":7256,"shopt":7257,"Ġ777":7258,"ĠTue":7259,"rivate":7260,"Ġsupplied":7261,"apps":7262,"register":7263,"><":7264,"198":7265,"Ġproperties":7266,"Hello":7267,"Login":7268,"olicies":7269,"ained":7270,"Ġpub":7271,"ASK":7272,"ĠReturn":7273,"Ġfamiliar":7274,"reshold":7275,"\"\\":7276,"Ġlogic":7277,"ameter":7278,"CR":7279,":~/":7280,"Ġtmux":7281,"driver":7282,"online":7283,"Ġiniti":7284,"Ġdiscard":7285,"ikipedia":7286,"4096":7287,"ĠExample":7288,"Both":7289,"aditional":7290,"Ġfresh":7291,"ĠReading":7292,"dot":7293,"Ġdynamically":7294,"Gener":7295,"Ġ199":7296,"short":7297,"Ġundefined":7298,"ina":7299,"Ġgl":7300,"bad":7301,"hour":7302,"ĠED":7303,"Ġeventually":7304,"router":7305,"Ġ96":7306,"tmux":7307,"ATT":7308,"Ġcursor":7309,"Ġmal":7310,"Po":7311,"Ġbacked":7312,"Ġgenerates":7313,"ELL":7314,"Ġrepositories":7315,"Ġunlike":7316,"118":7317,"Ġformatted":7318,"Ġpthread":7319,"Ġ43":7320,"Ġpointing":7321,"icmp":7322,"ortex":7323,"Ġupgraded":7324,"ĠThus":7325,"ny":7326,"Ġtold":7327,"ĠPackage":7328,"ĠSV":7329,"vlan":7330,"Ġcombined":7331,"Ġallocate":7332,"ĠENO":7333,"ĠComple":7334,"package":7335,"arcfour":7336,"ka":7337,"ĠBROADCAST":7338,"Ġlayout":7339,"wp":7340,"Ġtreat":7341,"ĠAND":7342,"135":7343,"Ġkept":7344,"KNO":7345,"Ġhence":7346,"two":7347,"According":7348,"DU":7349,"ĠCA":7350,"1111":7351,"related":7352,"456":7353,"simple":7354,"paste":7355,"ĉĉĉĉĠĠ":7356,"((":7357,"Ġinvoke":7358,"ĠAVX":7359,"Wed":7360,"nn":7361,"Ġplugged":7362,"RETURN":7363,"frame":7364,"forwarding":7365,"big":7366,"Ġspare":7367,"Units":7368,"Ġlocked":7369,"Before":7370,"]=":7371,"Ġmulticast":7372,"sftpd":7373,"spool":7374,"Ġprinter":7375,"Ġsimpler":7376,"]=\"":7377,"mss":7378,"RELAT":7379,"ĠPar":7380,"erson":7381,"Ġcifs":7382,"ĠSTAILQ":7383,"Ġactions":7384,"Ġpipeline":7385,"Ġtemporarily":7386,"Ġgenerating":7387,"PWD":7388,"unnel":7389,"atime":7390,"Ġcross":7391,"delay":7392,"113":7393,"amps":7394,"Ġtrunc":7395,"Ġwritable":7396,"ĠEnabled":7397,"redirect":7398,"roxy":7399,"icks":7400,"Ġbtrfs":7401,"ntp":7402,"serv":7403,"Ġct":7404,"Ġinherit":7405,"Ġstrict":7406,"HER":7407,"sign":7408,"apd":7409,"117":7410,"Ġhosted":7411,"XY":7412,"Ġban":7413,"ĠERROR":7414,"wo":7415,"Ġ*)":7416,"worker":7417,"Ġdeclare":7418,"Ġffff":7419,"Ġoct":7420,"ĠĠĠĠĠĠĠĠĠĠĠĠĠĠĠĠĠĠĠĠĠĠĠĠĠĠĠĠĠĠ":7421,"Ġalign":7422,"/,":7423,"should":7424,"Ġcertificates":7425,"BC":7426,"Ġ2010":7427,"bler":7428,"rip":7429,"ĠDC":7430,"optimal":7431,"Over":7432,"VD":7433,"orn":7434,"Ġdont":7435,"ĠMachine":7436,"ĠOP":7437,"redhat":7438,"monitor":7439,"Am":7440,"because":7441,"Ġpossibility":7442,"title":7443,"othing":7444,"Ġmanip":7445,"Ġterminated":7446,"essage":7447,"Ġupper":7448,"Ġinitrd":7449,"dict":7450,"alth":7451,"Ġpointers":7452,"Active":7453,"ĠFirst":7454,"REG":7455,"initial":7456,"via":7457,"Ġtitle":7458,"ptr":7459,"Ġcirc":7460,"ĠABI":7461,"Ġbatch":7462,"activ":7463,"Ġdocumented":7464,"Sup":7465,"Ġunreachable":7466,"arp":7467,"Ġkernels":7468,"Ġscheme":7469,"Changed":7470,"Val":7471,"ï¿":7472,"Comp":7473,"NFS":7474,"Ġ2009":7475,"Err":7476,"Ġactivity":7477,"Ġumask":7478,"Ġoverwrite":7479,"Ġbool":7480,"Ġremoves":7481,"ANDARD":7482,"Ġwonder":7483,"Unfortunately":7484,"Ġconditions":7485,"ĠVirtualBox":7486,"KNOWN":7487,"ĠRFC":7488,"kb":7489,"176":7490,"Ġswitching":7491,"ĠCPUs":7492,"Ġgreatly":7493,"Ġnecessarily":7494,"Swap":7495,"ko":7496,"ĠÂ":7497,"ĠRET":7498,"Ġ72":7499,"(\"%":7500,"ĠâĶľâĶĢâĶĢ":7501,"ulator":7502,"Ġfastcgi":7503,":*.":7504,"Ġbutton":7505,"Ġdial":7506,"Ġ75":7507,"Ġoffline":7508,"Ġsat":7509,"Ġthanks":7510,"DEVICE":7511,"UM":7512,"reload":7513,"mmc":7514,"ula":7515,"Ġdigits":7516,"Ġbacking":7517,"COPY":7518,"Ġpersonal":7519,"-)":7520,"Ġrid":7521,"ERR":7522,"133":7523,"served":7524,"Ġproduces":7525,"supplicant":7526,"pip":7527,"anon":7528,"\\(":7529,"RST":7530,"PAM":7531,"alive":7532,"Ġ'-":7533,"ĠInc":7534,"FIX":7535,"inode":7536,"Step":7537,"Arch":7538,"196":7539,"vfs":7540,"video":7541,"Ġvulner":7542,"claim":7543,"nameserver":7544,"Ġaffected":7545,"eature":7546,"Ġfigured":7547,"RELATED":7548,"dbus":7549,"eek":7550,"rate":7551,"2048":7552,"Ġtransf":7553,"frast":7554,"links":7555,"ructure":7556,"Ġfac":7557,"aking":7558,"offset":7559,"Ġassignment":7560,"Ġmagic":7561,"stdin":7562,"RAN":7563,"uni":7564,"uname":7565,"changed":7566,"ĠRPM":7567,"234":7568,"myuser":7569,"Ġencountered":7570,"Bash":7571,"DSA":7572,"BEGIN":7573,"ypi":7574,"Ġcomponents":7575,"Ġbypass":7576,"Ġopens":7577,"!)":7578,"Ġcheap":7579,"anger":7580,"ï¿½":7581,"CI":7582,"Ġfdisk":7583,"ĠCR":7584,"Ġdetailed":7585,"Ġemails":7586,"xyz":7587,"DEFAULT":7588,"dmesg":7589,"Ġinterpret":7590,"Ġ--->":7591,"Ġpasses":7592,"TEST":7593,"serial":7594,"unlocked":7595,"ĠOld":7596,"Ġaccident":7597,"ĠACLs":7598,"CLI":7599,"Ġdash":7600,"Ġheav":7601,"Ġwa":7602,"Ġsignals":7603,"ĠAS":7604,"allen":7605,"ĠVALUE":7606,"Ġconversion":7607,"Ġspawn":7608,"Change":7609,"ucket":7610,"Ġcentral":7611,"frastructure":7612,"grp":7613,"dl":7614,"na":7615,"ĠWarn":7616,"170":7617,"Bytes":7618,"ĠREAD":7619,"Ġimpact":7620,"ĠInvalid":7621,"need":7622,"TRY":7623,"Ġended":7624,"Environment":7625,"Ġutilities":7626,"Full":7627,"116":7628,"normal":7629,"Ġksh":7630,"Ġeffectively":7631,">:":7632,"Ġ144":7633,"Ġboxes":7634,"HISTORY":7635,"Starting":7636,"Ġcomponent":7637,"essie":7638,"Request":7639,"ffice":7640,"myp":7641,"gcm":7642,"STR":7643,"shutdown":7644,"Ġsuppose":7645,"*'":7646,"CM":7647,"windows":7648,"Forwarding":7649,"Basically":7650,"Ġdelimit":7651,"puter":7652,"COMP":7653,"Ġinitialized":7654,"}\\":7655,"Thu":7656,"HostKey":7657,"End":7658,"Ġ327":7659,"tenance":7660,"SOCK":7661,"Ġcomplain":7662,"249":7663,"ptime":7664,"STANDARD":7665,"Ġthroughput":7666,"Ġenum":7667,"Ġ802":7668,"Ġupdating":7669,"Ġtreated":7670,"Ġextreme":7671,"clear":7672,"=%":7673,"Ġla":7674,"ĠKerberos":7675,"Second":7676,"Ġdem":7677,"ĠLibrary":7678,"Ġquoting":7679,"Ġcodes":7680,"INE":7681,"Ġ},":7682,"9999":7683,"114":7684,"Most":7685,".],":7686,"ĠLook":7687,"ftpd":7688,"Hope":7689,"drwx":7690,"omic":7691,"istic":7692,"Checking":7693,"BLOCK":7694,"Ġproceed":7695,"ĠRT":7696,"Gu":7697,"HD":7698,"Ġrestricted":7699,"item":7700,"Ġbook":7701,"Ġconven":7702,"ĠGu":7703,"Ġsections":7704,"Ġdifferently":7705,"pw":7706,"ĠACK":7707,"Signal":7708,"Ġpod":7709,"digit":7710,"ni":7711,"Ġarithmetic":7712,"blog":7713,"flush":7714,"cifs":7715,"wpa":7716,"environment":7717,"Ġclar":7718,"ctrl":7719,"SUCCESS":7720,"Sol":7721,"cell":7722,"138":7723,"ierarchy":7724,"Boot":7725,"oving":7726,"aliases":7727,"ĠLoaded":7728,"ĠCIRC":7729,"oolean":7730,"ĠUnit":7731,"ĠATTRS":7732,"wc":7733,"ACT":7734,"ception":7735,"LOCAL":7736,"Ġgnome":7737,"232":7738,"Current":7739,"ĠGPT":7740,"zy":7741,"als":7742,"Ġslash":7743,"allenge":7744,"ĠConfiguration":7745,"210":7746,"Agent":7747,"Because":7748,"ĠAuth":7749,"logging":7750,"Ġdescribe":7751,"ĠFri":7752,"Alternatively":7753,"Ġslave":7754,"Post":7755,"compatible":7756,"mic":7757,"Ġ69":7758,"Ġecr":7759,"arse":7760,"ĠASC":7761,"dirs":7762,"Domain":7763,"Ġteam":7764,"ingerprint":7765,"Ġrepeat":7766,"don":7767,"Ġalter":7768,"Ġ404":7769,"¼âĶĢâĶĢâĶĢâĶĢâĶĢâĶĢâĶĢâĶĢâĶĢâĶĢâĶĢâĶĢâĶĢâĶĢâĶĢâĶ¼":7770,"Ġwar":7771,"âĸĴ":7772,"ĠEXT":7773,"STANDARDS":7774,"task":7775,"vf":7776,"ipient":7777,"Ġwebsites":7778,"ĠNICs":7779,"/[":7780,"Ġmouse":7781,"Ġleaving":7782,"PRIVATE":7783,"abb":7784,"Ġmill":7785,"ĠMAP":7786,"Ġstores":7787,"Ġparsing":7788,"Ġprecise":7789,"Ġpotentially":7790,">\"":7791,"Write":7792,"fg":7793,"BE":7794,"ynchron":7795,"Ġfiltering":7796,"Ġrebooting":7797,"Currently":7798,"uing":7799,"Ġprotection":7800,"ĠSN":7801,"Ġworry":7802,"Ġhel":7803,"MENT":7804,"Ġcritical":7805,"AIN":7806,"both":7807,"database":7808,"Ġether":7809,"(?":7810,"Gb":7811,"Ġunused":7812,"Ġalert":7813,"ĠDisplay":7814,"Ġrepeated":7815,"onical":7816,"intel":7817,"251":7818,"203":7819,"Ġofficial":7820,"Ġsyscall":7821,"attery":7822,"mi":7823,"icating":7824,"ĠUnfortunately":7825,"190":7826,"700":7827,"erc":7828,"SCSI":7829,"Pass":7830,"Ġusable":7831,"Ġimag":7832,"umount":7833,"Destination":7834,"lets":7835,"Ġrt":7836,"0000000000000000":7837,"Ġcompilation":7838,"880":7839,"gwin":7840,"Ġdocs":7841,"DATA":7842,"Ġstructures":7843,"ha":7844,"external":7845,"WAIT":7846,"func":7847,"ĠMult":7848,"ĠHOST":7849,"iffer":7850,"Ġpoll":7851,"Ġbasis":7852,"aspberrypi":7853,"privileged":7854,"ĠÂł":7855,"âĶľâĶĢ":7856,"ung":7857,"Ġloads":7858,"move":7859,"Ġurl":7860,"lind":7861,"unknown":7862,"ĠGen":7863,"Ġprom":7864,"prt":7865,"Ġsysctl":7866,"lip":7867,"Ġcompared":7868,"Ġbenefit":7869,"ĠNS":7870,"unreachable":7871,"Ġengine":7872,"148":7873,"ĠSend":7874,"Status":7875,"installed":7876,"DHCP":7877,"Ġportable":7878,"ansible":7879,"ĠPo":7880,"166":7881,"-+":7882,"5000":7883,"Ġsees":7884,"Ġrebooted":7885,"Don":7886,"rename":7887,"Ġsubsequent":7888,"UDP":7889,"YES":7890,"gain":7891,"Ġ\\\\":7892,"UNC":7893,"ilter":7894,"===":7895,"ĠTTY":7896,"speed":7897,"skip":7898,"FLAG":7899,"Ġscripting":7900,"REQUEST":7901,"Ġslower":7902,"Ġproviding":7903,"cal":7904,"mirror":7905,"Ġdecimal":7906,"imate":7907,"ITAL":7908,"Ġdmesg":7909,"lias":7910,"ĠPE":7911,"protocol":7912,"iring":7913,"Ġsigned":7914,"Ġbusiness":7915,"Ġessentially":7916,"double":7917,"ĠWarning":7918,"ĠWARNING":7919,"Timeout":7920,"Ab":7921,"CX":7922,"ĠSMALL":7923,"devel":7924,"244":7925,"Ġsuggests":7926,"ĠPREC":7927,"WORK":7928,"2000":7929,"anging":7930,"lxc":7931,"quired":7932,"ysis":7933,"ĠâĢ¦":7934,"Ġcipher":7935,"Ġfsc":7936,"uman":7937,"768":7938,"wide":7939,"184":7940,"ĠDEBUG":7941,"Ġbinaries":7942,"Att":7943,"Instead":7944,"Ġmicro":7945,"Ġdiv":7946,"variable":7947,"ipping":7948,"une":7949,"Ġbuf":7950,"och":7951,"Ġ82":7952,"Ġenvironments":7953,"Ġabort":7954,"Property":7955,"ĠFunctions":7956,"Interval":7957,"Ġscsi":7958,"Ġgrant":7959,"Maybe":7960,"ratch":7961,"audio":7962,"strace":7963,"Ġearly":7964,"Permission":7965,"STATUS":7966,"Ġ2001":7967,"Shell":7968,"Ġcomma":7969,"Ġcaller":7970,"Ġlogins":7971,"Setting":7972,"xdr":7973,"ĠEvent":7974,"156":7975,"521":7976,"ufact":7977,"Ġnoqueue":7978,"regex":7979,"Trans":7980,"COMMIT":7981,"ĠASCII":7982,"!\"":7983,"SON":7984,"149":7985,"conn":7986,"ĠVMware":7987,"ĠUnknown":7988,"issing":7989,"212":7990,"ĠNginx":7991,"Ġ8192":7992,"Ġnewlines":7993,"Ġdefinitions":7994,"acs":7995,"Ġtypical":7996,"Ġhyper":7997,"LINK":7998,"Ġappreciate":7999,"ĠOption":8000,"Spec":8001,"yond":8002,"ros":8003,"Ġexpen":8004,"ĠOutput":8005,"follow":8006,"ĠâĨ":8007,"Cre":8008,"atory":8009,"networkd":8010,"Ġassumes":8011,"Ġbottom":8012,"ipset":8013,"Ġbooted":8014,"Ġrole":8015,"ackex":8016,"ĠWIN":8017,"Ġcontrollers":8018,"Ġflex":8019,"ĠĠĠĠĠĠĠčĊ":8020,"ardware":8021,"PL":8022,"bal":8023,"2010":8024,"libs":8025,"osen":8026,"Ġesac":8027,"ferred":8028,"initrd":8029,"ackexchange":8030,"either":8031,"Ser":8032,"cel":8033,"umask":8034,"Ġoutbound":8035,"Ġcomprom":8036,"GROUP":8037,"Ġder":8038,"Ġcapable":8039,"estamps":8040,"Ġclearly":8041,"Ġdevelopers":8042,"Ġsour":8043,"ĠĠĠĠĠĠĠĠĠĠĠĠĠĠĠĠĠĠĠĠĠĠĠĠĠĠĠĠ":8044,"195":8045,"Ġsplitting":8046,"ĠScope":8047,"TW":8048,"206":8049,"153":8050,"ami":8051,"ĠOperation":8052,"1305":8053,"clock":8054,"003":8055,"ĠRaspberry":8056,"Ġrelatively":8057,"Ġresize":8058,"ĠGn":8059,"ĠWhich":8060,"Ġrecognized":8061,"PING":8062,"signal":8063,"Ġshall":8064,"ĠAzure":8065,"Date":8066,"NEL":8067,"['":8068,"pag":8069,"Ġremount":8070,"Ġpercent":8071,"rule":8072,"?\"":8073,"DN":8074,"Ġaudio":8075,"ĠPl":8076,"Ġ51":8077,"clus":8078,"ĠSCSI":8079,"Ġmiddle":8080,"143":8081,"ĠTherefore":8082,"uses":8083,"pu":8084,"backend":8085,"Ġfsck":8086,"ĠPh":8087,"Ġloops":8088,"Program":8089,"prompt":8090,"ĠCannot":8091,"notify":8092,"ĠAnywhere":8093,"Ġdeclared":8094,"website":8095,"ĠSMTP":8096,"ran":8097,"Ġlan":8098,"ĠGET":8099,"Ġnamespaces":8100,"âĢĶ":8101,"Ġ16384":8102,"Ġfailures":8103,"kvm":8104,"Ġpotential":8105,"ĠSwitch":8106,"ĠOf":8107,"Ġinspect":8108,"DG":8109,"Warning":8110,"Ġrely":8111,"ĠHTML":8112,"Ġseries":8113,"Hat":8114,"++++":8115,"pv":8116,"Ġ'*.":8117,"Ġamong":8118,"Ġdual":8119,"Ġrepro":8120,"params":8121,"bine":8122,"Ġ\"[":8123,"ĠHTTPS":8124,"Ġschedule":8125,"Ġcomparison":8126,"$/":8127,"ĠRouter":8128,"Ġcronjob":8129,"Ġterminate":8130,"Act":8131,"ĠĠĠĠĠĠĠĠĠĠĠĠĠĠĠĠĠĠĠĠĠĠĠĠĠĠĠĠĠ":8132,"malloc":8133,"167":8134,"Rep":8135,"era":8136,"Ġdh":8137,"Ġconsistent":8138,"headers":8139,"FP":8140,"Ġgraphical":8141,"Even":8142,"245":8143,"tomcat":8144,"ĠSecurity":8145,"Ġdou":8146,"Ġpci":8147,"ADDRESS":8148,"Ġsaving":8149,"2011":8150,"retch":8151,")).":8152,"sde":8153,"Ġreceives":8154,"Interface":8155,"ĠEnterprise":8156,"Ġnegative":8157,"Ġhighly":8158,"eared":8159,"Ġdeclar":8160,"bs":8161,"inary":8162,"isks":8163,"ulimit":8164,"Ġmm":8165,"Ġbeyond":8166,"chr":8167,"lsof":8168,"processor":8169,"\\[\\":8170,"Ġlos":8171,"Ġ400":8172,"autom":8173,"sof":8174,"Ġ800":8175,"journalctl":8176,"ĠCAPITAL":8177,"Ġenabling":8178,"Ġpref":8179,"Ġletter":8180,"ums":8181,"Ġgain":8182,"ABEL":8183,"ĠUTF":8184,"ĠRETURN":8185,"clone":8186,"Ġdisconnected":8187,"Ġvirbr":8188,"Ġlearning":8189,"Ġ250":8190,"162":8191,"ĠPut":8192,"Ġing":8193,"configuration":8194,"Ok":8195,"Ġsil":8196,"DIS":8197,"Ã©":8198,"star":8199,"Ġmacros":8200,"ĠProtocol":8201,"Ġalt":8202,"ĠSoftware":8203,"Ġmodifying":8204,"ookie":8205,"firmware":8206,"ĠWill":8207,"sasl":8208,"gssapi":8209,"193":8210,"------------------------":8211,"Keep":8212,"Ġrx":8213,"Ġcontrols":8214,"NN":8215,"ĠLet":8216,"Ġmanpage":8217,"Ġredirected":8218,"Image":8219,"Ġfinds":8220,"Ġbrowse":8221,"microsoft":8222,"Ġseparator":8223,"SUB":8224,"Ġll":8225,"ponse":8226,"Ġsa":8227,"Ġretrieve":8228,"basename":8229,"fuse":8230,"ĠĠĠĠĠĠčĊ":8231,"Ġperforms":8232,"ILL":8233,"(&":8234,"_*":8235,"AAA":8236,"mtime":8237,"yml":8238,"ĠSource":8239,"Ġendpoint":8240,"ĠDev":8241,"parted":8242,"----------------------------------------------------------------":8243,"ĠUpdate":8244,"154":8245,"OPBACK":8246,"ABLES":8247,"etcat":8248,"window":8249,"ytes":8250,"Ġalone":8251,"eys":8252,"Ġ89":8253,"ĠHyper":8254,"187":8255,"sender":8256,"Ġalgorithms":8257,"Well":8258,"Ġspeak":8259,"Ġsudoers":8260,"Ġnameserver":8261,"Ġexported":8262,"tune":8263,"Press":8264,"answer":8265,"ĠOSSL":8266,"extra":8267,"209":8268,"++)":8269,"Documents":8270,"mmap":8271,"ĠComm":8272,"ĠPerm":8273,"ĠIDs":8274,"ĠDesktop":8275,"ĠOR":8276,"157":8277,"modprobe":8278,"Ġhappy":8279,"Ġprevents":8280,"ĠCtrl":8281,"Ġtransferred":8282,"FD":8283,"âĹ":8284,"Ġinodes":8285,"Ġcontained":8286,"writing":8287,"Ġdummy":8288,"Ġcylind":8289,"Ġinfrastructure":8290,"...,":8291,"quoted":8292,"ĠCap":8293,"Ġinstaller":8294,"Ware":8295,"Ġposted":8296,"Ġdetermined":8297,"instance":8298,"snd":8299,"RIBUT":8300,"publickey":8301,"ĠOracle":8302,"uz":8303,"ĠWiFi":8304,"[...]":8305,"Ġpat":8306,"erg":8307,"specified":8308,"Ġmedium":8309,"Ġattacks":8310,"Ġboard":8311,"294967":8312,"SR":8313,"ACH":8314,"Ġperforming":8315,"Reading":8316,"LL":8317,"functions":8318,"ultaneous":8319,"cons":8320,"MEM":8321,"777":8322,"stackoverflow":8323,"errno":8324,"TRL":8325,"Ġ77":8326,"226":8327,"Ġsendmail":8328,"IPS":8329,"Ġconsist":8330,"%,":8331,"rsyslog":8332,"********************************":8333,"bz":8334,"Ġpreset":8335,"guest":8336,"utable":8337,"ĠMHz":8338,"Ġumount":8339,"146":8340,"Ġexplained":8341,"Ġrestrictions":8342,"NetworkManager":8343,"Ġchunk":8344,"131":8345,"Ġremains":8346,"Ġmir":8347,"ĠObjective":8348,"failed":8349,"Ġdisapp":8350,"KEXINIT":8351,"Ġ2003":8352,"121":8353,"Ġchosen":8354,"ĠMounted":8355,"Ġreasonable":8356,"hda":8357,"=\\":8358,"xb":8359,"ĠAdvanced":8360,"|--":8361,"ĠMA":8362,"Permit":8363,"progress":8364,"pite":8365,"tainer":8366,"XDR":8367,"cond":8368,"Ġelim":8369,"maxdepth":8370,"SYSTEM":8371,"Firewall":8372,"GT":8373,"207":8374,"217":8375,"TERN":8376,"Ġ41":8377,"Ġoverrid":8378,"Ġdiscovered":8379,"unsigned":8380,"therm":8381,"Ġpreserve":8382,"Ġ73":8383,"Ġaccepts":8384,"Ġrefers":8385,"ĠUsers":8386,"rtl":8387,"ays":8388,"quer":8389,"ĠPassword":8390,"ĠFull":8391,"189":8392,"Ġsucceeded":8393,"________________":8394,"Event":8395,"igning":8396,"Ġvary":8397,"Ġ57":8398,"reply":8399,"Ġproperty":8400,"ĠAuthentications":8401,"ĠXen":8402,"Ġcompiling":8403,"Ġhangs":8404,"\"}":8405,"ograph":8406,"LV":8407,"anic":8408,"Ġintern":8409,"789":8410,"Core":8411,"upgrade":8412,"Pl":8413,"Info":8414,"Ġsubsystem":8415,"ĠSIZE":8416,"EMD":8417,"drwxrwx":8418,"INVAL":8419,"/${":8420,"LIC":8421,"ĠCONFIG":8422,"DEN":8423,"ecdh":8424,"004":8425,"Ġdefines":8426,"80211":8427,"Ġ95":8428,"Ġmonit":8429,"parts":8430,"ĠNode":8431,"Ġdisables":8432,"Ġreturning":8433,"Ġweeks":8434,"ĠManagement":8435,"compute":8436,"Ġprogramming":8437,")]":8438,"images":8439,"ected":8440,"Ġshadow":8441,"ĠStorage":8442,"Ġinteract":8443,"Ġscheduled":8444,"HT":8445,"dom":8446,"single":8447,"Ġ134":8448,"noDB":8449,"186":8450,"ĠUNKNOWN":8451,"ĠSuper":8452,"ĠESXi":8453,"stood":8454,"ĉĉĉĠĠĠ":8455,"blah":8456,"CRE":8457,"rele":8458,"generator":8459,"Trying":8460,"necess":8461,"tee":8462,"Ġrd":8463,"ĠRED":8464,"Ġformats":8465,"Ġabsolutely":8466,"Ġcorrupted":8467,"times":8468,"ĠDirect":8469,"notice":8470,"ĠExp":8471,"]{":8472,"fdump":8473,"Ġimplies":8474,"Ġrare":8475,"ĠSP":8476,"173":8477,"Ġrecursively":8478,"Ġpiece":8479,"Par":8480,"ĠLen":8481,"ovecot":8482,"cred":8483,"ĠShould":8484,"Ġwlp":8485,"ĠShell":8486,"Ġnumeric":8487,"seconds":8488,"216":8489,"Ġphys":8490,"urious":8491,"'/>":8492,"vnc":8493,"Ġtick":8494,"ĠTH":8495,"poll":8496,"Ġbrack":8497,"encing":8498,"Exit":8499,"compil":8500,"BM":8501,"ĠTrue":8502,"SERT":8503,"journald":8504,"480":8505,"rand":8506,"SHELL":8507,"227":8508,"Ġinitialization":8509,"ĠSetting":8510,"/;":8511,"platform":8512,"ĠDisable":8513,"partition":8514,"izer":8515,"testing":8516,"ĠCompleted":8517,"mart":8518,"irq":8519,"ĠDepend":8520,"np":8521,"reset":8522,"Ġdeliver":8523,"Ġmistake":8524,"va":8525,"ĠCurrently":8526,"ĠDR":8527,"Ġcontr":8528,"Ġcareful":8529,"ĠExecStart":8530,"ĠCloud":8531,"Hand":8532,"Ph":8533,"Ġtraditional":8534,"SYS":8535,"Ġtopic":8536,"Ġsnipp":8537,"PKEY":8538,"ĠDPT":8539,"Problem":8540,"mediate":8541,"âĶĶâĶĢ":8542,"@.":8543,"Ġdirectives":8544,"Ġsimultaneous":8545,"rl":8546,"Ġanybody":8547,"Ġstats":8548,"Ġhoping":8549,"ii":8550,"replace":8551,"amazon":8552,"cluded":8553,"Usage":8554,"ĉĉĉĉĉĠĠĠĠĠ":8555,"Ġdiagnostic":8556,"through":8557,"ĠXP":8558,"Ġsi":8559,"They":8560,"NOTE":8561,"acter":8562,"Ġ700":8563,"Ġsudden":8564,"ĠIT":8565,"ĠMore":8566,"filesystem":8567,"Ġbigger":8568,"spawn":8569,"ĠSPT":8570,"eu":8571,"squash":8572,"SSION":8573,"engine":8574,"Ġattempted":8575,"Ġfacing":8576,"Ġstatements":8577,"ifiers":8578,"%.":8579,"Ġfriend":8580,"mcli":8581,"precision":8582,"Ġpure":8583,"Ġgw":8584,"Ġnotes":8585,":(":8586,"155":8587,"oved":8588,"Sun":8589,"BOOT":8590,"145":8591,"Ġrewrite":8592,"ĠDriver":8593,"Ġhi":8594,"165":8595,"ĠFeature":8596,"142":8597,"Emits":8598,"same":8599,"deploy":8600,"ĠVolume":8601,"ChangedSignal":8602,"EmitsChangedSignal":8603,"Safe":8604,"Ġdepth":8605,"poly":8606,"ĠRequire":8607,"otherboard":8608,"Next":8609,"Sp":8610,"Ġpicture":8611,"'$":8612,"Ġdam":8613,"Ġdbus":8614,"Ġmine":8615,"Ġ755":8616,"185":8617,"Ġ\"-\"":8618,"utf":8619,"Ġund":8620,"Ġtotally":8621,"separated":8622,"Ġpolicies":8623,"thes":8624,"Ġasks":8625,"lvm":8626,"ĠWhere":8627,"certs":8628,"MPT":8629,"zfs":8630,"Ġconditional":8631,"Ġextremely":8632,"Ġfav":8633,"ĠOut":8634,"MAIL":8635,"Folder":8636,"ĠAcc":8637,"olumn":8638,"Ġ$((":8639,"Ġconcerned":8640,"Ġhub":8641,"stdio":8642,"Ġscheduler":8643,"ĠBefore":8644,"Fri":8645,"ĠĠĠĠĠĠĠĠčĊ":8646,"initramfs":8647,"EY":8648,"shift":8649,"00007":8650,"Ġreachable":8651,"Ġassembler":8652,"bviously":8653,"uspend":8654,"domains":8655,"ĠNTP":8656,"ĉĉĠĠĠ":8657,"360":8658,"caten":8659,"Ġlibc":8660,"undred":8661,"Ġredundancy":8662,"ael":8663,"inate":8664,"Ġrsyslog":8665,"elinux":8666,"aren":8667,"Ġ***":8668,"ffici":8669,"Ġzip":8670,"Ġlegacy":8671,"Accept":8672,"usage":8673,"Release":8674,"section":8675,"ester":8676,"Ġboots":8677,"ĠChange":8678,"high":8679,"pine":8680,"ats":8681,"Ġranges":8682,"ffort":8683,"formance":8684,"Ġchildren":8685,"Would":8686,"Ġfingerprint":8687,"INET":8688,"assuming":8689,"Ġbugs":8690,"Ġioctl":8691,"PARAM":8692,"FILES":8693,"Ġtransmitted":8694,"ĠDF":8695,"Ġdie":8696,"ĠBcast":8697,"Ġcircum":8698,"Ġhelper":8699,"-$":8700,"Ġxfs":8701,"menu":8702,"tput":8703,"enty":8704,"ĠCIRCLEQ":8705,"ufactur":8706,"ining":8707,"ises":8708,"usic":8709,"ĠMD":8710,"Ġorgan":8711,"Ġregistry":8712,"Ġreferenced":8713,"(.*":8714,"GID":8715,"noarch":8716,"Ġmountpoint":8717,"Ġresolving":8718,"plugin":8719,"PASSWORD":8720,"edu":8721,"Ġmaintenance":8722,"azy":8723,"Ġbreaks":8724,"wlwifi":8725,"Level":8726,"cn":8727,"ĠFAT":8728,"Ġedited":8729,"ĠVLANs":8730,"Ġinitramfs":8731,"Ġrecognize":8732,"SN":8733,"zen":8734,"keyboard":8735,"Ġarp":8736,"Ġet":8737,"stackexchange":8738,"ĠBad":8739,"jump":8740,"640":8741,"mgr":8742,"rx":8743,"Ġ\"<":8744,"ĠSl":8745,"ĠAvail":8746,"vt":8747,"Ġoperate":8748,"Build":8749,"Should":8750,"uetooth":8751,"unset":8752,"Ġprecision":8753,"Ġtomcat":8754,"flag":8755,"ĠFirefox":8756,"OSE":8757,"OPEN":8758,"Ġinform":8759,"205":8760,"Each":8761,"ius":8762,"Ġbehave":8763,"ĠProgram":8764,"pair":8765,"sents":8766,"ĠDestination":8767,"Ġtimestamps":8768,"Ġautomate":8769,"product":8770,"Ġinitially":8771,"SW":8772,"âĹı":8773,"uations":8774,"ĠĠĠĠĠĠĠĠĠĠĠĠĠĠĠĠĠĠĠĠĠĠĠĠĠĠĠĠĠĠĠĠĠĠĠĠĠĠĠĠĠĠĠĠĠĠĠĠĠĠĠĠĠĠĠĠĠĠĠĠĠĠĠĠĠĠĠĠĠĠĠĠĠĠĠĠĠĠĠĠĠĠĠĠĠĠĠĠĠĠĠĠĠĠĠĠ":8775,"PREROUTING":8776,"tx":8777,"Ġeg":8778,"folders":8779,"ĠSerial":8780,"Ġ61":8781,"Ġdrops":8782,"123456":8783,"Job":8784,"vml":8785,"atio":8786,"Ġvector":8787,"Ġnumer":8788,"Ġfont":8789,"Ġnight":8790,"ariadb":8791,"ENTRY":8792,"itude":8793,"uplex":8794,"undle":8795,"158":8796,"Ġopenssh":8797,"Ġhierarchy":8798,"Ġwhereas":8799,"Ġsender":8800,"tri":8801,"syn":8802,"Ġarr":8803,"Ġ76":8804,"smart":8805,"MIT":8806,"Ġcollection":8807,"Ġguessing":8808,"ASH":8809,"warning":8810,"Ġtransaction":8811,"feature":8812,"Ġbuy":8813,"ĠâĶĮ":8814,"Ġpseudo":8815,"Ġimagine":8816,"535":8817,"qemu":8818,"ĠMBR":8819,"Ġimplicit":8820,"resolved":8821,"march":8822,"acha":8823,"ĠSTD":8824,"ĠAdministr":8825,"IA":8826,"Ġargv":8827,"Ġmultiport":8828,"Ġtelling":8829,"Ġexpands":8830,"versal":8831,"213":8832,"eived":8833,"HUP":8834,"ĠINT":8835,"ĠENOENT":8836,"tld":8837,"alpha":8838,"Ġstoring":8839,"ssd":8840,"ĠCRON":8841,"lete":8842,"ripem":8843,"ĉĉĉĠĠĠĠĠĠ":8844,"ĠâĶĶâĶĢâĶĢ":8845,"builtin":8846,"ripemd":8847,"Socket":8848,"argument":8849,"avg":8850,"ARGET":8851,"ĠSERVER":8852,"CF":8853,"238":8854,"WARNING":8855,"ĠSat":8856,"Ret":8857,"\\$":8858,"another":8859,"ĠDone":8860,"161":8861,"START":8862,"Ġassumed":8863,"\"${":8864,"orter":8865,"Ġrsa":8866,"ĠLevel":8867,"ĠMARK":8868,"Ġ5000":8869,"Ġinvocation":8870,"aper":8871,"Ġdirty":8872,"ingly":8873,"IPV":8874,"Ġshowed":8875,"month":8876,"âĸĴâĸĴ":8877,"Env":8878,"Ġshortcut":8879,"Ġminor":8880,"Ġlife":8881,"Mac":8882,"174":8883,"nohup":8884,"Ġ169":8885,"Ġoriginally":8886,"icode":8887,"Ġreplication":8888,"vvv":8889,"Ġenclo":8890,"Ġactivate":8891,"Ġrevision":8892,"IEC":8893,"229":8894,"Ġroll":8895,"Ġ$_":8896,"242":8897,"=(\"":8898,"schem":8899,"Option":8900,"Ġexam":8901,"[:":8902,"cpp":8903,"Ġ../../":8904,"Ġconvention":8905,"launch":8906,"Ġbare":8907,"197":8908,"FACE":8909,"CLIENT":8910,"Ġconflicts":8911,"parm":8912,"execute":8913,"ifically":8914,"Ġord":8915,"lications":8916,"metric":8917,"PRT":8918,"dated":8919,"alone":8920,"ĠAct":8921,"fmt":8922,"Ġexchange":8923,"ĠFA":8924,"Content":8925,"handle":8926,"Ġnic":8927,"237":8928,"48576":8929,"xdrs":8930,"gmail":8931,"pop":8932,"ires":8933,"Ġprinc":8934,"UND":8935,"brow":8936,"Ġindependent":8937,"Ġretry":8938,"Ġ\"--":8939,"Ġpresum":8940,"ĠUnable":8941,"AUTHOR":8942,"ounters":8943,"ĠDrive":8944,"telnet":8945,"Ġwiki":8946,"odec":8947,"ERNEL":8948,"Ġterminals":8949,"ributes":8950,"gnum":8951,"endian":8952,"uby":8953,"prod":8954,"ĠInput":8955,"Ġreflect":8956,"================================================================":8957,"fat":8958,"Ġdescribing":8959,"Ġprivileged":8960,"ĠLive":8961,"Ġipt":8962,"Ġsurpr":8963,"ategy":8964,"NON":8965,"ĠDM":8966,"astic":8967,"(){":8968,"Ġignoring":8969,"cii":8970,"Ġextend":8971,"NOTES":8972,"Ġalternate":8973,"Ġter":8974,"eno":8975,"404":8976,"Ġboolean":8977,"Ġaccur":8978,"black":8979,"Ġexpensive":8980,"Ġemploy":8981,"uffix":8982,"blank":8983,"div":8984,"Ġuname":8985,"Ġinstant":8986,"chk":8987,"BACKUP":8988,"mong":8989,"xterm":8990,"liance":8991,"MiB":8992,"UST":8993,"Input":8994,"Alt":8995,"Ġforeground":8996,"Ġsituations":8997,"3000":8998,"Ġlab":8999,"Ġlsof":9000,"Ġunus":9001,"rotect":9002,"ĠHE":9003,"cluster":9004,"(/":9005,"Ġhundred":9006,"Ġcombine":9007,"PROT":9008,"Partition":9009,"Ġinline":9010,"246":9011,"=\"\"":9012,"Ġsubdirectory":9013,"^@^@^@^@":9014,"oracle":9015,"ĠVNC":9016,"Ġzfs":9017,"eay":9018,"plus":9019,"Ġspeeds":9020,"FROM":9021,"Rel":9022,"gc":9023,".....":9024,"ourne":9025,"ĠEvery":9026,"Ġdescribes":9027,"Ġ85":9028,"ĠBus":9029,"239":9030,"ĠXML":9031,":[":9032,"CLO":9033,"TX":9034,"world":9035,"unless":9036,"ĠLicense":9037,"abbix":9038,"LDAP":9039,"181":9040,"Ġ97":9041,"Ġ\"^":9042,"plan":9043,"lta":9044,"unction":9045,"Ġstage":9046,"isf":9047,"Ġpanel":9048,"asion":9049,"ĠConnecting":9050,"FE":9051,"Ġomitted":9052,"onts":9053,"Ġafterwards":9054,"Ġrob":9055,"ĠARM":9056,"Ġsnap":9057,"Ġansible":9058,"Ġrenamed":9059,"Ġsecret":9060,"Memory":9061,"Ġunfortunately":9062,"Ġunnecess":9063,"&&":9064,"230":9065,"rout":9066,"expr":9067,"0100":9068,"hook":9069,"entoo":9070,"Ġment":9071,"228":9072,"Ġseparately":9073,"ository":9074,"Response":9075,"Ġholds":9076,"aaaaaaaa":9077,"nix":9078,"Ġnf":9079,"Ġhasn":9080,"Ġstrace":9081,"Ġsdc":9082,"CONF":9083,"sources":9084,"1001":9085,"ferences":9086,"lang":9087,"Ġparticularly":9088,"Ġsimplest":9089,"Ġ'--":9090,"ĠACPI":9091,"Ġpermanent":9092,"ATTRIBUT":9093,"VID":9094,"ĠTAILQ":9095,"Ġprep":9096,"Ġoverwritten":9097,"ĠKEY":9098,"btrfs":9099,"179":9100,"Ġelsewhere":9101,"Ġconfusing":9102,"Ġcylinders":9103,"Ġknowing":9104,"ĠSys":9105,"emper":9106,"ĠPath":9107,"Ġtriv":9108,"ĠRef":9109,"SSLeay":9110,"Ġfrequently":9111,"State":9112,"ĠSpecifies":9113,"Ġeffort":9114,"perf":9115,"LM":9116,"readable":9117,"DISPLAY":9118,"Found":9119,"Ġsqu":9120,"ĠVer":9121,"oday":9122,"Ġverified":9123,"configured":9124,"Switch":9125,"Ġ110":9126,"Ġyield":9127,"233":9128,"Ġiso":9129,"Ġstud":9130,"INSERT":9131,"Ġ62":9132,"Ġstoc":9133,"perties":9134,"bak":9135,"Ġap":9136,"Ġctos":9137,"Ġswitched":9138,"NG":9139,"nft":9140,"sack":9141,"postgresql":9142,"Something":9143,"Ġplugins":9144,"ua":9145,"Ġ[...]":9146,"0200":9147,"resize":9148,"Ġactivated":9149,"Ġ\"{":9150,"esterday":9151,"Ġthous":9152,"shake":9153,"Ġunlimited":9154,"Ġ8000":9155,"library":9156,"223":9157,"Ġattacker":9158,":'":9159,"inuz":9160,"Ġpwd":9161,"Ġmissed":9162,"slave":9163,"baseT":9164,"\"?":9165,"Ġconfir":9166,"Ident":9167,"bie":9168,"Ġcolon":9169,"Ġmatters":9170,"logrotate":9171,"Ġhim":9172,"APP":9173,"ĠApplying":9174,"Ġsql":9175,"Ġcommented":9176,"String":9177,"Ġinternally":9178,"ACE":9179,"Keys":9180,"warn":9181,"Ġtend":9182,"ĠExchange":9183,"Ġrespective":9184,"Ġrace":9185,"selinux":9186,"EV":9187,"certificate":9188,"esides":9189,"otes":9190,"Ġabc":9191,"Ġletters":9192,"Ġpersist":9193,"ĠAttribute":9194,"FUNC":9195,"Ġquit":9196,"Ġlocking":9197,"DA":9198,"say":9199,"ĠGigabit":9200,"Ġ001":9201,"Ġautomated":9202,"Ġaffects":9203,"Ġ###":9204,"ĠJSON":9205,"csi":9206,"ĠUEFI":9207,"Ġpositive":9208,"Ġmanaging":9209,"MOT":9210,"ocs":9211,"Ġunlikely":9212,"sample":9213,"}}":9214,"Ġ`/":9215,"ele":9216,"mcpu":9217,"159":9218,"Ġvariant":9219,"Ġxen":9220,"âĸĪ":9221,"Ġgen":9222,"Ġsorted":9223,"Ġreporting":9224,"dynamic":9225,"Ġhist":9226,"agick":9227,"ĠDet":9228,"ĠSMART":9229,"._":9230,"ĠInitial":9231,"Ġsysadmin":9232,"Ġbelongs":9233,"Ign":9234,"Ġsnd":9235,"ĠSAN":9236,"ĠANS":9237,"ĠCy":9238,"Ġrescue":9239,"letsencrypt":9240,"upload":9241,"Ġgoog":9242,"Ġtrusted":9243,"sz":9244,"ĠFirewall":9245,"Ġclaim":9246,"symb":9247,"Ġ+=":9248,"Ġopin":9249,"ĠDependency":9250,"8192":9251,"EP":9252,"eny":9253,"limits":9254,"ĠSelect":9255,"ĠELF":9256,")-":9257,"Ġconn":9258,"secret":9259,"ĠBro":9260,"Ġ79":9261,"Ġinterpreter":9262,"mission":9263,"Ġissued":9264,"Ġcompute":9265,"ILED":9266,"Ġanalysis":9267,"Ġaccidentally":9268,"ater":9269,"ounce":9270,"Ġdeployment":9271,"+--------":9272,"ifcfg":9273,"Ġ3000":9274,"Ġparsed":9275,"10000":9276,"Ġrad":9277,"LISTEN":9278,"del":9279,"Ġ2222":9280,"ĠPublic":9281,"ĠRep":9282,"Ġspam":9283,"Ġformer":9284,"Ġqual":9285,"CLOEXEC":9286,"Wall":9287,"Ġglobbing":9288,"Ġinbound":9289,"Ġ94":9290,"ameters":9291,"WW":9292,"Ġnt":9293,"Ġavg":9294,"Ġregion":9295,"Ġcontrolled":9296,"755":9297,"wan":9298,"imately":9299,"Ġscratch":9300,"Ġconsidering":9301,"Ġsafely":9302,"sence":9303,"Ġconstr":9304,"ĠEverything":9305,"tunnel":9306,"DM":9307,"esac":9308,"them":9309,"Ġsmbd":9310,"Ġtroubleshooting":9311,"deally":9312,"Ġ\"#":9313,"Ġchains":9314,"Power":9315,"cer":9316,"Ġfw":9317,"works":9318,"ologin":9319,"Ġsummary":9320,"well":9321,"itel":9322,"anitize":9323,"Ġincreasing":9324,"={":9325,"ading":9326,"cnf":9327,"Ġ150":9328,"unched":9329,"ĠAdding":9330,"Ġtags":9331,"emperature":9332,"ĠRH":9333,"htool":9334,"Alias":9335,"Ġpain":9336,"Ġgranted":9337,"Ġsym":9338,"MX":9339,"catal":9340,"fetch":9341,"Ġparty":9342,"Ġconverted":9343,"omedir":9344,"Ġstated":9345,"ĠAUTH":9346,"Ġ[::":9347,"Ġunderstood":9348,"Ġstreams":9349,"EB":9350,"fn":9351,"Ġ224":9352,"Ġvol":9353,"ĠWord":9354,"nmap":9355,"lower":9356,"cached":9357,"ti":9358,"adding":9359,"myscript":9360,"smbd":9361,"Ġguarantee":9362,"ĠDIS":9363,"Ġdecrypt":9364,"Ġpipes":9365,"Ġdeveloper":9366,"Ġdiscussion":9367,"PHP":9368,"jp":9369,"Ġoverall":9370,"Ġgrab":9371,"Ġcustomer":9372,"gotiation":9373,"<=":9374,"Tim":9375,"step":9376,"ured":9377,"ĠStack":9378,"EEE":9379,"inity":9380,"ĠCurrent":9381,"pper":9382,"Ġspin":9383,"baz":9384,"Ġadvanced":9385,"Ġprotected":9386,"edge":9387,"binary":9388,"sdf":9389,"Ġseemed":9390,"math":9391,"Ġ84":9392,"plugins":9393,"RUNNING":9394,"Ġ:::*":9395,"ARP":9396,"ĠBack":9397,"ĠiSCSI":9398,"persistent":9399,"Every":9400,"ui":9401,"ars":9402,"ARCH":9403,"182":9404,"Ġ...;":9405,"Ġfirewalls":9406,"Line":9407,"olkit":9408,"Ġsupply":9409,"ĠREG":9410,"\\/":9411,"ango":9412,"Ġcolors":9413,"Security":9414,"PR":9415,"apple":9416,"ĠDEFAULT":9417,"Ġredundant":9418,"Ġln":9419,"community":9420,"Ġcounts":9421,"Ġaccordingly":9422,"Ġcorruption":9423,"Account":9424,"Ġalignment":9425,"nas":9426,"egr":9427,"CTX":9428,"Ġrecursive":9429,"Apache":9430,"TMP":9431,"555":9432,"eta":9433,"actions":9434,"Ġpubl":9435,"Main":9436,"Ġwg":9437,"Ġahead":9438,"Ġmotherboard":9439,"151":9440,"Ġ...})":9441,"Ġcables":9442,"graded":9443,"Ġdelimiter":9444,"]);":9445,"ison":9446,"Ġputs":9447,"prog":9448,"commands":9449,"Ġdoubt":9450,"}_":9451,"Ġconcaten":9452,"ĠLe":9453,"loopback":9454,"xen":9455,".$":9456,"LOAD":9457,"obile":9458,"Regard":9459,"333":9460,"Ġjournalctl":9461,"Listen":9462,"219":9463,"Ġdom":9464,"acron":9465,"Ġrefresh":9466,"Ġdestroy":9467,"225":9468,"Ġnested":9469,"RED":9470,"template":9471,"xa":9472,"Ġciphers":9473,"Ġexplains":9474,"IR":9475,"ipt":9476,"Ġkick":9477,"Ġlinking":9478,"ĠXFS":9479,"ĠWithout":9480,"BD":9481,"Ġanno":9482,"ĠLay":9483,"Ġconsists":9484,"fed":9485,"jdk":9486,"ethost":9487,"ĠEFI":9488,"Ġdocuments":9489,"Off":9490,"eo":9491,"Ġintroduced":9492,"ermod":9493,"GCC":9494,"lz":9495,"Ġtraceroute":9496,"Ġdependent":9497,"ĠDOWN":9498,"ĠCC":9499,"ĠPER":9500,"Ġportion":9501,"294967295":9502,")\\":9503,"Ġoperators":9504,"Ġserious":9505,"stance":9506,"{\"":9507,"ĠGID":9508,"ĠCache":9509,"orate":9510,"dead":9511,"ĠTom":9512,"Ġsomebody":9513,"017":9514,"Ġroom":9515,"arenthes":9516,"Ġaff":9517,"NM":9518,"Object":9519,"xz":9520,"ĠLANG":9521,"Ġtriggered":9522,"Ġpairs":9523,"âķĲâķĲâķĲâķĲâķĲâķĲâķĲâķĲ":9524,"sun":9525,"acc":9526,"Ġfragment":9527,"ATTRIBUTES":9528,"Ġhon":9529,"ĠProcessing":9530,"Ġhuman":9531,"acula":9532,"idle":9533,"rhel":9534,"stuff":9535,"Ġputty":9536,"Ġfirewalld":9537,"drivers":9538,"trusted":9539,"asy":9540,"subnet":9541,"Ġprivilege":9542,"ategory":9543,",-":9544,"misc":9545,"Ġalternatives":9546,"Ġbattery":9547,"ĠSomething":9548,"321":9549,"Ġoverlay":9550,"failure":9551,"ĠSOCK":9552,"Ġsatisf":9553,"Det":9554,"erf":9555,"Ġselection":9556,"ĠInformation":9557,"444":9558,"âĶĢâĶĢâĶĢâĶĢâĶĢâĶĢâĶĢâĶĢâĶĢâĶĢâĶĢâĶĢâĶĢâĶĢâĶĢâĶ¬":9559,"âĶĢâĶĢâĶĢâĶĢâĶĢâĶĢâĶĢâĶĢâĶĢâĶĢâĶĢâĶĢâĶĢâĶĢâĶĢâĶ´":9560,"ana":9561,"Ġunavailable":9562,"rink":9563,"Ġframes":9564,"ĠFoundation":9565,"arpa":9566,"Ġapprox":9567,"Given":9568,"ĠKeep":9569,"Storage":9570,"managed":9571,"Ġgpg":9572,"acted":9573,"ĠSettings":9574,"Options":9575,"dav":9576,"hp":9577,"defaults":9578,"Ġfailover":9579,"Ġpatches":9580,"@@@@@@@@@@@@@@@@":9581,"CXPRT":9582,"HY":9583,"eon":9584,"fedora":9585,"Ġindirect":9586,"Ġanonymous":9587,"arb":9588,"ĠIface":9589,"mmcblk":9590,"mega":9591,"DEF":9592,"Ġresponses":9593,"persist":9594,"Ġroutines":9595,"Ġideal":9596,"erally":9597,"uset":9598,"Ġ[\"":9599,"CAT":9600,"UKS":9601,"ĠSA":9602,"Ġ101":9603,"NOME":9604,"ĠâĨĴ":9605,"usually":9606,"parameter":9607,"Ġlocate":9608,"foobar":9609,"GEX":9610,"WIN":9611,"icon":9612,"Ġ\"*.":9613,"receive":9614,"sym":9615,"Ġfive":9616,"imize":9617,"ĠAccept":9618,"FILENAME":9619,"Ġbegins":9620,"ĠPackages":9621,"Ġlaunched":9622,"NONBLOCK":9623,"']":9624,"Ġbc":9625,"Ġ('":9626,"ĠForward":9627,"Ġresponsible":9628,"ĠPostfix":9629,"Ġdistin":9630,"DOW":9631,"Ġcommits":9632,"ĉĉĉĉĉ":9633,"exports":9634,"ica":9635,"Person":9636,"Ġmas":9637,"Ġmand":9638,"why":9639,"Ġquota":9640,"ĠAndroid":9641,"Ġoptimizations":9642,"Ġforced":9643,"Ġforgot":9644,"Ġ3306":9645,"ĠTable":9646,"Ġiwlwifi":9647,"\"...,":9648,"OB":9649,"XC":9650,"ĠOver":9651,"created":9652,"Standard":9653,"Ġvirtualization":9654,"CAP":9655,"sg":9656,"assem":9657,"775":9658,"myserver":9659,"have":9660,"Ġoffers":9661,"pcr":9662,"Remove":9663,"9000":9664,"Ġcurious":9665,"288":9666,"ĠDefaults":9667,"Ġtrivial":9668,"za":9669,"utom":9670,"Thread":9671,"ĠScript":9672,"ifferent":9673,"Ġsquid":9674,"Ġdu":9675,"ĠPolicy":9676,"236":9677,"NUM":9678,"armor":9679,"Ġdnsmasq":9680,"~~~~~~~~":9681,"broadcast":9682,"Vol":9683,"Ġprocessors":9684,"DOM":9685,"){":9686,"Ġep":9687,"175":9688,"gitlab":9689,"Ġobtained":9690,"/_":9691,"raft":9692,"controller":9693,"Ġdealing":9694,"Follow":9695,"ĠMatch":9696,"orrent":9697,"maybe":9698,"Ġfedora":9699,"Ġdow":9700,"Ġjail":9701,"avr":9702,"Ġdistributed":9703,"Comm":9704,"Ġblog":9705,"Ġmar":9706,"Ġwhite":9707,"Ġnoted":9708,"ĠCIFS":9709,"ILD":9710,"Ġbench":9711,"RP":9712,"Ġbalancer":9713,"Right":9714,"uTTY":9715,"repl":9716,"quiet":9717,"ĠFF":9718,"Ġintermediate":9719,"Ġcortex":9720,"rix":9721,"ĠInnoDB":9722,"LIMIT":9723,"Ġmainly":9724,"âĸĳ":9725,"MOTE":9726,"[*":9727,"ga":9728,"Ġbody":9729,"ĠVMWare":9730,"ycle":9731,"¬âĶĢâĶĢâĶĢâĶĢâĶĢâĶĢâĶĢâĶĢâĶĢâĶĢâĶĢâĶĢâĶĢâĶĢâĶĢâĶ¬":9732,"´âĶĢâĶĢâĶĢâĶĢâĶĢâĶĢâĶĢâĶĢâĶĢâĶĢâĶĢâĶĢâĶĢâĶĢâĶĢâĶ´":9733,"Ġmanner":9734,"ĠXDR":9735,"Ġreboots":9736,"atile":9737,"ĠHO":9738,"Ġbridged":9739,"async":9740,"Ġ202":9741,"Ġclue":9742,"mtp":9743,"Ġrough":9744,"ural":9745,"ĠDig":9746,"Ġidentified":9747,"connected":9748,"Ġbootloader":9749,"Ġdecre":9750,"Remote":9751,"Select":9752,"ĠBlocks":9753,"authent":9754,"Ġappended":9755,"SYN":9756,"Ġguests":9757,"sendmail":9758,"ufacturer":9759,"Ġraspberrypi":9760,"Ġcant":9761,"ityFile":9762,"Ġarri":9763,"FT":9764,"FAT":9765,"Sat":9766,"Ġmq":9767,"Ġresponding":9768,"FORE":9769,"ĠSs":9770,"ĠRight":9771,"Ġindicated":9772,"unused":9773,"ĠFD":9774,"netdev":9775,"328":9776,"Ġexiting":9777,"BIOS":9778,"vagrant":9779,"Ġspent":9780,"mounts":9781,"Ġdownloading":9782,"Ġpositional":9783,"Ġsha":9784,"ĠCert":9785,"247":9786,"Ġwaits":9787,"msd":9788,"ectors":9789,"ĠLoop":9790,"logind":9791,"confined":9792,"666":9793,"aaa":9794,"DHE":9795,"}:":9796,"Ġnotify":9797,"Ġseek":9798,"307":9799,"packet":9800,"Ġsvn":9801,"quota":9802,"fact":9803,"greg":9804,"ologies":9805,"Ġconflict":9806,"ĠSupported":9807,"Ġblacklist":9808,"hibited":9809,"\"\"":9810,"Ġ);":9811,"Ext":9812,"puppet":9813,"sf":9814,"ĠRoot":9815,"cpy":9816,"Ġxterm":9817,"Ġ\\$":9818,"loading":9819,"Ġworse":9820,"pthread":9821,"214":9822,"eper":9823,"liant":9824,"Below":9825,"ĠApple":9826,"Ġarchitectures":9827,"tap":9828,"Ġpuppet":9829,"INTER":9830,"Ġrelation":9831,"[@]}\";":9832,"Cert":9833,"stances":9834,"040":9835,"ASSWD":9836,"Ġunnecessary":9837,"191":9838,"sackOK":9839,")$":9840,"logfile":9841,"overlay":9842,"Ġstopping":9843,"FLAGS":9844,"WAY":9845,"[\"":9846,"Ġtimezone":9847,"ĠDown":9848,"Ġeffects":9849,"Ġproduced":9850,"65535":9851,"Ġsnippet":9852,"Ġlv":9853,"handler":9854,"âĶľâĶĢâĶĢ":9855,"%)":9856,"Ġintr":9857,"Ġ112":9858,"Ġpoor":9859,"beat":9860,"ĠGenmask":9861,"oret":9862,"Ġ86":9863,"/.*":9864,"pointer":9865,"/*/":9866,"Ġ1234":9867,"@$":9868,"Ġfoc":9869,"Cond":9870,"ye":9871,"ĠImage":9872,"ĠCode":9873,"Ġwarns":9874,"264":9875,"vents":9876,"ansions":9877,"Ġipsec":9878,"Ġdialog":9879,"}')":9880,"Ġheavy":9881,"week":9882,"Ġrealize":9883,"TARGET":9884,"mq":9885,"vc":9886,"Ġnmap":9887,"ĠPri":9888,"Ġclosing":9889,"family":9890,"ky":9891,"Ġ%{":9892,"Ġprompted":9893,"ynchronous":9894,"UG":9895,"pur":9896,"Ġmong":9897,"Ġdespite":9898,"manual":9899,"Working":9900,"nice":9901,"Ġdigit":9902,"Ġpermanently":9903,"221":9904,"235":9905,"888":9906,"GL":9907,"qq":9908,"Private":9909,"cmp":9910,"volumes":9911,"clusion":9912,"Ġxz":9913,"Rewrite":9914,"Ġcalculate":9915,"Ġwpa":9916,"Ġfixes":9917,"dnsmasq":9918,"Ġ8859":9919,"ssibly":9920,"ANT":9921,"Ġscale":9922,"218":9923,"ulating":9924,"Ġpropag":9925,"Ġfrequency":9926,"Ġchacha":9927,"Requires":9928,"Ġwired":9929,"ĠGSS":9930,"Ġsizeof":9931,"record":9932,"Put":9933,"ushing":9934,"Ġ125":9935,"netfilter":9936,"Ġaccesses":9937,"808":9938,"XE":9939,"Ġnano":9940,"Ġverification":9941,"helper":9942,"--->":9943,"ĠAMD":9944,"Ġlogfile":9945,"Ġtweak":9946,"Ġclon":9947,"sem":9948,"ĠDVD":9949,"Ġcommonly":9950,"Ġoccasion":9951,"ECTION":9952,"Ġfreed":9953,"ĠRemove":9954,"jobs":9955,"Sync":9956,"xfs":9957,"Ġdraw":9958,"priority":9959,"Ġresolv":9960,"Ġrestored":9961,"Ġbinding":9962,"007":9963,"macros":9964,"Ġposix":9965,"Ġhints":9966,"Ġcurve":9967,"Intel":9968,"Sys":9969,"Ġstaff":9970,"ĠRO":9971,"forge":9972,"join":9973,"Many":9974,"648":9975,"LECT":9976,"thermore":9977,"Ġphysically":9978,"rors":9979,"htaccess":9980,"ĠTerminal":9981,"ĠKDE":9982,"Ġicon":9983,"urthermore":9984,"ACHE":9985,"Ġelif":9986,"Ġinherited":9987,"Ġthreshold":9988,"property":9989,"Public":9990,"ĠVER":9991,"recipient":9992,"Mail":9993,"Ġdanger":9994,"Ġnonzero":9995,"cludes":9996,"Ġacceptable":9997,"ĠNET":9998,"329":9999,"Ġdecom":10000,"Ġtracking":10001,"Ġboundary":10002,"IRECT":10003,"uted":10004,"Ġending":10005,"376":10006,"SID":10007,"whatever":10008,"Print":10009,"Ġsearches":10010,"ĠREDIRECT":10011,"NAS":10012,"241":10013,"disabled":10014,"instead":10015,"Ġgithub":10016,"MODE":10017,"HOSTNAME":10018,"Ġisolated":10019,"4000":10020,"stations":10021,"Ġuseless":10022,"--.":10023,"IfModule":10024,"Ġintel":10025,"Ġopinion":10026,"Ġwelcome":10027,"escriptor":10028,"Ġ65535":10029,"BASE":10030,"fq":10031,"oct":10032,"libexec":10033,"960":10034,"tlen":10035,"Ġindicating":10036,"FR":10037,"GiB":10038,"dovecot":10039,"âĶĢâĶĢâĶĢâĶĢâĶĢâĶĢâĶĢâĶĢâĶĢâĶĢâĶĢâĶ":10040,"Ġutmp":10041,"Ġreleased":10042,"ĠRedHat":10043,"atically":10044,"unks":10045,"REE":10046,"Ġoverflow":10047,"Ġheads":10048,"=:":10049,"Sc":10050,"Ġrepair":10051,"Fedora":10052,"relay":10053,"Ġfirefox":10054,"0002":10055,"ĉĉĉĉĉĠĠĠĠĠĠ":10056,"ioctl":10057,"Ġscreenshot":10058,"Ġqemu":10059,"ĠFail":10060,"141":10061,"Ġexposed":10062,"Ġdetection":10063,"GI":10064,"243":10065,"Ġexpects":10066,"Ġinvoking":10067,"nic":10068,"orer":10069,"Exception":10070,"Ġautomount":10071,"Ġmyuser":10072,"Ġpartial":10073,"missing":10074,"otd":10075,"Ġfilters":10076,"ĠBuild":10077,"RES":10078,"Ġinserted":10079,"////":10080,"Ġlocks":10081,"Ġupgrading":10082,"Machine":10083,"bios":10084,"Ġconfigs":10085,"Ġadvert":10086,"Ġliterally":10087,"bg":10088,"Ġ139":10089,"Ġ240":10090,"Ġexecutables":10091,"Ġhelped":10092,"eam":10093,"ĠIR":10094,"Ġ(*":10095,"Ġprognum":10096,"Ġvice":10097,"ĠPass":10098,"ĠNUL":10099,"USERNAME":10100,"Ġ32768":10101,"(.":10102,"Ġnaming":10103,"lobal":10104,"Ġversnum":10105,"Ġinc":10106,"!/":10107,"ĠIS":10108,"ĠShow":10109,"eezy":10110,"USR":10111,"ean":10112,"Ġparenthes":10113,"settings":10114,"Ġserving":10115,"Ġleads":10116,"Ġirq":10117,"ĠSimilar":10118,"Ġtheory":10119,"Ġquiet":10120,"Ġcontinues":10121,"Ġcontrolling":10122,"Ġoccurren":10123,"Ġpin":10124,"015":10125,".%":10126,"fastcgi":10127,"Ġrepresentation":10128,"tleneck":10129,"374":10130,"every":10131,"807":10132,"strap":10133,"dirname":10134,"Ġcharon":10135,"ĉĉĉĉĉĠĠĠ":10136,"Ġcycle":10137,"Ġmigrate":10138,"iter":10139,"377":10140,"Ġvisit":10141,"ĠHEAD":10142,"PP":10143,"ĠThank":10144,"MESS":10145,"900":10146,"ocon":10147,"Ġplanning":10148,"Ġsrv":10149,"Ġtrunk":10150,"Ġuserspace":10151,"rescue":10152,"member":10153,"POINT":10154,"Ġrunlevel":10155,"340":10156,"Ġresolver":10157,"Ġsuddenly":10158,"wscale":10159,"lists":10160,"Ġextent":10161,"Ġperiodically":10162,"DK":10163,"Method":10164,"ience":10165,"0032":10166,"Ġ259":10167,"Ġsetuid":10168,"ĠIts":10169,"368":10170,"Ġdropping":10171,"Without":10172,"Ġrepresents":10173,"ĠSame":10174,"Ġreferred":10175,"Ġpressing":10176,"Ġconvenient":10177,"Ġrobust":10178,"ppp":10179,"alyze":10180,"Ġss":10181,"Ġreq":10182,"ffmpeg":10183,"fsanitize":10184,"lsblk":10185,"Ġ186":10186,"Ġarm":10187,"rs":10188,"Ġleaves":10189,"802":10190,"startup":10191,"âĢĵ":10192,"Ġlove":10193,"rad":10194,"rics":10195,"upper":10196,"tmpfiles":10197,"Ġapplicable":10198,"encrypted":10199,"Based":10200,"Location":10201,"Ġdict":10202,"cho":10203,"Ġrecur":10204,"Will":10205,"|-":10206,"ids":10207,"Ġresume":10208,"Ġstrategy":10209,"Ġplenty":10210,"ĠGenerated":10211,"Ġbootable":10212,"DES":10213,"Ġanswered":10214,"Ġkinds":10215,"MASK":10216,"\\]":10217,"308":10218,"Ġntfs":10219,"ening":10220,"ĠSending":10221,"Ġcallback":10222,"Ġctstate":10223,"Ġsourced":10224,"');":10225,"Protocol":10226,"gers":10227,"recurs":10228,"Ġtechni":10229,"Pi":10230,"ĠIM":10231,"LOOPBACK":10232,"team":10233,"they":10234,"Ġhandy":10235,"Ġcorresponds":10236,"Ġbottleneck":10237,"ĠEINVAL":10238,"interval":10239,"\")\"":10240,"Ġtabs":10241,"Looking":10242,"/-":10243,"dp":10244,"atmega":10245,"803":10246,"Consider":10247,"primary":10248,"Ġdirs":10249,"CN":10250,"sam":10251,"ĠWould":10252,"âĢī":10253,"2222":10254,"dss":10255,"Ġ\"\",":10256,"quote":10257,"Ġformatting":10258,"Ġdaemons":10259,"iname":10260,"ĠSocket":10261,"aker":10262,"urses":10263,"eer":10264,"nologin":10265,"Ġhar":10266,"{$":10267,"Ġencoded":10268,"know":10269,"gzip":10270,"215":10271,"Ġult":10272,"ipa":10273,"events":10274,"ĠRegister":10275,"mg":10276,"rief":10277,"ĠIPT":10278,"303":10279,"crypto":10280,"EXAMPLES":10281,"Ġdisappear":10282,"yte":10283,"Ġinstalls":10284,"Ġopposed":10285,"mand":10286,"Ġprojects":10287,"itelist":10288,"ECK":10289,"standing":10290,"Ġfactor":10291,"fx":10292,"ĠCopyright":10293,"DMA":10294,"Ver":10295,"vz":10296,"plain":10297,"Ġconsult":10298,"Ġlimiting":10299,"Ġsemant":10300,"ots":10301,"2009":10302,"response":10303,"3306":10304,"Rule":10305,"LED":10306,"Ġ81":10307,"860":10308,"Ġprovision":10309,"iagnost":10310,"Ġintegrity":10311,"ĠCommands":10312,"ĠModule":10313,"Base":10314,"Like":10315,"Ġce":10316,"ABC":10317,"\"%":10318,"Ġxxxx":10319,"^^^^":10320,"gy":10321,"ĠMany":10322,"ĠPCs":10323,"Ġmailbox":10324,"aria":10325,"Ġexpose":10326,"Pages":10327,"firefox":10328,"inline":10329,"Ġnav":10330,"ĠAnother":10331,"ĠÂłĠÂł":10332,"jq":10333,"ĠBourne":10334,"ĠChrome":10335,"working":10336,"Ġdeclaration":10337,"WAN":10338,"Ġacl":10339,"Ġprio":10340,"QUE":10341,"containerd":10342,"(\\":10343,"ĠBasically":10344,"Ġdecode":10345,"Enable":10346,"Ġ262":10347,"eh":10348,"ĠAF":10349,"parallel":10350,"wrap":10351,"DIRECT":10352,"Ġmeta":10353,"Ġ>(":10354,"Ġexpansions":10355,"Ġsimultaneously":10356,"ridden":10357,"andbox":10358,"259":10359,"gtk":10360,"Ġcrashes":10361,"supported":10362,"AVA":10363,"Ġtransfers":10364,"tgz":10365,"Ġstatically":10366,"obj":10367,"eeze":10368,"packets":10369,"Ġegrep":10370,"ĠNOP":10371,"Ġneeding":10372,"183":10373,"ĠForce":10374,"Ġobsole":10375,"networking":10376,"Ġuniq":10377,"Ġtranslation":10378,"Ġnearly":10379,"Adding":10380,"Ġregularly":10381,"ĠDMZ":10382,"_%":10383,"ebook":10384,"Ġ\\_":10385,"Forwarded":10386,"[]":10387,"Ġacts":10388,"RIG":10389,"clients":10390,"Unknown":10391,"Ġmalloc":10392,"Ġhw":10393,"Ġauthmethod":10394,"Ġinvestig":10395,"$'":10396,"Ġ107":10397,"ROL":10398,":+":10399,"BR":10400,"bly":10401,"Ġreconnect":10402,"ntime":10403,"Ġheard":10404,"Ġplaying":10405,"Ġgraphics":10406,"ĠVPC":10407,"Ġparity":10408,"dhclient":10409,"RAY":10410,"Ġappeared":10411,"POSTROUTING":10412,"hcd":10413,"iw":10414,"lf":10415,"Microsoft":10416,"Os":10417,"develop":10418,"Ġlimitations":10419,"yyy":10420,"Ġbrackets":10421,"Ġfan":10422,"âĸĪâĸĪ":10423,"jango":10424,"ĠFROM":10425,"vmlinuz":10426,"ĠAES":10427,"hostkeys":10428,"Ġguaranteed":10429,"bk":10430,"ustr":10431,"448":10432,"Ġlimitation":10433,"587":10434,"Ġincreased":10435,"ĠIIS":10436,"ĠHand":10437,"spci":10438,"0800":10439,"scope":10440,"GRUB":10441,"Node":10442,"escap":10443,"Ġgather":10444,"eader":10445,"Ġguys":10446,"ĠSSDs":10447,"Policy":10448,"Ġhor":10449,"Ġenfor":10450,"timestamp":10451,";\\":10452,"ĠDescription":10453,"noatime":10454,"767":10455,"insert":10456,"allocated":10457,"Ġsockaddr":10458,"Ġprecedence":10459,"Gateway":10460,"Ġcc":10461,"ĠFOR":10462,"ĉĉĉĉĉĠĠ":10463,"Ġ0000000000000000":10464,"iving":10465,"Ġtransparent":10466,"Ġtowards":10467,"ĠMem":10468,"Ġargz":10469,"Ġrows":10470,"hourly":10471,"Volume":10472,"vendor":10473,"econds":10474,"rig":10475,"ĠLogical":10476,"ta":10477,"arrow":10478,"ĠFW":10479,"implicit":10480,"Ġ\"_":10481,"Ġ254":10482,"fds":10483,"ĠExpress":10484,"dash":10485,"nagios":10486,"Ġpfifo":10487,"008":10488,"Ġexperienced":10489,"Configuration":10490,"Everything":10491,"atin":10492,"Hosts":10493,"ĠAb":10494,"allowed":10495,"Ġescaped":10496,"hid":10497,"Ġill":10498,"Ġmath":10499,"utex":10500,"Ġwheel":10501,"ĠDockerfile":10502,"ĠFI":10503,"TIFI":10504,"Out":10505,"rn":10506,"Ġge":10507,"Ġvirt":10508,"Ġcompromised":10509,"....----":10510,"resolve":10511,"Cache":10512,"pac":10513,"Ġ133":10514,"ĠTakes":10515,"231":10516,"','":10517,"Ġinitialize":10518,"gpu":10519,"kens":10520,"ĠPTR":10521,"ĠTER":10522,"Ġpreventing":10523,"projects":10524,"fall":10525,"IAL":10526,"uting":10527,"runtime":10528,"ibilities":10529,"resource":10530,"existing":10531,"Ġarchives":10532,"../../":10533,"tech":10534,"reference":10535,"Ġreview":10536,"ypically":10537,"ibre":10538,"Ġannoying":10539,"retry":10540,"although":10541,"Ġassumption":10542,"Vendor":10543,"eat":10544,"bob":10545,"Ġemulator":10546,"389":10547,"390":10548,"Ġcommunity":10549,"ĠIBM":10550,"ĠPO":10551,"Ġkilling":10552,"ahi":10553,"ĠNormally":10554,"ĠDefin":10555,"Ġrandomly":10556,"Ġrejected":10557,"Ġsensitive":10558,"Min":10559,"etter":10560,"unin":10561,"tually":10562,"REAM":10563,"Ġsaves":10564,"cleanup":10565,"COLOR":10566,"005":10567,"Ġprofiles":10568,"ĠPR":10569,"ĠMail":10570,"Ġhostnames":10571,"440":10572,"Ġburst":10573,"SESSION":10574,"ball":10575,"Ġextern":10576,"Ġ87":10577,"\\\"\"":10578,"Ġexclus":10579,"oppy":10580,"OSSL":10581,"Ġredirects":10582,"Ġtechnical":10583,"ĠBl":10584,"Ġhandshake":10585,"inetd":10586,"Ġ164":10587,"COUNT":10588,"emplates":10589,"ĠDepending":10590,"Block":10591,"bat":10592,"adec":10593,"Unix":10594,"SYSTEMD":10595,"ICE":10596,"RHEL":10597,"ĠTLSv":10598,"CBC":10599,"ĠRDP":10600,"Ġworkstations":10601,"ĠOSX":10602,"Ġ'/^":10603,"duces":10604,"ĠĠĠĠĠĠĠĠĠĠčĊ":10605,"ĠGPU":10606,"ĠĠĠĠĠĠĠĠĠĠĠĠĠčĊ":10607,"character":10608,"ĠDISPLAY":10609,"928":10610,"ĠHave":10611,"ftree":10612,"Ġstrip":10613,"Code":10614,"MON":10615,"NE":10616,"css":10617,"probably":10618,"Ġreplies":10619,"Ġenterprise":10620,"Ġscanning":10621,"ĠAvailable":10622,"Ġmasquer":10623,"dep":10624,"Ġlogrotate":10625,"IPE":10626,"Ġcam":10627,"ĠSyn":10628,"ĠNR":10629,"ĠEd":10630,"Ġhealth":10631,"Ġdeployed":10632,"Ġauthenticated":10633,"Mo":10634,"romium":10635,"Ġdispatch":10636,"osite":10637,"RENT":10638,"Filter":10639,"\\]\\":10640,"Ġalph":10641,"phone":10642,"ĠExit":10643,"ExecStop":10644,".).":10645,"Ġassigning":10646,"attribute":10647,"weight":10648,"Mb":10649,"\\%":10650,"tk":10651,"tid":10652,"Ġdemon":10653,"Ġifup":10654,"mysite":10655,"BL":10656,"Ġcontinuous":10657,"multip":10658,"ĠPerhaps":10659,"erv":10660,"Ġ$#":10661,"extension":10662,"Message":10663,"ĠXX":10664,"verted":10665,"ifying":10666,"*\\":10667,"Ġ115":10668,"ĠApplication":10669,"icious":10670,"ypes":10671,"Ġproblematic":10672,"`;":10673,"327":10674,"488":10675,"KILL":10676,"ĠCount":10677,"Ġproviders":10678,"Ġexceptions":10679,"Ġadvise":10680,"012":10681,"Ġoverridden":10682,"ERRORS":10683,"merge":10684,"ruby":10685,"squid":10686,"tek":10687,"Ġtranslates":10688,"column":10689,"345":10690,"scape":10691,"ingu":10692,"Ġscroll":10693,"Ġuint":10694,"Ġbehaves":10695,"Although":10696,"ĠWINDOW":10697,"Ġconfirmed":10698,"+%":10699,"/+":10700,"ĠPA":10701,"Ġ$$":10702,"Product":10703,"MATCH":10704,"Ġdhclient":10705,"UD":10706,"oles":10707,"effect":10708,"left":10709,"Ġmass":10710,"ĠLE":10711,"305":10712,"ĠJob":10713,"drwxrwxr":10714,"Ġdangerous":10715,"ĠMicro":10716,"Context":10717,"Ġbranches":10718,"323":10719,"repos":10720,"special":10721,"expand":10722,"ĠWOR":10723,"ANGE":10724,"kube":10725,"Ġvps":10726,"ĠAlthough":10727,"mounted":10728,"Ġblah":10729,"xmox":10730,"ĠCreation":10731,"Depending":10732,"Router":10733,"Ġspan":10734,"Ġreproduce":10735,"Ġthousands":10736,"Section":10737,"006":10738,"Ġ93":10739,"âĶĢâĶĢâĶĢâĶĢâĶĢâĶĢâĶĢâĶĢâĶĢâĶ¤":10740,"Ġretrie":10741,"provider":10742,"ja":10743,"Ġdport":10744,"setfacl":10745,"296":10746,"Ġtune":10747,"ĠSpeed":10748,"HH":10749,"Ġax":10750,"ĠPRI":10751,"ĠURI":10752,"REJECT":10753,"ĠProduct":10754,"Ġbalancing":10755,"oe":10756,"etty":10757,"ĠSometimes":10758,"Ġpersonally":10759,"compressed":10760,"keycode":10761,"RootLogin":10762,">'":10763,"laptop":10764,"ĠÐ":10765,"inotify":10766,"ĉĉĉĠĠĠĠ":10767,"ĠComputer":10768,"Ġomit":10769,"Ġ\",":10770,"026":10771,"VLAN":10772,"isation":10773,"Ġloader":10774,"Ġfavor":10775,"/#":10776,"front":10777,"lif":10778,"late":10779,"Ġfire":10780,"ugep":10781,"astion":10782,"nx":10783,"elif":10784,"Our":10785,"Ġdov":10786,"Ġchoo":10787,"336":10788,"Ġredirecting":10789,"ĠCOMP":10790,"Ġtutorials":10791,"ĠMaximum":10792,"inv":10793,"transport":10794,"sssd":10795,"seg":10796,"Ġatomic":10797,"ĠMinor":10798,"Good":10799,"ryp":10800,"Ġrecreate":10801,"connections":10802,"Ġsignificantly":10803,"duplic":10804,"EMPT":10805,"Find":10806,"hh":10807,"ipment":10808,"xp":10809,"Ġsun":10810,"mypro":10811,"GIT":10812,"keyex":10813,"Ġlease":10814,"dfs":10815,"Ġ137":10816,"ĠNFSv":10817,"Ġexpert":10818,"Ġmigration":10819,"ĠStopped":10820,"Ġsdd":10821,"='/":10822,"wsgi":10823,"yaml":10824,"icol":10825,"Ġkube":10826,"Ġconstants":10827,"ĠGeneral":10828,"Ġpopular":10829,"destroy":10830,"~$":10831,"Ġ136":10832,"ifup":10833,"ighb":10834,"ĠLOC":10835,"Ġevaluated":10836,"glish":10837,"bond":10838,"Ġapart":10839,"Ġsparse":10840,"ĠTechn":10841,"257":10842,"ĠERR":10843,"Ġdovecot":10844,"font":10845,"Ġwan":10846,"Ġ130":10847,"Ġpreprocessor":10848,"good":10849,"Mult":10850,"wikipedia":10851,"Ġcaches":10852,"Ġhide":10853,"Ġprompts":10854,"mf":10855,"Ġdesc":10856,"Ġachieved":10857,"LATION":10858,"Bind":10859,"Further":10860,"ĠIEEE":10861,"ĠLimit":10862,"ĠFIN":10863,"blue":10864,"chedul":10865,"freq":10866,"metadata":10867,"4294967295":10868,"Ġgame":10869,"ostat":10870,"Fail":10871,"Ġ156":10872,"prune":10873,"author":10874,"409":10875,"ben":10876,"bucket":10877,"fprofile":10878,"uly":10879,"ĠOF":10880,"Application":10881,"Ġtricky":10882,":\\\\":10883,"vsftpd":10884,"Ġwall":10885,"FOO":10886,"ĠECDSA":10887,"andid":10888,"Ġdowntime":10889,">\\":10890,"pgrep":10891,"Ġportmap":10892,"HERE":10893,"pin":10894,"Ġ++":10895,"urandom":10896,"Ġunpack":10897,"Ġposts":10898,"ĠONLINE":10899,"documentation":10900,"fficiently":10901,"810":10902,"som":10903,"Ġlate":10904,"ĠInfo":10905,"Ġdetermines":10906,"ĠChecking":10907,"Ġtriggers":10908,"ĠWireless":10909,"ulseaudio":10910,"Ġfacility":10911,"DEST":10912,"Ġrealized":10913,"Ġrenew":10914,"Ġ180":10915,"Ġrequiring":10916,"sert":10917,"Ġcounters":10918,"oney":10919,"ĠBLOCK":10920,"6400":10921,"Ġreleases":10922,"Ġsuperuser":10923,"Ġdumps":10924,"ĠCONNECT":10925,"Downloads":10926,"adecimal":10927,"SUSE":10928,"convert":10929,"Ġskipped":10930,"Ġadministration":10931,"Ġpractical":10932,"Ġoverrides":10933,"Ġpg":10934,"Ġ208":10935,"ĠSTART":10936,"ĠXXX":10937,"Ġunlock":10938,"Ġhitting":10939,"POL":10940,"fst":10941,"zer":10942,"ĠGNOME":10943,"0003":10944,"Ġinfinite":10945,"ught":10946,"wrapper":10947,"ĠAdapter":10948,"john":10949,"require":10950,"Ġreferring":10951,"ĠLoopback":10952,"{}":10953,"Ġmyserver":10954,"Ġinvolves":10955,"xattr":10956,"ension":10957,"Ġmit":10958,"Ġ196":10959,"ĠFr":10960,"Ġwrap":10961,"Stack":10962,"ĠEnabling":10963,"//'":10964,"Ġdetects":10965,".\\":10966,"GCM":10967,"brid":10968,"Ġmmap":10969,"Ġalive":10970,"jenkins":10971,"Ġecdsa":10972,"Ġprefixlen":10973,"Ġhops":10974,"Length":10975,"Prot":10976,"ĠRest":10977,"eph":10978,"ideos":10979,"crement":10980,"850":10981,"=?":10982,"DT":10983,"Win":10984,"description":10985,"Ġmoves":10986,"Ġ-----":10987,"traceroute":10988,"Ġcleanup":10989,"Ġuploaded":10990,"ĠReceived":10991,"Samba":10992,"mis":10993,"tor":10994,"veth":10995,"Ġinject":10996,"ĠFast":10997,"ĠGMT":10998,"326":10999,"Ġthoughts":11000,"attach":11001,"Ġplatforms":11002,"ÂłÂłÂłÂłÂłÂłÂłÂł":11003,"Ġcircumstances":11004,"oom":11005,"ĠEither":11006,"Ġreplaces":11007,"Ġblk":11008,"Ġedge":11009,"Documentation":11010,"large":11011,"Ġgethost":11012,"Ġchip":11013,"ĠLSB":11014,"465":11015,"SYNC":11016,"Ġmismatch":11017,"naming":11018,"eter":11019,"qual":11020,"Ġ[]":11021,"Ġagree":11022,"dispatch":11023,"HostKeyChecking":11024,"Ġexe":11025,"ĠLUKS":11026,"=$?":11027,"aiting":11028,"Ġtion":11029,"Ġpv":11030,"Ġpanic":11031,"Ġmor":11032,"Ġ252":11033,"ĠOffline":11034,"ĠDocumentation":11035,"Ġordinary":11036,"QDN":11037,"ĠPK":11038,"Ġsorts":11039,"ĠClass":11040,"Value":11041,"asic":11042,"ĠReport":11043,"basic":11044,"Ġpostgresql":11045,"htm":11046,"ictHostKeyChecking":11047,"Ġlibvirt":11048,"Ġadministrative":11049,"Ġhopefully":11050,"rypoint":11051,"Home":11052,"Ġvsftpd":11053,"ĠServices":11054,"Ġ[::]:":11055,"Sl":11056,"Ġturning":11057,"upid":11058,"ĠWH":11059,"Ġstrugg":11060,"090":11061,"uilder":11062,"Ġrepos":11063,"Ġclarify":11064,"GEN":11065,"_$":11066,"Ġcf":11067,"think":11068,"cles":11069,"ĠUsually":11070,"ĠTomcat":11071,"Fr":11072,"Oper":11073,"809":11074,"Ġrotate":11075,"Ġdemonstr":11076,"Ġdecision":11077,"suffix":11078,"Ġnetcat":11079,"insns":11080,"nv":11081,"anent":11082,"stdlib":11083,"TM":11084,"ĠWD":11085,"Ġoptionally":11086,"Ġvariants":11087,"Ġ91":11088,"AGES":11089,"ĠGnome":11090,"320":11091,"ĠPuTTY":11092,"aspbian":11093,"Ġpartitioning":11094,"Ġokay":11095,"BTW":11096,"HW":11097,"uzz":11098,"Ġaddressing":11099,"libvirt":11100,"ANON":11101,"Ġdistingu":11102,"ĠConfigure":11103,"Ġunmounted":11104,"Ġflexible":11105,"catalina":11106,"âĢīâĢī":11107,"ĠTERM":11108,"Ġ216":11109,"ĠHardware":11110,"Ġserved":11111,"Ġtechnology":11112,"hibit":11113,"Ġstays":11114,"IK":11115,"ibern":11116,"ABLED":11117,"greSQL":11118,"Ġstrongly":11119,"@\\":11120,"nor":11121,"aining":11122,"ĠEngine":11123,"permissions":11124,"Ġgnu":11125,"CUR":11126,"VG":11127,"aN":11128,"Ġclasses":11129,"ino":11130,"ĠSET":11131,"âĢĤ":11132,"myapp":11133,"Ġbitmap":11134,"ĠSECTION":11135,"Ġ104":11136,"nobody":11137,"Ġexplo":11138,"ĠMACs":11139,"EXAMPLE":11140,"wg":11141,"Ġbother":11142,"ĠLD":11143,"ĠChannel":11144,"meta":11145,"Ġterminating":11146,";'":11147,"Drive":11148,"171":11149,"Ġparam":11150,"PROMPT":11151,"Ġntpd":11152,"Ġhypervisor":11153,"Under":11154,"hidden":11155,"}${":11156,"redis":11157,"ashion":11158,"Share":11159,"Ġvmbr":11160,"OUR":11161,"icorn":11162,"ĠAgain":11163,"artbeat":11164,"ĠDump":11165,"ĉĉĉĉĉĠ":11166,"gument":11167,"Ġselinux":11168,"Ġprepend":11169,"Ġ\\(":11170,"DOCKER":11171,"Sorry":11172,"suspend":11173,"Ġmnt":11174,"ĠADD":11175,"aproxy":11176,"stract":11177,"CODE":11178,"\"|":11179,"ĠWr":11180,"ĠĠĠĠĠĠĠĠĠĠĠĠĠĠĠĠĠĠĠĠĠĠĠĠĠĠĠĠĠĠĠĠĠ":11181,"Ġ173":11182,"ĠFormat":11183,"ĉĉĉĉĉĉĉĉĉĠ":11184,"could":11185,"--+":11186,"Ġie":11187,"onda":11188,"Two":11189,"war":11190,"ications":11191,"Ġswapping":11192,"Ġintegers":11193,"Ġ122":11194,"Ġcorrespond":11195,"SMART":11196,"ISOLATION":11197,"Take":11198,"compile":11199,"ĠKali":11200,"Ġpurch":11201,"snmp":11202,"................................":11203,"MHz":11204,"hf":11205,"ĠMbps":11206,"Ġ:-)":11207,"svc":11208,"rq":11209,"lear":11210,"Ġconj":11211,"ĠDrop":11212,"ĠTim":11213,"Master":11214,"Ġtips":11215,"Ġrestoring":11216,"Ġcorp":11217,"repository":11218,"__\"":11219,"Ġsysfs":11220,"Ġtagged":11221,"Ġchose":11222,"Ġoverl":11223,"aken":11224,"ĉĉĉĉĉĠĠĠĠ":11225,"0755":11226,"efik":11227,"ĠSYST":11228,"hist":11229,"mov":11230,"abs":11231,"xxxxxxxxxxxxxxxx":11232,"Ġmodifications":11233,"Ġterminates":11234,"Ġiptable":11235,"jail":11236,"once":11237,"quit":11238,"bled":11239,"ĠURGP":11240,"OPTS":11241,"Ġlosing":11242,"oto":11243,"Ġ[],":11244,"Ġsubprocess":11245,"issue":11246,"Ġpercentage":11247,"iagnostics":11248,"Pri":11249,"cipher":11250,"gun":11251,"============":11252,"Ġintention":11253,"Ġimmediate":11254,"Ġinvolve":11255,"Ġbalance":11256,"Did":11257,"FY":11258,"hs":11259,"Ġ\"*":11260,"Ġaligned":11261,"boss":11262,"spot":11263,"Ġmappings":11264,"Ġconstantly":11265,"Ġavailability":11266,"recursive":11267,"RAM":11268,"nil":11269,"Ġincons":11270,"nose":11271,"$((":11272,"ĠPartition":11273,"ascii":11274,"Ġ119":11275,"thanks":11276,"647":11277,"ĠReal":11278,"504":11279,"Ġmid":11280,"SSD":11281,"scal":11282,"Ġgreen":11283,"CY":11284,"xprt":11285,"Ġarmv":11286,"ĠĠĠĠĠĠĠĠĠĠĠĠĠĠĠĠĠĠĠĠĠĠĠĠĠĠĠĠĠĠĠĠĠĠĠĠĠĠĠ":11287,"sysv":11288,"Ġprim":11289,"Ġresolves":11290,"EMU":11291,"Ġduration":11292,"ĠSUB":11293,"vars":11294,"Ġdecent":11295,"Ġequipment":11296,"CONNECT":11297,"Ġpayload":11298,"010":11299,"915":11300,"Ġacting":11301,"Anyway":11302,"PH":11303,"nodes":11304,"rown":11305,"Ġ\":":11306,"Ġunchanged":11307,"924":11308,"ĠGentoo":11309,"Ġhtml":11310,"fixed":11311,"Ġroughly":11312,"ational":11313,"Ġshrink":11314,"Ġdiagram":11315,"Ġmaintained":11316,"IPTABLES":11317,"Call":11318,"ĠBASH":11319,"Ġhighlight":11320,"calls":11321,"Ġensures":11322,"Ġcombinations":11323,"Ġinvestigate":11324,"Ġmalicious":11325,"[.":11326,"ees":11327,"iding":11328,"Ġdegraded":11329,"writes":11330,"ĠSTATE":11331,"relevant":11332,"identity":11333,"Ġutilization":11334,"Otherwise":11335,"304":11336,"NONE":11337,"each":11338,"nmcli":11339,"Ġ1460":11340,"Bm":11341,"aud":11342,"cow":11343,"year":11344,"udisks":11345,"Ġart":11346,"Ġdeletion":11347,"ĠFollow":11348,"Ġlifetime":11349,"rets":11350,"Ġhexadecimal":11351,")):":11352,"Pr":11353,"Ġctrl":11354,"Ġreve":11355,"ĠFl":11356,"258":11357,"added":11358,"276":11359,"compare":11360,"Ġadmins":11361,"words":11362,"ĠBit":11363,"itative":11364,"rought":11365,"550":11366,"560":11367,"Ġpinging":11368,"eshot":11369,"Ġscenarios":11370,"ĠMessage":11371,"mdstat":11372,"Ġwinbind":11373,"IFREG":11374,"brew":11375,"Ġaccurate":11376,"rest":11377,"Ġnvidia":11378,"Ġ|--":11379,"Ġaggreg":11380,"ĠEXIT":11381,"Ġticket":11382,"Ġunders":11383,"artic":11384,"loaded":11385,"Ġblue":11386,"Ġ3600":11387,"Ġconstrain":11388,"UFW":11389,"asm":11390,"Ġ188":11391,"567":11392,"ttyS":11393,"wav":11394,"Ġinfl":11395,"Ġassist":11396,"days":11397,"LINUX":11398,"Ġlookups":11399,"Ġsemantics":11400,"pod":11401,"Ġrefs":11402,"ĠDate":11403,"Ġ301":11404,"Array":11405,"Cred":11406,"fill":11407,"Send":11408,"nodb":11409,"Hub":11410,"csh":11411,"ĠThose":11412,"ĠĠĠĠĠĠĠĠĠĠĠĠĠĠĠĠĠĠĠĠĠĠĠĠĠĠĠĠĠĠĠĠĠĠĠ":11413,"Ġthinks":11414,"Ġdeletes":11415,"VALID":11416,"Ġreliably":11417,"credentials":11418,"Ġug":11419,"ĠSmart":11420,"379":11421,"Ġforms":11422,"Ġscopeid":11423,"PasswordAuthentication":11424,"liner":11425,"Having":11426,"WP":11427,"Format":11428,"drm":11429,"ĠPoint":11430,"Ġvars":11431,"ĠLast":11432,"Ġchoices":11433,"\"),":11434,"tb":11435,"Ġ([":11436,"Ġraspberry":11437,"Ġlogon":11438,"804":11439,"())":11440,"ĠSecure":11441,"Ġstandalone":11442,"VS":11443,"ĠDD":11444,"=\"\\":11445,"layer":11446,"Ġlearned":11447,"luetooth":11448,"RM":11449,"acpi":11450,"ocations":11451,"byname":11452,"BUS":11453,"Point":11454,"about":11455,"Notice":11456,"Ġerase":11457,"AliveInterval":11458,",/":11459,"tin":11460,"ĠGIT":11461,"Ġcomparing":11462,"lowfish":11463,"ATEWAY":11464,"ducing":11465,"tex":11466,"ecode":11467,"ĠAH":11468,"Ġsubstring":11469,"recover":11470,"Solution":11471,"GO":11472,"batch":11473,"Ġfatal":11474,"ogether":11475,"aved":11476,"Ġnagios":11477,"Ġprof":11478,"Ġemacs":11479,"Ġpowerful":11480,"ĠDigital":11481,"KiB":11482,"Ġfashion":11483,"stty":11484,"Ġlicense":11485,"ĠEvents":11486,"Ġdeep":11487,"ĠFamily":11488,"Additionally":11489,"blob":11490,"eal":11491,"oneshot":11492,"Ġusr":11493,"ĠUnless":11494,"ĠAdditionally":11495,"Ġdatac":11496,"ĠSNMP":11497,"Ġmarks":11498,"Ġfts":11499,"ĠCEST":11500,"Ġtunnels":11501,"ARGS":11502,"=()":11503,"DAT":11504,"oss":11505,"Ġhyp":11506,"Ġforum":11507,"ĠCustom":11508,"Real":11509,"Ġcustomers":11510,"arbage":11511,"WER":11512,"Ġprinters":11513,"Ġcaptured":11514,"ĠPhysical":11515,">=":11516,"Cpu":11517,"ĠEBS":11518,"Ġpresence":11519,"Ġ2097":11520,"Ġremoval":11521,"SCRIPT":11522,"ĠTHE":11523,"peer":11524,"Ġfilled":11525,"Ġopposite":11526,"Cap":11527,"di":11528,"Ġversa":11529,"TPO":11530,"Ġtopology":11531,"Ġignores":11532,"Lock":11533,"Sy":11534,"nm":11535,"arc":11536,"968":11537,"Ġinsight":11538,"collect":11539,"containers":11540,"MSS":11541,"lb":11542,"Ġredis":11543,"token":11544,"ĠHome":11545,"=\"-":11546,"Ġbrute":11547,"Ġordering":11548,"relative":11549,"sens":11550,"tv":11551,"Ġ(!":11552,"Ġjq":11553,"Ġfiltered":11554,"ĠâĶľâĶĢâĶĢâĶĢâĶĢâĶĢâĶĢâĶĢâĶĢâĶĢâĶĢâĶĢâĶĢâĶĢâĶĢâĶĢâĶĢ":11555,"Tcp":11556,"avi":11557,"RIVER":11558,"seek":11559,"ercial":11560,"LB":11561,"would":11562,"Ġbt":11563,"Ġmag":11564,"rootfs":11565,"ellow":11566,"348":11567,"Ġ195":11568,"ĠOpenBSD":11569,"pective":11570,"PermitRootLogin":11571,"fstat":11572,"dirty":11573,"contin":11574,"Ġoctal":11575,"Actually":11576,"GHz":11577,"[=":11578,"onent":11579,"ĠWR":11580,"mountpoint":11581,"dg":11582,"dro":11583,"Ġ160":11584,"ï¿½ï¿½":11585,"haproxy":11586,"iate":11587,"otion":11588,"Ġ2024":11589,"Anyone":11590,"Ġapproaches":11591,"Ġregards":11592,"Ġfaulty":11593,"KERNEL":11594,"gw":11595,"Ġconsequ":11596,"Ġchunks":11597,"ĠTiB":11598,"ebang":11599,"260":11600,"Ġforwards":11601,"ĠShare":11602,"Ġmixed":11603,"agram":11604,"Ġyours":11605,"Ġappending":11606,"::::":11607,"Ġemit":11608,"Ġgrace":11609,"Ġsmtpd":11610,"Ġnss":11611,"istd":11612,"=$'\\":11613,"Ġhighest":11614,"Col":11615,"WE":11616,"hex":11617,"Ġauid":11618,"Ġdies":11619,"Ġ148":11620,"ĠCo":11621,"ĠPr":11622,"ĠHe":11623,"redacted":11624,"ĠUsage":11625,"Ġlabels":11626,"ĠIdentityFile":11627,"ĠLOCAL":11628,"hint":11629,"ntfs":11630,"logger":11631,"Ġnotation":11632,"806":11633,"Ġissuing":11634,"meminfo":11635,"Save":11636,"Ġfly":11637,"Ġgate":11638,"Ġshorter":11639,"illy":11640,"Ġeleg":11641,"results":11642,"ĠReturns":11643,"elm":11644,"Ġunplug":11645,"ACL":11646,"Ġ002":11647,"Exp":11648,"origin":11649,"initialized":11650,"ĠPXE":11651,"ipal":11652,"oder":11653,"afka":11654,"ĠSeq":11655,"MC":11656,"dummy":11657,"lation":11658,"Ġ245":11659,"ĠAns":11660,"ĠPASS":11661,"ĠLine":11662,"Ġprimit":11663,"subtree":11664,"FFFF":11665,"Direct":11666,"ZZ":11667,"ico":11668,"netmask":11669,"Ġ209":11670,"445":11671,"060":11672,"Ġwireshark":11673,"MAN":11674,"noc":11675,"Ġ/>":11676,"ĠAuto":11677,"ĠDN":11678,"sshfs":11679,"265":11680,"UNTPO":11681,"Ġdiagnose":11682,"Ġwatchdog":11683,"Ġmaps":11684,"009":11685,"Ġcrond":11686,"Ġindividually":11687,"Ġmentions":11688,"\"`":11689,"Ġ135":11690,"small":11691,"YYY":11692,"Ġsegments":11693,"Ġconjunction":11694,"Ġyesterday":11695,"Ġtiming":11696,"???":11697,"Ġreaches":11698,"Ġshutting":11699,"original":11700,"Administr":11701,"IZ":11702,"Kill":11703,"mtune":11704,"Ġbackward":11705,"threads":11706,"Ġinterrupts":11707,"Ġcriter":11708,"pcrlock":11709,"nown":11710,"remount":11711,"INUX":11712,"Ġavahi":11713,"Ġphase":11714,"Ġstraightforward":11715,"Ġnft":11716,"ĠISA":11717,"Ġaspect":11718,"ĠWindow":11719,"Ġserves":11720,"ĠAssuming":11721,"/?":11722,"Ġur":11723,"Ġsubset":11724,"ĠSIGINT":11725,"computer":11726,"/...":11727,"Â¹":11728,"ĠBEGIN":11729,"Ġ106":11730,"Ġnewest":11731,"Additional":11732,"OC":11733,"kk":11734,"ĠSR":11735,"1080":11736,"Ġwordpress":11737,"Ġperspective":11738,"Ġhits":11739,"ĠSy":11740,"ucceed":11741,"Ġexperiencing":11742,"udevd":11743,"final":11744,"iated":11745,"inside":11746,"Ġpredict":11747,"ARRAY":11748,"ECDH":11749,"âĢĻ:":11750,"ĠGuide":11751,"Ġmorning":11752,"*,":11753,"Des":11754,"gvfs":11755,"zf":11756,"again":11757,"Ġunprivileged":11758,"367":11759,"Cannot":11760,"ĠATA":11761,"had":11762,"ohn":11763,"Ġinotify":11764,"idmap":11765,"Ġjson":11766,"extensions":11767,"ĠOOM":11768,"STAGE":11769,"Ġdefining":11770,"accessible":11771,"BUGS":11772,"Ġscre":11773,"neg":11774,"Ġcleared":11775,"TRFS":11776,"Ġapplying":11777,"Ġskipping":11778,"ĠURLs":11779,"Â°":11780,"Ġmoney":11781,"Ġspend":11782,"STD":11783,"cdrom":11784,"Ġpresented":11785,"Ġadapters":11786,"ĠNOPASSWD":11787,"RIGHT":11788,"Ping":11789,"minimal":11790,"995":11791,"mkfs":11792,"codec":11793,"ara":11794,"irable":11795,"Ġreadline":11796,"Ġeverywhere":11797,"MBER":11798,"ĠmacOS":11799,"????????":11800,"Ġunusual":11801,"ĠAnsible":11802,"355":11803,"Ġ${#":11804,"Ġ644":11805,"014":11806,"Ġsuspic":11807,"Ġadditionally":11808,"ĠCapabilities":11809,"nvidia":11810,"ropy":11811,"Ġprob":11812,"KDF":11813,"Map":11814,"None":11815,"Ġ'*":11816,"ĠContainer":11817,"MySQL":11818,"Ġimplementing":11819,"Ġaccepting":11820,"Ġxdrproc":11821,"Ġbenchmark":11822,"=.":11823,"rh":11824,"uro":11825,"seed":11826,"Ġ4000":11827,":///":11828,"ancer":11829,":]":11830,"Ġbought":11831,"Ġuninstall":11832,"Ġ...)":11833,"Ġdeleg":11834,"Ġinsmod":11835,"OFF":11836,"PROTO":11837,"Ġfeedback":11838,"ĠAccording":11839,"Ġunsure":11840,"Ġsimilarly":11841,"rivile":11842,"AAAAAAAA":11843,"whoami":11844,"allengeResponse":11845,"ĠRequirements":11846,"Mbps":11847,"tions":11848,"onic":11849,"ĠSW":11850,"ONES":11851,"Ġharder":11852,"Ġtuning":11853,"Perhaps":11854,"RU":11855,"magic":11856,"acement":11857,"unconfined":11858,"Ġstory":11859,"Bl":11860,"Git":11861,"Kit":11862,"Ġpm":11863,"interrupt":11864,"Ġ));":11865,"Ġdhcpcd":11866,"schedul":11867,"ker":11868,"Ġ----":11869,"adcom":11870,"ĠDMA":11871,"useradd":11872,"quotes":11873,"cop":11874,"etary":11875,"unistd":11876,"ĠFalse":11877,"ĠHigh":11878,"Ġ71":11879,"8859":11880,"Ġstandards":11881,"Ġelegant":11882,"dam":11883,"mint":11884,"Ġfuse":11885,"ĠSeries":11886,"Ġprox":11887,"388":11888,"353":11889,"ĠInterrupt":11890,"generated":11891,"ĠOffset":11892,"allengeResponseAuthentication":11893,"uu":11894,"Ġwake":11895,"aconda":11896,"these":11897,"Ġwilling":11898,"apsed":11899,"Ġmodprobe":11900,"TPRO":11901,"Ġassignments":11902,"STRING":11903,".<":11904,"socat":11905,"Ġrelies":11906,"Ġmeg":11907,"ĠIPC":11908,"Ġenumer":11909,"537":11910,"alog":11911,"Ġlogger":11912,"colors":11913,"Ġtimeouts":11914,"guide":11915,"Ġsilently":11916,"Ġhundreds":11917,"Ġhistor":11918,"icates":11919,"ĠDaemon":11920,"slow":11921,"}-":11922,"Ġfake":11923,"Ġzer":11924,"Ġexistence":11925,"}\";":11926,"activate":11927,"ifest":11928,"ulk":11929,"ATCH":11930,"ixed":11931,"Index":11932,"Ġreceiver":11933,"Setup":11934,"Ġsorry":11935,"really":11936,"Ġdc":11937,"Force":11938,"='\\":11939,"Ġpings":11940,"Display":11941,"bi":11942,"tm":11943,"1072":11944,"ĠInternal":11945,"Ġuptime":11946,"CTL":11947,"Ġdistinct":11948,"Ġinner":11949,"icator":11950,"deprecated":11951,"ĠĠĠĠĠĠĠĠĠĠĠĠĠĠĠĠĠĠĠĠĠĠĠĠĠĠĠĠĠĠĠĠĠĠĠĠĠĠ":11952,"Conf":11953,"Project":11954,"IKE":11955,"SUP":11956,"eff":11957,"mips":11958,"Ġpf":11959,"Ġmere":11960,"Ġunquoted":11961,"Ġfloat":11962,"Ġexceeded":11963,"bidden":11964,"Ġnop":11965,"ĠNagios":11966,"ĠXeon":11967,"NORE":11968,"Ġdelivery":11969,"%{":11970,"Obviously":11971,"elay":11972,"ĠHIST":11973,"pathname":11974,"Ġslab":11975,"\"/>":11976,"Configure":11977,"YPT":11978,"enum":11979,"ĠUH":11980,"netns":11981,"override":11982,"Ġbuilds":11983,"ĠLogin":11984,"Ġoptimized":11985,"Internet":11986,"restrictions":11987,"Ġmandatory":11988,"Book":11989,"WAR":11990,"ntry":11991,"Ġextracted":11992,"Ġdiagnostics":11993,"acert":11994,"Ġ117":11995,"ĠSU":11996,"Ġxml":11997,"......":11998,"ĠĠĠĠĠĠĠĠĠĠĠĠĠĠĠčĊ":11999,"Ġfiber":12000,"Ġoracle":12001,"ĠDOS":12002,"iproute":12003,"everse":12004,"Ġmechanisms":12005,"ony":12006,"ĠAIX":12007,"Ġreplicate":12008,"Ġiteration":12009,"350":12010,"Ġincompatible":12011,"rored":12012,"trunc":12013,"065":12014,"Ġbrand":12015,"Ġfreez":12016,"Ġavoids":12017,"Ġbreaking":12018,"ĠANSI":12019,"inf":12020,"ĉĉĉĠĠĠĠĠ":12021,"Init":12022,"ĠServers":12023,"subdir":12024,"orizedKeys":12025,"âĢĿ.":12026,"ĠWireshark":12027,"Ġ/^":12028,"ordered":12029,"Ġdisplaying":12030,"Ġdhcpd":12031,"Ġpressed":12032,"ĠCygwin":12033,"Ġ262144":12034,"xorg":12035,"Ġpred":12036,"Ġxprt":12037,"ITION":12038,"Ġworried":12039,"TOP":12040,"Ġbluetooth":12041,"ĠCTRL":12042,"Ġkeyring":12043,"userauth":12044,"optim":12045,"Ġstripe":12046,"NA":12047,"drwxrwxrwx":12048,"ĠMedia":12049,"ADMIN":12050,"Ġconfusion":12051,"NX":12052,"\\|":12053,"myn":12054,"oh":12055,"ichael":12056,"019":12057,"regular":12058,"CONTROL":12059,"Ġorganization":12060,"Ġbrief":12061,"ĠSuch":12062,"Ġkrb":12063,"Ġsupporting":12064,"getty":12065,"ĉĉĉĉĠĠĠĠ":12066,"Ġtransform":12067,"cellent":12068,"Creating":12069,"ugepages":12070,"312":12071,"Has":12072,"Text":12073,"reason":12074,"alnum":12075,"Ġvariety":12076,"868":12077,"287":12078,"Ġgitlab":12079,"Ġrecorded":12080,"ĠSERVICE":12081,"#/":12082,"ĠSuccess":12083,"ĠNF":12084,"Ġjoined":12085,"npm":12086,"Ġstupid":12087,"Ġinstr":12088,"Ġ\\)":12089,"387":12090,"Ġprefixed":12091,"MOVE":12092,"Ġdelays":12093,"408":12094,"Ġpmap":12095,"ĠFinally":12096,"Ġexecve":12097,"Ġretain":12098,"LOB":12099,"SVCXPRT":12100,"Num":12101,"Ġquality":12102,"Ġexpos":12103,"Ġsvcerr":12104,"Ġrack":12105,"Ġstands":12106,"Ġ['":12107,"ĠModel":12108,"Ġtransferring":12109,"Ġdos":12110,"ĠSTATUS":12111,"AVE":12112,"GSS":12113,"Ġxt":12114,"Ġhd":12115,"Ġasynchronous":12116,"angling":12117,"ERE":12118,"ĠVari":12119,"Ġpossibilities":12120,"ĠINVALID":12121,"Ġimplements":12122,"PCI":12123,"Ġbusybox":12124,"¼âĶĢâĶĢâĶĢâĶĢâĶĢâĶĢâĶĢâĶĢâĶĢâĶĢâĶĢâĶĢâĶĢâĶĢâĶĢâĶ¼âĶĢâĶĢâĶĢâĶĢâĶĢâĶĢâĶĢâĶĢâĶĢâĶ¤":12125,">;":12126,"Huge":12127,"invalid":12128,"Ġwhitelist":12129,"Ġrarely":12130,"icity":12131,"Ġargc":12132,"modify":12133,"ĠEnvironment":12134,"ĠâĶľâĶĢâĶĢâĶĢâĶĢâĶĢâĶĢâĶĢâĶĢâĶĢâĶĢâĶĢâĶĢâĶĢâĶĢâĶĢâĶĢâĶĢâĶĢâĶĢâĶĢâĶĢâĶĢâĶĢâĶĢâĶĢâĶĢâĶĢâĶĢâĶĢâĶĢâĶĢâĶĢâĶĢâĶĢâĶĢâĶĢâĶĢâĶĢâĶĢâĶĢâĶĢâĶĢâĶĢâĶĢâĶĢâĶĢâĶĢâĶĢâĶĢâĶĢâĶĢâĶĢâĶĢâĶĢâĶĢâĶĢâĶĢâĶĢâĶĢâĶĢâĶĢâĶĢâĶĢâĶĢâĶĢâĶĢâĶĢâĶĢâĶĢâĶĢâĶĢâĶĢâĶĢâĶĢâĶĢâĶĢâĶĢâĶĢâĶĢâĶĢâĶĢâĶĢâĶ":12135,"Ġcenter":12136,"Ġvmware":12137,"writable":12138,"âĶĢâĶĢâĶĢâĶĢâĶĢâĶĢâĶĢâĶĢâĶĢâĶĺ":12139,"Ġsuppressed":12140,"RANDOM":12141,"ĠâĶľâĶĢâĶĢâĶĢâĶĢâĶĢâĶĢâĶĢâĶĢâĶĢâĶĢâĶĢâĶĢâĶĢâĶĢâĶĢâĶĢâĶĢâĶĢâĶĢâĶĢâĶĢâĶĢâĶĢâĶĢâĶĢâĶĢâĶĢâĶĢâĶĢâĶĢâĶĢâĶĢâĶĢâĶĢâĶĢâĶĢâĶĢâĶĢâĶĢâĶĢâĶĢâĶĢâĶĢâĶĢâĶĢâĶĢâĶĢâĶĢâĶĢâĶĢâĶĢâĶĢâĶĢâĶĢâĶĢâĶĢâĶĢâĶĢâĶĢâĶĢâĶĢâĶĢâĶĢâĶĢâĶĢâĶĢâĶĢâĶĢâĶĢâĶĢâĶĢâĶĢâĶĢâĶĢâĶĢâĶĢâĶĢâĶĢâĶĢâĶĢâĶĢâĶĢâĶ¼âĶĢâĶĢâĶĢâĶĢâĶĢâĶĢâĶĢâĶĢâĶĢâĶĢâĶĢâĶĢâĶĢâĶĢâĶĢâĶ¼âĶĢâĶĢâĶĢâĶĢâĶĢâĶĢâĶĢâĶĢâĶĢâĶ¤":12142,"Hi":12143,"PK":12144,"burst":12145,"Ġ1194":12146,"Ġ(--":12147,"ĠPEM":12148,"fastq":12149,"Ġtechnically":12150,"=>":12151,"lined":12152,"nano":12153,"ada":12154,"2024":12155,"Ġcompletes":12156,"ahoo":12157,"ĠMonitor":12158,"SMTP":12159,"haust":12160,"+=(":12161,"LVM":12162,"Target":12163,"routing":12164,"Ġaim":12165,"Ġ222":12166,"Ġ239":12167,"ntlm":12168,"997":12169,"Ġattention":12170,"ĠDebug":12171,"Ġdistinguish":12172,"Sample":12173,"Therefore":12174,"RFC":12175,"Ġcave":12176,"Ġkvm":12177,":/#":12178,"029":12179,"generate":12180,"ĠMacro":12181,"Ġintegrated":12182,"âĶĢâĶĢâĶĢâĶĢâĶĢâĶĢâĶĢâĶĢâĶĢâĶĲ":12183,"Ġbenefits":12184,"XDG":12185,"click":12186,"dports":12187,"optional":12188,"Av":12189,"Ġcandid":12190,"Ġfprintf":12191,"Ġgc":12192,"Ġbecame":12193,"executable":12194,"Ġfixing":12195,"Ġcovered":12196,"lit":12197,"Ġpause":12198,"ĠSpace":12199,"into":12200,"bool":12201,"ĠConsider":12202,"Ġrenaming":12203,"Ġassociative":12204,"Computer":12205,"ACTION":12206,"Wire":12207,"sid":12208,"Ġstretch":12209,"ĠMX":12210,"ĠRestart":12211,"fpu":12212,"NIC":12213,"ek":12214,"Ġses":12215,"Ġmp":12216,"icen":12217,"Ġshopt":12218,"1100":12219,"770":12220,"969":12221,"584":12222,"prietary":12223,"deleted":12224,"Ġescaping":12225,"ĠADDR":12226,"grow":12227,"ecraft":12228,"ntl":12229,"Ġmyhost":12230,"clnt":12231,"QUERY":12232,"HTML":12233,"Ġinsecure":12234,"urable":12235,"ksum":12236,"302":12237,"Ġevaluate":12238,"kubernetes":12239,"Ġaa":12240,"ĠBIND":12241,"998":12242,"BOO":12243,"SVID":12244,"Ġpieces":12245,"ris":12246,"vda":12247,"ĠPuppet":12248,"Ġ\"$@":12249,"ĠĠĠĠĠĠĠĠĠĠĠĠĠĠčĊ":12250,"browser":12251,"Ġsix":12252,"ĠBluetooth":12253,"Ġ+\"%":12254,"Ġage":12255,"338":12256,"discard":12257,"Ġweekly":12258,"ĠOffering":12259,"....----....----":12260,"glibc":12261,"ONBOOT":12262,"Debug":12263,"eet":12264,"night":12265,"Thus":12266,"Ġ'(":12267,"Ġ:-":12268,"crit":12269,"Ġrepresented":12270,"Ġbonding":12271,"quick":12272,"Ġuncomment":12273,"ĠFQDN":12274,"issive":12275,"administr":12276,"TERNAL":12277,"LT":12278,"cam":12279,"hdd":12280,"mul":12281,"Ġtm":12282,"Ġpad":12283,"ague":12284,"endar":12285,"ĠTR":12286,"Ġincreases":12287,"Ġbesides":12288,"than":12289,"996":12290,"ĠRequires":12291,"Possible":12292,"ographic":12293,"ĠSwap":12294,"celer":12295,"ĠRTL":12296,"ookies":12297,"ĉĉĉĉĠ":12298,"Ġ198":12299,"anguage":12300,"Ġsigning":12301,"ĠDid":12302,"ĠGPL":12303,"Ġxf":12304,"Ġpiping":12305,"ĠSetup":12306,"blacklist":12307,"ombie":12308,"Ġ220":12309,"keyring":12310,"ANY":12311,"modified":12312,"680":12313,"coding":12314,"reclaim":12315,"Ġlu":12316,"Ġ113":12317,"ĠPrivate":12318,"ĠPowerPC":12319,"Model":12320,"nb":12321,"Ġnvme":12322,"Ġhibern":12323,"Ġinstallations":12324,"Ġtapes":12325,"tags":12326,"Ġoccasionally":12327,"?).":12328,"WK":12329,"XT":12330,"chool":12331,"Ġjenkins":12332,"ubectl":12333,"readline":12334,"Software":12335,"Ġzones":12336,"---+":12337,"Ġpreference":12338,"ĠCLONE":12339,"Ġtruncated":12340,"Ġgoogling":12341,"Ġdecompress":12342,")[":12343,"ORIG":12344,"Ġlsblk":12345,"ĠSIMD":12346,"sers":12347,"xffff":12348,"Ġapi":12349,"Ġunw":12350,"ĠKEX":12351,"Ġinfinity":12352,"Media":12353,"hole":12354,"Ġface":12355,"ĠDES":12356,"ĠMark":12357,"ĠBelow":12358,"ĠKill":12359,"Ġfinishes":12360,"hotplug":12361,"ĠPutty":12362,"Ġrevert":12363,"Ġreduced":12364,"ulations":12365,"ICMP":12366,"Ġaccounting":12367,"------+":12368,"Search":12369,"Ġimplicitly":12370,"Following":12371,"ĠIRQ":12372,"Cron":12373,"Kerberos":12374,"WRT":12375,"ĠCSV":12376,"ERT":12377,"ĠVAR":12378,"ovo":12379,"ĠYES":12380,"'$'\\":12381,"jpeg":12382,"UNTPOINT":12383,"$\"":12384,"CTRL":12385,"xl":12386,"Ġsides":12387,"conv":12388,"ĠOPTIONS":12389,"ours":12390,"646":12391,"Ġrestarts":12392,"Ġnetfilter":12393,"dma":12394,"Ġautofs":12395,"TPROTO":12396,"Ġdates":12397,"Ġ124":12398,"oof":12399,"776":12400,"Ġfallback":12401,"/:":12402,"jk":12403,"wlp":12404,"ptom":12405,"Ġattr":12406,"Ġexpired":12407,"Ġsimplify":12408,"Ġumac":12409,"GRAM":12410,"native":12411,"Ġlxc":12412,"Ġ::/":12413,"Internal":12414,"aspx":12415,"ĠAlternatively":12416,"authentication":12417,"ĠARC":12418,"ĠAutom":12419,"Ġholding":12420,"Ġdelivered":12421,"Action":12422,"sur":12423,"Ġwp":12424,"Ġcheckout":12425,"365":12426,"000000000":12427,"Ġrestriction":12428,"True":12429,"¬âĶĢâĶĢâĶĢâĶĢâĶĢâĶĢâĶĢâĶĢâĶĢâĶĢâĶĢâĶĢâĶĢâĶĢâĶĢâĶ¬âĶĢâĶĢâĶĢâĶĢâĶĢâĶĢâĶĢâĶĢâĶĢâĶĲ":12430,"´âĶĢâĶĢâĶĢâĶĢâĶĢâĶĢâĶĢâĶĢâĶĢâĶĢâĶĢâĶĢâĶĢâĶĢâĶĢâĶ´âĶĢâĶĢâĶĢâĶĢâĶĢâĶĢâĶĢâĶĢâĶĢâĶĺ":12431,"FB":12432,"Sometimes":12433,"bsd":12434,"requires":12435,"Ġbaz":12436,"Ġbrought":12437,"ĠLXC":12438,"ubkey":12439,"myfile":12440,"Ġfunctional":12441,"Ġiterate":12442,"FNR":12443,"SCP":12444,"dup":12445,"sessions":12446,"ĠMBytes":12447,"wordpress":12448,"Ġdiffers":12449,"OLD":12450,"ĠâĶĶâĶĢâĶĢâĶĢâĶĢâĶĢâĶĢâĶĢâĶĢâĶĢâĶĢâĶĢâĶĢâĶĢâĶĢâĶĢâĶĢâĶĢâĶĢâĶĢâĶĢâĶĢâĶĢâĶĢâĶĢâĶĢâĶĢâĶĢâĶĢâĶĢâĶĢâĶĢâĶĢâĶĢâĶĢâĶĢâĶĢâĶĢâĶĢâĶĢâĶĢâĶĢâĶĢâĶĢâĶĢâĶĢâĶĢâĶĢâĶĢâĶĢâĶĢâĶĢâĶĢâĶĢâĶĢâĶĢâĶĢâĶĢâĶĢâĶĢâĶĢâĶĢâĶĢâĶĢâĶĢâĶĢâĶĢâĶĢâĶĢâĶĢâĶĢâĶĢâĶĢâĶĢâĶĢâĶĢâĶĢâĶĢâĶĢâĶĢâĶĢâĶĢâĶĢâĶ":12451,"Ġviol":12452,"âĶĢâĶĢâĶĢâĶĢâĶĢâĶĢâĶĢâĶĢâĶĢâĶĢâĶĢâĶĢâĶĢâĶĢâĶĢâĶĢâĶĢâĶĢâĶĢâĶĢâĶĢâĶĢâĶĢâĶĢâĶĢâĶĢâĶĢâĶĢâĶĢâĶĢâĶĢâĶĢâĶĢâĶĢâĶĢâĶĢâĶĢâĶĢâĶĢâĶĢâĶĢâĶĢâĶĢâĶĢâĶĢâĶĢâĶĢâĶĢâĶĢâĶĢâĶĢâĶĢâĶĢâĶĢâĶĢâĶĢâĶĢâĶĢâĶĢâĶĢâĶĢâĶĢâĶĢâĶĢâĶĢâĶĢâĶĢâĶĢâĶĢâĶĢâĶĢâĶĢâĶĢâĶĢâĶĢâĶĢâĶĢâĶĢâĶĢâĶĢâĶĢâĶĢâĶ¬âĶĢâĶĢâĶĢâĶĢâĶĢâĶĢâĶĢâĶĢâĶĢâĶĢâĶĢâĶĢâĶĢâĶĢâĶĢâĶ¬âĶĢâĶĢâĶĢâĶĢâĶĢâĶĢâĶĢâĶĢâĶĢâĶĲ":12453,"ĠâĶĮâĶĢâĶĢâĶĢâĶĢâĶĢâĶĢâĶĢâĶĢâĶĢâĶĢâĶĢâĶĢâĶĢâĶĢâĶĢâĶĢâĶĢâĶĢâĶĢâĶĢâĶĢâĶĢâĶĢâĶĢâĶĢâĶĢâĶĢâĶĢâĶĢâĶĢâĶĢâĶĢâĶĢâĶĢâĶĢâĶĢâĶĢâĶĢâĶĢâĶĢâĶĢâĶĢâĶĢâĶĢâĶĢâĶĢâĶĢâĶĢâĶĢâĶĢâĶĢâĶĢâĶĢâĶĢâĶĢâĶĢâĶĢâĶĢâĶĢâĶĢâĶĢâĶĢâĶĢâĶĢâĶĢâĶĢâĶĢâĶĢâĶĢâĶĢâĶĢâĶĢâĶĢâĶĢâĶĢâĶĢâĶĢâĶĢâĶĢâĶĢâĶĢâĶĢâĶ¬âĶĢâĶĢâĶĢâĶĢâĶĢâĶĢâĶĢâĶĢâĶĢâĶĢâĶĢâĶĢâĶĢâĶĢâĶĢâĶ¬âĶĢâĶĢâĶĢâĶĢâĶĢâĶĢâĶĢâĶĢâĶĢâĶĲ":12454,"ĠâĶĶâĶĢâĶĢâĶĢâĶĢâĶĢâĶĢâĶĢâĶĢâĶĢâĶĢâĶĢâĶĢâĶĢâĶĢâĶĢâĶĢâĶĢâĶĢâĶĢâĶĢâĶĢâĶĢâĶĢâĶĢâĶĢâĶĢâĶĢâĶĢâĶĢâĶĢâĶĢâĶĢâĶĢâĶĢâĶĢâĶĢâĶĢâĶĢâĶĢâĶĢâĶĢâĶĢâĶĢâĶĢâĶĢâĶĢâĶĢâĶĢâĶĢâĶĢâĶĢâĶĢâĶĢâĶĢâĶĢâĶĢâĶĢâĶĢâĶĢâĶĢâĶĢâĶĢâĶĢâĶĢâĶĢâĶĢâĶĢâĶĢâĶĢâĶĢâĶĢâĶĢâĶĢâĶĢâĶĢâĶĢâĶĢâĶĢâĶĢâĶĢâĶĢâĶĢâĶ´âĶĢâĶĢâĶĢâĶĢâĶĢâĶĢâĶĢâĶĢâĶĢâĶĢâĶĢâĶĢâĶĢâĶĢâĶĢâĶ´âĶĢâĶĢâĶĢâĶĢâĶĢâĶĢâĶĢâĶĢâĶĢâĶĺ":12455,">)":12456,"XOPEN":12457,"ZONES":12458,"mariadb":12459,"tutorial":12460,"Ġpen":12461,"Ġpending":12462,"acut":12463,"Ġ``":12464,"ĠHostname":12465,"Ġmerged":12466,"planation":12467,"Replace":12468,"ĠPerform":12469,"Ġcomplexity":12470,"Ġstrictly":12471,"kes":12472,"Ġrend":12473,"Ġforces":12474,"actory":12475,"Reboot":12476,"Ġlayers":12477,"Ġadministrators":12478,"Ġmeet":12479,"issues":12480,"Simple":12481,"Ġmanipulate":12482,"Ġcriteria":12483,"Again":12484,"Ġarrow":12485,"UTO":12486,"ĠKubernetes":12487,"CTYPE":12488,"pubkey":12489,"esome":12490,"ĠAgent":12491,"ĠNothing":12492,"Ġlogout":12493,"Ġoccup":12494,"RACE":12495,"Ġdiagnos":12496,"Ġfocus":12497,"%]":12498,"roff":12499,"ĠBE":12500,"Ġ108":12501,"Ġintend":12502,"authority":12503,"Ġelev":12504,"Ġinstrument":12505,"Python":12506,"Ġruby":12507,"extract":12508,"ĠTerm":12509,"aka":12510,"Ġlistens":12511,"vided":12512,"dry":12513,"hy":12514,"Ġmails":12515,"Ġ246":12516,"346":12517,"lessly":12518,"Ġbrace":12519,"ABASE":12520,"Servers":12521,"Ġcpuset":12522,"Ġnicely":12523,"eue":12524,"Ġrekey":12525,"Ġxyz":12526,"ELF":12527,"mktemp":12528,"ariaDB":12529,"VZ":12530,"easy":12531,"Ġincomplete":12532,"Ġhear":12533,"Ġdatas":12534,"ĠPostgreSQL":12535,"Ġprecisely":12536,"+)":12537,"hub":12538,"sb":12539,"uction":12540,"Invalid":12541,"048":12542,"Ġfunc":12543,"Ġordered":12544,"Ġarticles":12545,"amazonaws":12546,"Ġprepare":12547,"/$(":12548,"20000":12549,"orary":12550,"Ġgarbage":12551,"ĠSEC":12552,"lose":12553,"Ġ105":12554,"STOP":12555,"347":12556,"resources":12557,"permanent":12558,"[-":12559,"Ġsuite":12560,"rootDirectory":12561,"926":12562,"multiple":12563,"themes":12564,"Audio":12565,"Normally":12566,"Ġbpf":12567,"ĠIKE":12568,"ĠBase":12569,"coreutils":12570,"MIB":12571,"Ġinterrupted":12572,"Ġcool":12573,"ascript":12574,"ĠAudio":12575,"endors":12576,"Ġ[.],":12577,"ĠFP":12578,"FIL":12579,"12345":12580,"Ġspread":12581,"ĠServerName":12582,"ĠRelease":12583,"Engine":12584,"Ġcoreutils":12585,"protected":12586,"weekly":12587,"counter":12588,"rew":12589,"abbit":12590,"Ġcanonical":12591,"elog":12592,"ĠOrder":12593,"Ġcarry":12594,"Ġconcurrent":12595,"PREFIX":12596,"until":12597,"ĠOPT":12598,"urns":12599,"Ġdetach":12600,"NODE":12601,"Ġsyncing":12602,"Ġpresumably":12603,"Sense":12604,"oll":12605,"ĠWS":12606,"Ġnohup":12607,"Ġinputs":12608,"Ġproducts":12609,"OU":12610,"Ġ).":12611,"erved":12612,"Ġkerberos":12613,"Ġweight":12614,"540":12615,"ĠProblem":12616,"AMD":12617,"Ġraise":12618,"Gbps":12619,"Ġsake":12620,"Ġoverwriting":12621,"versity":12622,"cost":12623,"mach":12624,"Ġcookie":12625,"Ġexcellent":12626,"Ġparams":12627,"Ġtransmit":12628,"Ġpiped":12629,"VIRT":12630,"Ġmkfs":12631,"never":12632,"ĠLSI":12633,"ĠTS":12634,"Ġwanting":12635,"Ġlinear":12636,"337":12637,"serving":12638,"cient":12639,"blowfish":12640,"gest":12641,"gdb":12642,"Ġnarrow":12643,"Ġpropos":12644,"ĠNIS":12645,"Ġworkgroup":12646,"Ġreader":12647,"Ġ9000":12648,"@<":12649,"orth":12650,"ĠTEST":12651,"Ġffmpeg":12652,"ĠAttempt":12653,")...":12654,"6000":12655,"Known":12656,"best":12657,"ann":12658,"Ġ116":12659,"ssue":12660,"ĠDuplic":12661,"Ġbackwards":12662,"Ġcarefully":12663,"Ġdistribute":12664,"Ġincorrectly":12665,"HugePages":12666,"pol":12667,"tem":12668,"Ġgssapi":12669,"ĠSLIST":12670,"Ġshebang":12671,"ĠCron":12672,"Ġaside":12673,"ĠPORT":12674,"ĠWorld":12675,"UPS":12676,"Ġ===":12677,"respons":12678,"Ġspeaking":12679,"HINE":12680,"Ġ138":12681,"ĠAMI":12682,"Ġcharset":12683,"Ġguy":12684,"Ġsubstitute":12685,"ĠResult":12686,"mall":12687,"ybox":12688,"Ġulimit":12689,"Ġ1048576":12690,"334":12691,"568":12692,"++;":12693,"Ġdownloads":12694,"winbind":12695,"Ġmeaningful":12696,"Mozilla":12697,"([^":12698,"wi":12699,"Ġbios":12700,"amb":12701,"outh":12702,"018":12703,"Store":12704,"Ġmailing":12705,"ĠSIGTERM":12706,"xvda":12707,"Ġsquare":12708,"Ġunstable":12709,"Ġpreserved":12710,"ertype":12711,"354":12712,"README":12713,"65536":12714,"FIN":12715,"Hardware":12716,"rfc":12717,"ttp":12718,"Ġratio":12719,"Ġ|-":12720,"483":12721,"298":12722,"Ġuuid":12723,"addresses":12724,"dy":12725,"Ġcgroups":12726,"Ġenforce":12727,"Ġexpire":12728,"possibly":12729,"Ġsetups":12730,"Short":12731,"Ġdigest":12732,"mysqldump":12733,"Ġprimitive":12734,"Rest":12735,"Vari":12736,"jav":12737,"Ġtokens":12738,"994":12739,"506":12740,"Ġrotation":12741,"ĠHDMI":12742,"Ġobsolete":12743,"Ġcorporate":12744,"380":12745,"View":12746,"rible":12747,"ocom":12748,"jaro":12749,"AK":12750,"NEXT":12751,"Pool":12752,"Ġforth":12753,"Ġneighb":12754,"Ġbob":12755,"execve":12756,"Package":12757,"Handler":12758,"hen":12759,"wm":12760,"Ġanalyzer":12761,"Ġlin":12762,"delta":12763,"Ġconform":12764,"ĠSAM":12765,"357":12766,"Ġtransition":12767,"Ġmultiply":12768,"Ġinteractively":12769,"Ġslice":12770,"adays":12771,"766":12772,"=''":12773,"Ġruleset":12774,"pcap":12775,"namespace":12776,"Ġnameservers":12777,"></":12778,"LABEL":12779,"Ġ102":12780,"Ġ808":12781,"Ġrecv":12782,"Ġtunneling":12783,"PROXY":12784,"Ġdemand":12785,"coded":12786,"rsnapshot":12787,"Ġ524":12788,"ĠVendor":12789,"Stream":12790,"Ġcloses":12791,"Ġfastest":12792,"Ġpreceding":12793,"Override":12794,"gle":12795,"Ġprobe":12796,"ĠLED":12797,"readlink":12798,"wrt":12799,"ĠEncrypt":12800,"Success":12801,"ilus":12802,"Ġ*,":12803,"Ġ<--":12804,"Ġregexp":12805,"Ġflav":12806,"Ġwireguard":12807,"lining":12808,"Bad":12809,"Gr":12810,"mid":12811,"ista":12812,"aku":12813,"CHECK":12814,"Ġcycles":12815,"Library":12816,"uce":12817,"Ġou":12818,"odet":12819,"topic":12820,"autilus":12821,"ĠQEMU":12822,"sect":12823,"Ġ-----------------":12824,"Ġ212":12825,"idence":12826,"0400":12827,"sterisk":12828,"Similar":12829,"GV":12830,"Long":12831,"aligned":12832,"AINER":12833,"Ġsafer":12834,"Ġunderscore":12835,"(-":12836,"Ġten":12837,"ĠNaN":12838,"Ġparted":12839,"556":12840,"Ġpathnames":12841,"LDER":12842,"reverse":12843,"Ġretrans":12844,"ATTERN":12845,"Ġparser":12846,"ILITY":12847,"\\\\\\\\":12848,"fields":12849,"ĠAck":12850,"507":12851,"359":12852,"sizeof":12853,"Ġ`--":12854,"Ġtranslate":12855,"iseconds":12856,"Ġdivid":12857,"ĠFind":12858,"Ġimpl":12859,"REMOTE":12860,"Ġweak":12861,"Ġvalidate":12862,"ĠSets":12863,"Ġsticky":12864,"Ed":12865,"GA":12866,"fh":12867,"wa":12868,"Ġcul":12869,"ĠDATA":12870,"ĠVT":12871,"Ġduplicates":12872,"ĠProxyCommand":12873,"ĠSVN":12874,"Ġbucket":12875,"Ġ114":12876,"Ġvan":12877,"554":12878,"095":12879,"Ġfwmark":12880,"ĠHOME":12881,"Magick":12882,"Screen":12883,"crw":12884,"kali":12885,"ĠDEVICE":12886,"ExecStartPre":12887,"Ġprimarily":12888,"Ġcomfort":12889,"Ġcommercial":12890,"Ġmyfile":12891,"ĠUI":12892,"Ġmaj":12893,"ĠGot":12894,"eger":12895,"ĠTransfer":12896,"Ignore":12897,"1010":12898,"beh":12899,"manage":12900,"Ġcsv":12901,"649":12902,"bugs":12903,"ĠVI":12904,"Ġ176":12905,"Ġguid":12906,"Ġaws":12907,"Ġingress":12908,"NY":12909,"cg":12910,"ĠIDE":12911,"ĠHard":12912,"Ġ146":12913,"bbb":12914,"cryptsetup":12915,"ĠHDDs":12916,"ĠEntering":12917,"eren":12918,"Ġ\"./":12919,"plete":12920,"ĠUFW":12921,"505":12922,"getent":12923,"269":12924,"ĠProject":12925,"}/${":12926,"ĠDIR":12927,"\"-":12928,"FDC":12929,"GATEWAY":12930,"Ġ118":12931,"ĠSquid":12932,"avid":12933,"Ġcompan":12934,"Ġethertype":12935,"cmdline":12936,"legacy":12937,"ĠGnu":12938,"ĠSOCKS":12939,"Ġtheoret":12940,"ĠSTR":12941,"Ġintercept":12942,"Ġsshfs":12943,"ĠĠĠĠĠĠĠĠĠĠĠĠĠĠĠĠĠĠĠčĊ":12944,"------------------------------------------------------------------------":12945,"OPTION":12946,"Writ":12947,"car":12948,"Ġ306":12949,"Ġrecall":12950,"366":12951,"Usually":12952,"@'":12953,"IVE":12954,"Ġcli":12955,"Ġ100000":12956,"ĠLABEL":12957,"508":12958,"))\"":12959,"FOREACH":12960,"(...)":12961,"AI":12962,"AWS":12963,"Ġindepend":12964,"Ġeuid":12965,"disks":12966,"Ġrealm":12967,"cannot":12968,"gluster":12969,"301":12970,"Same":12971,"Ġsocat":12972,"chrome":12973,"Ġhaproxy":12974,"exact":12975,"ĠBTRFS":12976,"Ġlegit":12977,"Ġbraces":12978,"Ġselects":12979,"recv":12980,"ĠSearch":12981,"PERM":12982,"Background":12983,"DENY":12984,"Ġsurprised":12985,"DAY":12986,"Ġthin":12987,"Ġduplex":12988,"strip":12989,"ĠCol":12990,"Ġlaunching":12991,"Ġtrees":12992,"TC":12993,"[/":12994,"zA":12995,"ĠVim":12996,"prohibited":12997,"Ġ+--------":12998,"Ġposting":12999,"Ġqueues":13000,"Ġhardd":13001,":!":13002,"Wr":13003,"Ġrp":13004,"attiny":13005,"Ġsurv":13006,"ĠPCIe":13007,"legal":13008,"Ġmirrors":13009,"kind":13010,"qa":13011,"ouched":13012,"entries":13013,"369":13014,"Unable":13015,"Monitor":13016,"needed":13017,"ĠPasswordAuthentication":13018,"Drop":13019,"vector":13020,"Ġsin":13021,"Ġrender":13022,"ĠSectors":13023,"ĠWAR":13024,"INST":13025,"Ġrootfs":13026,"ĠInsert":13027,"335":13028,"ĠXSA":13029,"values":13030,"268":13031,"Ġsequential":13032,"Guard":13033,"VR":13034,"cover":13035,"pat":13036,"west":13037,"Ġtiny":13038,"Ġvfat":13039,"FIRST":13040,"${#":13041,"strings":13042,"ĠMacOS":13043,"Ġvulnerability":13044,"MESSAGES":13045,"WITH":13046,"myadmin":13047,"Ġmessed":13048,"ĠUnreachable":13049,"Ġflaw":13050,"ĠSecond":13051,"hardware":13052,"TIFIC":13053,"BOOTPROTO":13054,"Ġpac":13055,"Ġworkload":13056,"properties":13057,"Ġsitting":13058,"ĠTra":13059,"Ġsimplified":13060,"+=":13061,"Ġexhaust":13062,"Ġproposed":13063,"existent":13064,"Ġ403":13065,"serverfault":13066,"Ġdiscovery":13067,"Testing":13068,"Ġconverting":13069,"(*":13070,"mtu":13071,"vision":13072,"Ġnr":13073,"ulates":13074,"ĠGraph":13075,"UTE":13076,"Ġindent":13077,"FAIK":13078,"green":13079,"ĠMAX":13080,"'>":13081,"Ġperf":13082,"newkeys":13083,"Delete":13084,"processing":13085,"Org":13086,"ĠENV":13087,"fstype":13088,"Ġstruggling":13089,"Ġouter":13090,"Ġproprietary":13091,"ĠBox":13092,"Ġresort":13093,"Ġ;)":13094,"Ġreasonably":13095,"Ġrecommendation":13096,"break":13097,"zn":13098,"roc":13099,"ighttpd":13100,"ender":13101,"ĠFUSE":13102,"ugin":13103,"problem":13104,"ĠJenkins":13105,"Ġguides":13106,"Ġraised":13107,"Ġvulnerable":13108,"Ġparentheses":13109,"$@":13110,"pick":13111,"qt":13112,"Ġled":13113,"Ġexcluded":13114,"ĠMSI":13115,"Ġunion":13116,"archlinux":13117,"Ġoptimize":13118,"MYSQL":13119,"urope":13120,"ORIGIN":13121,"vps":13122,"itled":13123,"Ġfol":13124,"riage":13125,"Ġseed":13126,"plorer":13127,"645":13128,"ĠVFS":13129,"805":13130,"processes":13131,"Ġeliminate":13132,"Ġculpr":13133,"assign":13134,"583":13135,"Ġmirroring":13136,"nsswitch":13137,"\"],":13138,"alived":13139,"emeral":13140,"Ġconsume":13141,"ĠUnicode":13142,"âĢĿ,":13143,"blkid":13144,"Cloud":13145,"symlink":13146,"Ġpppd":13147,"Ġanalog":13148,"Ġmint":13149,"ĠSession":13150,"Ġjessie":13151,"askubuntu":13152,"forwarded":13153,"Ġframework":13154,"Best":13155,"CAR":13156,"rewrite":13157,"Ġmobile":13158,"upg":13159,"503":13160,"Ġobserved":13161,"TIVE":13162,"latform":13163,"Ġimplied":13164,"VIDIA":13165,"]|":13166,"hostkey":13167,"284":13168,"mailbox":13169,"Ġwont":13170,"IGNORE":13171,"canonical":13172,"Ġmisunder":13173,"Ġdiscarded":13174,"``":13175,"Ġ244":13176,"ĠDist":13177,"ften":13178,"Ġemerg":13179,"Ġ`-":13180,"realm":13181,"Ġcrashed":13182,"ĠEDIT":13183,"riginal":13184,"TZ":13185,"altern":13186,"avz":13187,"BUILD":13188,"Ġscanned":13189,"Ġirrelevant":13190,"Ġadvantages":13191,"ĠNU":13192,"Ġ'<":13193,"background":13194,"internet":13195,"Ġrecommendations":13196,"Ġinitiate":13197,"rus":13198,"versions":13199,"ostart":13200,"ĠMSS":13201,"clam":13202,"ĠĠĠĠĠĠĠĠĠĠĠĠĠĠĠĠĠĠĠĠĠĠĠĠĠĠĠĠĠĠĠĠĠĠ":13203,"management":13204,"Ġselecting":13205,"Ġfoobar":13206,"FAILED":13207,"MODU":13208,"Ġnavigate":13209,"Ġgateways":13210,"FDCWD":13211,"Either":13212,"micro":13213,"Ġ$@":13214,"Ġmirrored":13215,"cerpt":13216,"Ġmerely":13217,"hide":13218,"wants":13219,"Ġsse":13220,"Ġcast":13221,"Ġpty":13222,"Ġ248":13223,"ĠNTL":13224,"Initial":13225,"Ġsubmit":13226,"028":13227,"numbers":13228,"ĠShort":13229,"Ġexternally":13230,"Say":13231,"lx":13232,"Ġcal":13233,"==>":13234,"ANG":13235,"creating":13236,"358":13237,"Ġidentification":13238,"Ġdeveloped":13239,"Ġvisual":13240,"Ġupgrades":13241,"different":13242,"adly":13243,"Ġspot":13244,"660":13245,"Ġmetrics":13246,"Ġchecksums":13247,"vn":13248,"Ġcksum":13249,"ĠLUN":13250,"869":13251,"370":13252,"ECDHE":13253,"aphore":13254,"410":13255,"GC":13256,"Panel":13257,"Ġthrot":13258,"ummary":13259,"ĠMa":13260,"setting":13261,"378":13262,"CHLD":13263,"Ġlaptops":13264,"ĠLooking":13265,"Volumes":13266,"`\"":13267,"Ġwipe":13268,"abytes":13269,"Ġ.*":13270,"352":13271,"Resol":13272,"Ġmembership":13273,"Impl":13274,"||||":13275,"Ġaltogether":13276,"Ġpublished":13277,"JAVA":13278,"lspci":13279,"ĠAuthent":13280,"ĠLZ":13281,"ĠRS":13282,"Ġunre":13283,"Ġiif":13284,"ĠInit":13285,"047":13286,"TIMEOUT":13287,"ĠFilesystem":13288,"ĠMYSQL":13289,"IE":13290,"dos":13291,"must":13292,"ners":13293,"libssh":13294,"Ġcontainerd":13295,"ensive":13296,"called":13297,"ĠStrictHostKeyChecking":13298,"FORMAT":13299,"AX":13300,"sest":13301,"changes":13302,"INX":13303,"Ġbold":13304,"342":13305,"ĠSubject":13306,"Ġsymptom":13307,"UME":13308,"ulative":13309,"Ġsubdomain":13310,"Ġchannels":13311,"relax":13312,"oon":13313,"Ġvagrant":13314,"Ġ$!":13315,"Ġchars":13316,"Ġmessing":13317,"Ports":13318,"Ġfrontend":13319,"Building":13320,"/)":13321,"Le":13322,"ĠdBm":13323,"Ġeq":13324,"Ġexcess":13325,"ĠDL":13326,"Ġ:=":13327,"993":13328,"Ġconsuming":13329,"Ġsleeping":13330,"msdos":13331,"Ġtechnique":13332,"Ġnegoti":13333,"ĠDatabase":13334,"obu":13335,"566":13336,"Ġtypedef":13337,"ĠFIFO":13338,"Ġluks":13339,"mn":13340,"Ġoptimal":13341,"ĠHostName":13342,"Loading":13343,"Ġspawned":13344,"gpt":13345,"mir":13346,"icons":13347,"demo":13348,"ĠFolder":13349,"___":13350,"References":13351,"marks":13352,"TEMP":13353,"motd":13354,"Ġtogg":13355,"ĠCN":13356,"ersist":13357,"272":13358,"279":13359,"FOLDER":13360,"LANG":13361,"Disable":13362,"Ġbelonging":13363,"ĠOPEN":13364,"ĠLayer":13365,"VT":13366,"cups":13367,"Ġcell":13368,"three":13369,"ĠEdit":13370,"Ġ86400":13371,"mean":13372,"Subsystem":13373,"follows":13374,"prep":13375,"vider":13376,"ĠText":13377,"##*/":13378,"Ġpractices":13379,"Ġisolate":13380,"smartctl":13381,"BAD":13382,"Used":13383,"vr":13384,"ERS":13385,"++,":13386,"VIRON":13387,"ĠFunction":13388,"aft":13389,"Ġmodifier":13390,"267":13391,"Ġglobally":13392,"amsung":13393,"ĠExtended":13394,"811":13395,"games":13396,"Ġsane":13397,"Ġgpt":13398,"Ġ213":13399,"orewall":13400,"bear":13401,"posix":13402,"Ġexports":13403,"Ġinvokes":13404,"Temp":13405,"Ġcs":13406,"isp":13407,"ernames":13408,"#\"":13409,"Ġsport":13410,"Ġ103":13411,"ĠHence":13412,"ialect":13413,"Ġexpir":13414,"############":13415,"ĠSystems":13416,"GW":13417,"Ġfifo":13418,"unt":13419,"âĢľ":13420,"++))":13421,"Ġtil":13422,"Ġbastion":13423,"ĠIdeally":13424,"entrypoint":13425,"ogroup":13426,"ĠObviously":13427,"udget":13428,"765":13429,"Ġideally":13430,"Ġsnmp":13431,"ĠQuery":13432,"PIC":13433,"ĠAAAA":13434,"1048576":13435,"ĠTake":13436,"Ġ465":13437,"Ġsecs":13438,"Ġfewer":13439,"ttyUSB":13440,"Ġlargest":13441,"ĠIOPS":13442,"schema":13443,"011":13444,"Tried":13445,"anacron":13446,"Ġgigabit":13447,"Ġ129":13448,"Ġhooks":13449,"Suppose":13450,"Dist":13451,"}{":13452,"Ġil":13453,"onus":13454,"Ġbundle":13455,"Ġ155":13456,"ĠValid":13457,"vhosts":13458,"ĠRC":13459,"Ġgover":13460,"Ġ2002":13461,"Ġscrew":13462,"BF":13463,"king":13464,"sil":13465,"scri":13466,"ales":13467,"adv":13468,"ĠSeg":13469,"examples":13470,"1200":13471,"ĠBind":13472,"Ġsupers":13473,"Ġips":13474,"383":13475,"nsure":13476,"protocols":13477,"Ġinserts":13478,"ĠCONT":13479,"Ġrebuilding":13480,"Google":13481,"536":13482,"Non":13483,"bundle":13484,"Ġfb":13485,"antic":13486,"Ġunrelated":13487,"SSEC":13488,")),":13489,"Wants":13490,"\\[":13491,"Ġpolkit":13492,"ĠASA":13493,"Ġ157":13494,"Ġredhat":13495,"AuthorizedKeys":13496,"ĠActiv":13497,"344":13498,"514":13499,"bay":13500,"Ġ229":13501,"Ġchallenge":13502,"ipsec":13503,"ĠMMX":13504,"ĠOur":13505,"IPADDR":13506,"Ġrefuses":13507,"loops":13508,"Ġreaching":13509,"firewalld":13510,"Ġsynchronization":13511,"COPYRIGHT":13512,"-+-+":13513,"RX":13514,"did":13515,"Ġnature":13516,"1023":13517,"xxxxx":13518,"MET":13519,"ACCESS":13520,"Ġadm":13521,"awning":13522,"Ġencode":13523,"region":13524,"VALUE":13525,"Ġderiv":13526,"^@^@^@^@^@^@^@^@":13527,"wk":13528,"wake":13529,"xec":13530,"Ġfc":13531,"ĠĠĠĠĠĠĠĠĠĠĠĠĠĠĠĠĠĠĠĠĠĠĠĠĠĠĠĠĠĠĠĠĠĠĠĠ":13532,"987":13533,"Ġworst":13534,"$$":13535,"'],":13536,"/**":13537,"Table":13538,"gif":13539,"lost":13540,"was":13541,"ani":13542,"usermod":13543,"asible":13544,"sep":13545,"sdX":13546,"349":13547,"Ġdetached":13548,"375":13549,"registry":13550,"Ġappropriately":13551,"timed":13552,"Ġevaluation":13553,"ĠMOUNTPOINT":13554,"ĠCLIENT":13555,"ĠAdministrator":13556,"RS":13557,"dll":13558,"nod":13559,"Ġpve":13560,"ionary":13561,"wheel":13562,"VirtualBox":13563,"ĠDepends":13564,"keepalive":13565,"XXXXXXXXXXXXXXXX":13566,"Ġcamera":13567,"rlimit":13568,"uptime":13569,"iscsi":13570,"Ġfancy":13571,"oting":13572,"upstream":13573,"Ġtimeval":13574,"sdg":13575,"ously":13576,"339":13577,"ĠSpecifically":13578,"Ġdestined":13579,"Ip":13580,"Ġpane":13581,"Ġhur":13582,"ethernet":13583,"Ġuseradd":13584,"Ġresides":13585,"397":13586,"Ġencaps":13587,"position":13588,"mkv":13589,"oted":13590,"umble":13591,"noop":13592,"Ġexpires":13593,"sumer":13594,"Ġpurge":13595,"Connecting":13596,"Ġpulled":13597,">>>":13598,"Ġ'.'":13599,"trigg":13600,"Database":13601,"advant":13602,"ĠTunnel":13603,"Ġmanages":13604,"REMOVE":13605,"systems":13606,"ECDSA":13607,"Ġwildcards":13608,"Ġugly":13609,"SMB":13610,"Ġprog":13611,"----+":13612,"ĠWrit":13613,"Ġzombie":13614,"Execute":13615,"Modify":13616,"Ġdatacenter":13617,"Session":13618,"Ġasync":13619,"construct":13620,"ĠWSL":13621,"Ġspecs":13622,"ftime":13623,"-----+":13624,"'\\''":13625,"Ġschema":13626,"fonts":13627,"office":13628,"Ġtill":13629,"ĠIF":13630,"Ġreuse":13631,"Ġinteraction":13632,"Ġ<-":13633,"Ġgenerator":13634,"Ġobj":13635,"Unless":13636,"Ġbiggest":13637,"Though":13638,"Ġvendors":13639,"Ġ1001":13640,"networks":13641,"Ġfrag":13642,"Ġauthorization":13643,"Certificate":13644,"Ġoccurrence":13645,"#$":13646,"4163":13647,"gd":13648,"xi":13649,"Ġblob":13650,"ARM":13651,"party":13652,"transfer":13653,"Ġrecursion":13654,"Global":13655,"IFI":13656,"Welcome":13657,"\\'":13658,"fanalyzer":13659,"mav":13660,"ethtool":13661,"Ġsubscript":13662,"760":13663,"ĠSTREAM":13664,"Ġbuffered":13665,"Ġcaught":13666,"jmp":13667,"Ġloose":13668,"Ġforcing":13669,"ĠSu":13670,"uploads":13671,"please":13672,"ĠESP":13673,"timeo":13674,"bluetooth":13675,"EXP":13676,"Ġsorting":13677,"wireless":13678,"ĠWRITE":13679,"Ġtemperature":13680,"ĠDuring":13681,"aping":13682,"Ġsetfacl":13683,"Ġindependently":13684,"/(":13685,"omp":13686,"Ġ\\.":13687,"Ġentropy":13688,"ARGV":13689,"ĠSimilarly":13690,"0644":13691,"324":13692,"Ġhdd":13693,"Ġ976":13694,"Ġextglob":13695,"Ġdamage":13696,"Ġculprit":13697,"Arm":13698,"LX":13699,"](":13700,"eers":13701,"Ġtput":13702,"inher":13703,"unzip":13704,"Ġoutproc":13705,"Ġ109":13706,"REAL":13707,"558":13708,"046":13709,"ĠUncomment":13710,"Ġletting":13711,"Groups":13712,"Ġpa":13713,"ĠLTO":13714,"ĠGl":13715,"Ġcounted":13716,"Copyright":13717,"Ġpromisc":13718,"KeepAlive":13719,"mynetwork":13720,"PIPE":13721,"Privile":13722,"SELinux":13723,"Ġnsl":13724,"Ġ249":13725,"ĠDes":13726,"cpus":13727,"013":13728,"Ġswapped":13729,"paths":13730,"Ġ640":13731,"Ġtruncate":13732,"Ideally":13733,"uer":13734,"zabbix":13735,"Ġclip":13736,"leading":13737,"Ġvnc":13738,"Ġdelta":13739,"Ġiw":13740,"Ġ900":13741,"Ġcounting":13742,"NETWORK":13743,"Ġscalar":13744,"Ġalphab":13745,"required":13746,"still":13747,"stash":13748,"rim":13749,"Ġ210":13750,"Ġsubfolders":13751,"773":13752,"Ġresponds":13753,"frag":13754,"ĠCalls":13755,"cremental":13756,":--":13757,"WTO":13758,"^[[":13759,"inished":13760,"Ġepoll":13761,").*":13762,"929":13763,"866":13764,"tested":13765,"549":13766,"OpenVPN":13767,"Ġcosts":13768,"Ġhonest":13769,"SRC":13770,"UA":13771,"prefer":13772,"Download":13773,"âĸĴâĸĴâĸĴâĸĴ":13774,"isite":13775,"alg":13776,"ĠProt":13777,"ĠNon":13778,"ĠTwo":13779,"Ġowns":13780,"285":13781,"oredump":13782,"Ġflat":13783,"detail":13784,"Ġintervals":13785,"ĠEDT":13786,"Ġethtool":13787,"620":13788,"Terminal":13789,"migr":13790,"Ġforums":13791,"ĠAPT":13792,"Ġ126":13793,"Looks":13794,"Proto":13795,"ĠInd":13796,"riends":13797,"esting":13798,"keeper":13799,"outube":13800,"Changing":13801,"UNIX":13802,"ikes":13803,"enses":13804,"Ġexamine":13805,"bench":13806,"BI":13807,"YMO":13808,"tasks":13809,"Ġ132":13810,"ĠDeny":13811,"exim":13812,"ĠOFS":13813,"Ġindication":13814,"Settings":13815,"assemble":13816,"mime":13817,"xffffffff":13818,"oudf":13819,"Ġchk":13820,"ĠFre":13821,"IDR":13822,"ONG":13823,"parameters":13824,"597":13825,"Ġremovable":13826,"sourceforge":13827,"Ġcolle":13828,"Ġtarball":13829,"ĠSubnet":13830,"Backups":13831,"Ġrcvd":13832,"Ġslots":13833,"Ġbridges":13834,"pastebin":13835,"820":13836,"hr":13837,"iant":13838,"Ġstar":13839,"cpio":13840,"Ġsimulate":13841,"SSE":13842,"SSID":13843,"Ġidmap":13844,"ĠRedhat":13845,"Ġnullglob":13846,"310":13847,"|'":13848,"Ġdi":13849,"Ġrhel":13850,"Ġseper":13851,"Ġcommandline":13852,"ixel":13853,"zshrc":13854,"Ġmillion":13855,"sity":13856,"Ġcategory":13857,"ocate":13858,"Ġappliance":13859,"Ġprice":13860,"290":13861,"ĠDelete":13862,"Links":13863,"ĠMSG":13864,"¼âĶĢâĶĢâĶĢâĶĢâĶĢâĶĢâĶĢâĶĢâĶĢâĶĢâĶĢâĶĢâĶĢâĶĢâĶĢâĶĢ":13865,"âĨ":13866,"Ġspt":13867,"Ġpy":13868,"Ġstock":13869,"ĠSSID":13870,"Ġdelimited":13871,"ĠFE":13872,"ĠTypically":13873,"sshpass":13874,"Ġpartially":13875,"559":13876,"appiness":13877,"Ġscans":13878,"Ġoperates":13879,"SELECT":13880,"Ġchoosing":13881,"dament":13882,"YMOUS":13883,";\"":13884,"OW":13885,"Ġtxt":13886,"Ġbuff":13887,"adj":13888,"Ġ/.":13889,"Ġ307":13890,"ĠGiven":13891,"984":13892,"sqlite":13893,"Ġstripped":13894,"INTERFACE":13895,"cortex":13896,"permission":13897,"ĠMP":13898,"Ġ*<":13899,"ĠGb":13900,"297":13901,"Ġgotten":13902,"crond":13903,"ĠDocumentRoot":13904,"nftables":13905,"anda":13906,"ĠTC":13907,"fficial":13908,"RIER":13909,"inputrc":13910,"Ġthrows":13911,"Ġmasquerade":13912,"AE":13913,"Page":13914,"ĠBUG":13915,"appy":13916,"essional":13917,"ryptfs":13918,"installation":13919,"Ġremainder":13920,"Ġkeywords":13921,"lr":13922,"actually":13923,"algs":13924,"outside":13925,"queeze":13926,"ĠTPM":13927,"performance":13928,"Ġoverview":13929,"277":13930,"Ġsmooth":13931,"fffffff":13932,"Ġ271":13933,"detect":13934,"forking":13935,"aaaaaaaaaaaaaaaa":13936,"CRON":13937,"SK":13938,"fatal":13939,"Ġher":13940,"ptp":13941,"Ġiperf":13942,"270":13943,"ifications":13944,"Ġdatagram":13945,"Ġfro":13946,"sth":13947,"Ġring":13948,"plt":13949,"Ġlistener":13950,"331":13951,"Ġcloser":13952,"ĠEnglish":13953,"Ġprocedures":13954,"bh":13955,"Ġsquash":13956,"Ġhole":13957,"emacs":13958,"iguous":13959,"ĠĠĠĠĠĠĠĠĠĠĠĠĠĠĠĠĠĠčĊ":13960,"ĠMaster":13961,"Ġipset":13962,"489":13963,"Explanation":13964,"457":13965,"Ġinvolving":13966,"ĠCluster":13967,"Ġconstructs":13968,"hit":13969,"Ġthumb":13970,"Ġmariadb":13971,"Ġunlink":13972,"Ġheld":13973,"protector":13974,"ĠDEV":13975,"Ġreliability":13976,"alert":13977,"rij":13978,"ĠDocs":13979,"ĠPART":13980,"Ġwherever":13981,"5432":13982,"Ġheur":13983,"ĠFAILED":13984,"Syslog":13985,"cv":13986,"dnl":13987,"ĠDH":13988,"927":13989,"production":13990,"ĠĠĠĠĠĠĠĠĠĠĠĠĠĠĠĠĠĠĠĠĠĠĠĠĠĠĠĠĠĠĠĠĠĠĠĠĠĠĠĠ":13991,"ĉĉĉĉĠĠĠ":13992,"knod":13993,"Ġbindings":13994,"framework":13995,"ĠGuest":13996,"Ġsuspicious":13997,"mangle":13998,"Ġdup":13999,"Ġdoesnt":14000,"appro":14001,"!!!":14002,"ĠIPTables":14003,"'/":14004,"PACK":14005,"recomm":14006,"imp":14007,"ĠMagic":14008,"Ġ384":14009,"PUB":14010,"remov":14011,"ĠSYS":14012,"FORM":14013,"Generally":14014,"dt":14015,"ratio":14016,"Ġfonts":14017,"allocation":14018,"idget":14019,"ĠCGroup":14020,"Ġ*****":14021,"Ġminus":14022,"ASTER":14023,"processed":14024,"ROUTE":14025,"Ġpkcs":14026,"âĶ¤":14027,"ĠTemp":14028,"Ġcontrib":14029,"470":14030,"Ġcredential":14031,"Ġlowercase":14032,"Ġmysqldump":14033,"Ġcompanies":14034,"DENYWRITE":14035,":<":14036,"Nmap":14037,"die":14038,"Ġâķ":14039,"innam":14040,"refs":14041,"enet":14042,"ley":14043,"ĠSk":14044,"ĠRM":14045,"ĠNormal":14046,"Ġleak":14047,"REC":14048,"REMATCH":14049,"ĠUni":14050,"arnish":14051,"IGN":14052,"Recently":14053,"Processing":14054,"++++++++":14055,"SATA":14056,"equ":14057,"Ġwise":14058,"Ġareas":14059,"ĠLAMP":14060,"ĠGrub":14061,"Ġ750":14062,"557":14063,"Ġrequesting":14064,"Ġesp":14065,"Reload":14066,"beta":14067,"spl":14068,"tick":14069,"Ġ(.":14070,"ocks":14071,"372":14072,"COVER":14073,"ĠMTA":14074,"Ġimproved":14075,"âĸĳâĸĳ":14076,"ubkeyAuthentication":14077,"Need":14078,"Ġsg":14079,"Ġperror":14080,"ĠEm":14081,"ĠHope":14082,"Ġimap":14083,"mindepth":14084,"Ġduplicated":14085,"Ġrotated":14086,"Ġcontract":14087,"authenticated":14088,"xff":14089,"Ġfq":14090,"omet":14091,"avis":14092,"Ġsolves":14093,"AGIC":14094,"Wanalyzer":14095,"kt":14096,"refix":14097,"ato":14098,"acct":14099,"ssss":14100,"Ġmydomain":14101,"ĠTZ":14102,"Ġcompose":14103,"Ġ168":14104,"MPLE":14105,"ĠOperating":14106,"CRYPT":14107,"Ġheavily":14108,"Ġsole":14109,"Ġcompound":14110,"ruit":14111,"gorithm":14112,"Ġtransmission":14113,"innamon":14114,"Ban":14115,"anet":14116,"Ġ------":14117,"upal":14118,"IPs":14119,"Ġkills":14120,"fcntl":14121,"YYYY":14122,"automount":14123,"Ġyields":14124,"larg":14125,"Ġoom":14126,"acters":14127,"ilst":14128,"484":14129,"recovery":14130,"Ġutilize":14131,"tagged":14132,"Ġmonitors":14133,"ANONYMOUS":14134,"jvm":14135,"Ġwaste":14136,"Ġusernames":14137,"Ġunspecified":14138,"Ġsolid":14139,"sysfs":14140,"bootstrap":14141,"Ġemulation":14142,"Ġactivation":14143,"ictures":14144,"KnownHosts":14145,"Custom":14146,"NL":14147,"Pad":14148,"Sym":14149,"Ġfa":14150,"Ġdn":14151,"Ġcommas":14152,"Ġ#!/":14153,"027":14154,"274":14155,"ĠComput":14156,"terminated":14157,"|\\":14158,"Ġanalyze":14159,"Ġhouse":14160,"ĠCET":14161,"Ġ143":14162,"Ġassumptions":14163,"Ġexpanding":14164,"ĠLogging":14165,"Ġhanging":14166,"Endpoint":14167,"ĠDISK":14168,"FILTER":14169,"Su":14170,"eus":14171,"imap":14172,"ĠRel":14173,"intr":14174,"ĠBPF":14175,"Ġ)\"":14176,"ĠSubsystem":14177,"hadoop":14178,"High":14179,"Names":14180,"TAB":14181,"pull":14182,"Ġlies":14183,"forums":14184,"ĠHA":14185,"Ġfundament":14186,"Hostname":14187,"partial":14188,"fraid":14189,"Ġbrowsing":14190,"ĠRuntime":14191,"ĠString":14192,"Ġuppercase":14193,"SWAP":14194,"Auto":14195,"ao":14196,"wind":14197,"lys":14198,"ĠPDF":14199,"localtime":14200,"ORITY":14201,"Ġheap":14202,"digest":14203,"Header":14204,"LAST":14205,"Ã¿":14206,"Those":14207,"swan":14208,"ira":14209,"867":14210,"LETE":14211,"Ġprogrammer":14212,"Ġmanagers":14213,"azure":14214,"Ġ12345":14215,"Created":14216,"escape":14217,"elt":14218,"Ġ2049":14219,"yncd":14220,"rightness":14221,"Container":14222,"Ġbrowsers":14223,"Ġdelayed":14224,"Ġbridging":14225,"Ġzeros":14226,",'":14227,"316":14228,"330":14229,"nex":14230,"Ġafraid":14231,"Ġ{\"":14232,"Ġcrazy":14233,"center":14234,"lastic":14235,"Ġpicked":14236,"Ġspecifications":14237,"Driver":14238,"ahead":14239,"Ġnl":14240,"Ġrestric":14241,"liu":14242,"prop":14243,"Ġ&>":14244,"Ġcountry":14245,"gentoo":14246,"Allowed":14247,"balance":14248,"jack":14249,"want":14250,"owait":14251,"ĠPHY":14252,"spam":14253,"Ġ],":14254,"Ġavoided":14255,"Ġclassic":14256,"MACHINE":14257,"Ġiterations":14258,"Ġdivision":14259,"Ġcomfortable":14260,"Final":14261,"staging":14262,"Ġtruly":14263,"mprotect":14264,"ĠJessie":14265,"Ġdivide":14266,"309":14267,"Cont":14268,"Ġpowered":14269,"objectClass":14270,"Ġconverts":14271,"OPTARG":14272,"Ġusermod":14273,"sdk":14274,"Ġswitchport":14275,"Ġbrings":14276,"Ġ193":14277,"784":14278,"ĠĠĠĠĠĠĠĠĠĠĠĠĠĠĠĠĠĠĠĠĠĠĠĠĠĠĠĠĠĠĠĠĠĠĠĠĠĠĠĠĠĠĠĠĠĠĠĠĠĠĠĠĠĠĠĠĠĠĠĠĠĠĠĠĠĠĠĠĠĠĠĠĠĠĠĠĠĠĠĠĠĠĠĠĠĠĠĠĠĠĠĠĠĠĠĠĠĠĠĠĠĠĠĠĠĠĠĠĠĠĠĠĠĠĠĠĠĠĠĠĠĠĠĠĠĠĠĠĠĠĠĠĠĠĠĠĠĠĠĠĠĠĠĠĠĠĠĠĠĠĠĠĠĠĠĠĠĠĠĠĠĠĠĠĠĠĠĠĠĠĠĠĠĠĠĠĠĠĠĠĠĠĠĠĠĠĠĠĠĠĠĠĠĠĠĠĠĠĠĠĠĠĠĠĠĠĠĠĠĠĠĠĠĠĠĠĠĠĠĠĠĠĠĠĠĠĠĠĠĠĠĠĠĠĠĠĠĠĠĠĠĠĠĠĠĠĠĠĠĠĠĠĠĠĠĠ":14279,"Ġnotifications":14280,"TcpForwarding":14281,"Nothing":14282,"Site":14283,"USH":14284,"refresh":14285,"Ġ\"(":14286,"ĠCS":14287,"ĠNG":14288,"Ġconfigurable":14289,"=\"%":14290,"spaces":14291,"tests":14292,"Ġkeepalive":14293,"installer":14294,"permit":14295,"Ġnumerous":14296,"CFG":14297,"homedir":14298,"Ġub":14299,"asc":14300,"Ġ247":14301,"STAT":14302,"Ġoperand":14303,"AProxy":14304,"Ġbasename":14305,"superuser":14306,"CREATE":14307,"Ġinflu":14308,"Term":14309,"rss":14310,"Ġwalk":14311,"arwin":14312,"ĠThink":14313,"Ġ[/":14314,"STOR":14315,"Ġhtb":14316,"Ġzpool":14317,"0700":14318,"volatile":14319,"Ġmilliseconds":14320,"Attempt":14321,"Ġts":14322,"Ġinf":14323,"ĠMbits":14324,"Ġ$'\\":14325,"conversion":14326,"Ġvariations":14327,"278":14328,"088":14329,"769":14330,"pcm":14331,"pki":14332,"EMON":14333,"requests":14334,"Ġtranslated":14335,"Ġbackslashes":14336,"Ġultimately":14337,"Armor":14338,"Deny":14339,"Fl":14340,"PART":14341,"SZ":14342,"iot":14343,"ĠSHEL":14344,"Ġundo":14345,"343":14346,"brctl":14347,"Ġmultipath":14348,"Ġ0755":14349,"Ġintroduce":14350,"etic":14351,"usters":14352,"ported":14353,"gear":14354,"mounting":14355,"ĠAlt":14356,"ĠTrace":14357,"Ġsubstitutions":14358,"Ġevaluates":14359,"QUEUE":14360,"406":14361,"Wformat":14362,"egrep":14363,"mdev":14364,"ĠRD":14365,"Ġ832":14366,"foreach":14367,"3600":14368,"Dev":14369,"ĠNOTE":14370,"ĠMOV":14371,"Ġexceeds":14372,"Ġcontinuously":14373,"Ġhistorical":14374,".'":14375,"2177":14376,"bm":14377,"iation":14378,"sq":14379,"tftp":14380,"alpine":14381,"rigin":14382,"Ġvhost":14383,"Ġ203":14384,"Ġsubstr":14385,"Shared":14386,"ĠResol":14387,"Ġreveal":14388,"bid":14389,"Ġrever":14390,"ĠRST":14391,"9200":14392,"QUIT":14393,"allocate":14394,"Ġflushed":14395,"Ġpolling":14396,"Regarding":14397,"Bit":14398,"gam":14399,"Ġmut":14400,"ioned":14401,"Ġinproc":14402,"implement":14403,"ĠSync":14404,"ĠBridge":14405,"phan":14406,"Ġtermination":14407,"ĉĉĉĉĉĉĠĠĠĠĠ":14408,"Connected":14409,"Trace":14410,"Loaded":14411,"cntl":14412,"FIXED":14413,"SAS":14414,"ĠIMAP":14415,"7772":14416,"Doing":14417,"ĠIntegr":14418,"monit":14419,"attributes":14420,"ĠGitHub":14421,"Ġdiscussed":14422,"Ġrepeatedly":14423,"GENER":14424,"odetect":14425,
[...]
